{
  "version": "1.0",
  "truncation": null,
  "padding": null,
  "added_tokens": [],
  "normalizer": null,
  "pre_tokenizer": {
    "type": "Whitespace"
  },
  "post_processor": null,
  "decoder": null,
  "model": {
    "type": "BPE",
    "dropout": null,
    "unk_token": null,
    "continuing_subword_prefix": null,
    "end_of_word_suffix": "</w>",
    "fuse_unk": false,
    "vocab": {
      "!": 0,
      ".": 1,
      "?": 2,
      "a": 3,
      "b": 4,
      "c": 5,
      "d": 6,
      "e": 7,
      "f": 8,
      "g": 9,
      "h": 10,
      "i": 11,
      "j": 12,
      "k": 13,
      "l": 14,
      "m": 15,
      "n": 16,
      "o": 17,
      "p": 18,
      "q": 19,
      "r": 20,
      "s": 21,
      "t": 22,
      "u": 23,
      "v": 24,
      "w": 25,
      "x": 26,
      "y": 27,
      "z": 28,
      "à": 29,
      "á": 30,
      "â": 31,
      "ä": 32,
      "æ": 33,
      "ç": 34,
      "è": 35,
      "é": 36,
      "ë": 37,
      "í": 38,
      "ï": 39,
      "ñ": 40,
      "ó": 41,
      "ô": 42,
      "ö": 43,
      "ù": 44,
      "ú": 45,
      "ü": 46,
      "œ": 47,
      "ŭ": 48,
      "g</w>": 49,
      "s</w>": 50,
      "e</w>": 51,
      "n</w>": 52,
      "d</w>": 53,
      "h</w>": 54,
      "o</w>": 55,
      "y</w>": 56,
      "a</w>": 57,
      "t</w>": 58,
      "w</w>": 59,
      "l</w>": 60,
      "x</w>": 61,
      "m</w>": 62,
      "k</w>": 63,
      "r</w>": 64,
      "p</w>": 65,
      "i</w>": 66,
      "b</w>": 67,
      "f</w>": 68,
      "c</w>": 69,
      "z</w>": 70,
      "u</w>": 71,
      "v</w>": 72,
      "q</w>": 73,
      "é</w>": 74,
      "ó</w>": 75,
      "!</w>": 76,
      "á</w>": 77,
      "?</w>": 78,
      "ù</w>": 79,
      "j</w>": 80,
      "ŭ</w>": 81,
      "à</w>": 82,
      ".</w>": 83,
      "æ</w>": 84,
      "th": 85,
      "the</w>": 86,
      "an": 87,
      "in": 88,
      "and</w>": 89,
      "ed</w>": 90,
      "ou": 91,
      "er": 92,
      "of</w>": 93,
      "to</w>": 94,
      "er</w>": 95,
      "hi": 96,
      "ha": 97,
      "re": 98,
      "ing</w>": 99,
      "in</w>": 100,
      "at</w>": 101,
      "en": 102,
      "ar": 103,
      "as</w>": 104,
      "on": 105,
      "it": 106,
      "he</w>": 107,
      "or": 108,
      "on</w>": 109,
      "st": 110,
      "al": 111,
      "or</w>": 112,
      "en</w>": 113,
      "no": 114,
      "at": 115,
      "el": 116,
      "ro": 117,
      "that</w>": 118,
      "is</w>": 119,
      "was</w>": 120,
      "me</w>": 121,
      "his</w>": 122,
      "st</w>": 123,
      "the": 124,
      "an</w>": 125,
      "it</w>": 126,
      "be": 127,
      "ve</w>": 128,
      "ly</w>": 129,
      "es</w>": 130,
      "ch</w>": 131,
      "wh": 132,
      "wit": 133,
      "with</w>": 134,
      "ld</w>": 135,
      "ea": 136,
      "le</w>": 137,
      "li": 138,
      "ou</w>": 139,
      "ri": 140,
      "se</w>": 141,
      "for</w>": 142,
      "ce</w>": 143,
      "ti": 144,
      "ere</w>": 145,
      "bu": 146,
      "lo": 147,
      "sa": 148,
      "not</w>": 149,
      "you</w>": 150,
      "si": 151,
      "had</w>": 152,
      "di": 153,
      "su": 154,
      "gh": 155,
      "my</w>": 156,
      "se": 157,
      "il": 158,
      "co": 159,
      "la": 160,
      "her</w>": 161,
      "le": 162,
      "ma": 163,
      "whi": 164,
      "ra": 165,
      "but</w>": 166,
      "be</w>": 167,
      "ould</w>": 168,
      "ev": 169,
      "un": 170,
      "all</w>": 171,
      "so": 172,
      "ur": 173,
      "by</w>": 174,
      "sh": 175,
      "ent</w>": 176,
      "she</w>": 177,
      "our</w>": 178,
      "have</w>": 179,
      "ca": 180,
      "de": 181,
      "ght</w>": 182,
      "which</w>": 183,
      "one</w>": 184,
      "ac": 185,
      "po": 186,
      "ther</w>": 187,
      "out</w>": 188,
      "this</w>": 189,
      "con": 190,
      "ss</w>": 191,
      "ke</w>": 192,
      "oun": 193,
      "him</w>": 194,
      "so</w>": 195,
      "for": 196,
      "oo": 197,
      "ne": 198,
      "fro": 199,
      "ab": 200,
      "fi": 201,
      "from</w>": 202,
      "sp": 203,
      "they</w>": 204,
      "ver": 205,
      "id</w>": 206,
      "mo": 207,
      "are</w>": 208,
      "mi": 209,
      "me": 210,
      "ill</w>": 211,
      "ho": 212,
      "ta": 213,
      "ter</w>": 214,
      "do": 215,
      "ir</w>": 216,
      "ex": 217,
      "qu": 218,
      "ted</w>": 219,
      "mp": 220,
      "th</w>": 221,
      "fa": 222,
      "de</w>": 223,
      "wa": 224,
      "ch": 225,
      "wha": 226,
      "ear": 227,
      "ati": 228,
      "ds</w>": 229,
      "were</w>": 230,
      "wi": 231,
      "mu": 232,
      "what</w>": 233,
      "al</w>": 234,
      "we</w>": 235,
      "wn</w>": 236,
      "sel": 237,
      "when</w>": 238,
      "as": 239,
      "pp": 240,
      "to": 241,
      "said</w>": 242,
      "no</w>": 243,
      "ru": 244,
      "ag": 245,
      "who</w>": 246,
      "ec": 247,
      "mor": 248,
      "ent": 249,
      "now</w>": 250,
      "sed</w>": 251,
      "if</w>": 252,
      "et</w>": 253,
      "would</w>": 254,
      "gh</w>": 255,
      "will</w>": 256,
      "man</w>": 257,
      "their</w>": 258,
      "fu": 259,
      "your</w>": 260,
      "ce": 261,
      "pre": 262,
      "there</w>": 263,
      "pro": 264,
      "ir": 265,
      "wor": 266,
      "ter": 267,
      "any</w>": 268,
      "ad": 269,
      "thing</w>": 270,
      "ll</w>": 271,
      "go": 272,
      "king</w>": 273,
      "been</w>": 274,
      "per": 275,
      "da": 276,
      "vi": 277,
      "af": 278,
      "thou": 279,
      "bo": 280,
      "ci": 281,
      "ge</w>": 282,
      "gre": 283,
      "self</w>": 284,
      "ous</w>": 285,
      "ked</w>": 286,
      "ever</w>": 287,
      "us</w>": 288,
      "ing": 289,
      "loo": 290,
      "ood</w>": 291,
      "ell</w>": 292,
      "led</w>": 293,
      "sha": 294,
      "them</w>": 295,
      "ts</w>": 296,
      "do</w>": 297,
      "ear</w>": 298,
      "more</w>": 299,
      "tion</w>": 300,
      "up</w>": 301,
      "some</w>": 302,
      "fe": 303,
      "very</w>": 304,
      "ate</w>": 305,
      "der": 306,
      "com": 307,
      "par": 308,
      "tw": 309,
      "ded</w>": 310,
      "other</w>": 311,
      "der</w>": 312,
      "tur": 313,
      "ation</w>": 314,
      "gi": 315,
      "could</w>": 316,
      "then</w>": 317,
      "into</w>": 318,
      "ran": 319,
      "lea": 320,
      "ved</w>": 321,
      "up": 322,
      "du": 323,
      "itt": 324,
      "ong</w>": 325,
      "of": 326,
      "rou": 327,
      "ound</w>": 328,
      "sc": 329,
      "ind</w>": 330,
      "did</w>": 331,
      "ser": 332,
      "than</w>": 333,
      "like</w>": 334,
      "ant</w>": 335,
      "re</w>": 336,
      "our": 337,
      "ty</w>": 338,
      "am</w>": 339,
      "who": 340,
      "em": 341,
      "ence</w>": 342,
      "ity</w>": 343,
      "ons</w>": 344,
      "op": 345,
      "ers</w>": 346,
      "ding</w>": 347,
      "ver</w>": 348,
      "ble</w>": 349,
      "ry</w>": 350,
      "only</w>": 351,
      "lu": 352,
      "ck</w>": 353,
      "pu": 354,
      "war": 355,
      "such</w>": 356,
      "ys</w>": 357,
      "about</w>": 358,
      "ju": 359,
      "fore</w>": 360,
      "sh</w>": 361,
      "most</w>": 362,
      "able</w>": 363,
      "cu": 364,
      "mar": 365,
      "way</w>": 366,
      "ving</w>": 367,
      "has</w>": 368,
      "pa": 369,
      "am": 370,
      "ine</w>": 371,
      "te</w>": 372,
      "ni": 373,
      "upon</w>": 374,
      "ely</w>": 375,
      "att": 376,
      "good</w>": 377,
      "come</w>": 378,
      "should</w>": 379,
      "litt": 380,
      "pla": 381,
      "little</w>": 382,
      "ever": 383,
      "cha": 384,
      "with": 385,
      "ol": 386,
      "pe": 387,
      "time</w>": 388,
      "gu": 389,
      "fir": 390,
      "how</w>": 391,
      "ga": 392,
      "ssi": 393,
      "ss": 394,
      "aga": 395,
      "iti": 396,
      "its</w>": 397,
      "ting</w>": 398,
      "jo": 399,
      "tho": 400,
      "hea": 401,
      "hear": 402,
      "after</w>": 403,
      "see</w>": 404,
      "ally</w>": 405,
      "must</w>": 406,
      "know</w>": 407,
      "shall</w>": 408,
      "est": 409,
      "ful</w>": 410,
      "made</w>": 411,
      "where</w>": 412,
      "ment</w>": 413,
      "ance</w>": 414,
      "rea": 415,
      "can</w>": 416,
      "end</w>": 417,
      "dy</w>": 418,
      "two</w>": 419,
      "may</w>": 420,
      "mr</w>": 421,
      "ined</w>": 422,
      "before</w>": 423,
      "came</w>": 424,
      "est</w>": 425,
      "ee": 426,
      "mb": 427,
      "ned</w>": 428,
      "much</w>": 429,
      "dre": 430,
      "never</w>": 431,
      "these</w>": 432,
      "eli": 433,
      "great</w>": 434,
      "app": 435,
      "ite</w>": 436,
      "own</w>": 437,
      "men</w>": 438,
      "old</w>": 439,
      "first</w>": 440,
      "pt</w>": 441,
      "red</w>": 442,
      "over</w>": 443,
      "went</w>": 444,
      "go</w>": 445,
      "ks</w>": 446,
      "thy</w>": 447,
      "fe</w>": 448,
      "ered</w>": 449,
      "ried</w>": 450,
      "mon": 451,
      "comp": 452,
      "ook</w>": 453,
      "though</w>": 454,
      "use</w>": 455,
      "ings</w>": 456,
      "ated</w>": 457,
      "ning</w>": 458,
      "thou</w>": 459,
      "let</w>": 460,
      "thin": 461,
      "low": 462,
      "sw": 463,
      "ying</w>": 464,
      "him": 465,
      "being</w>": 466,
      "au": 467,
      "ling</w>": 468,
      "some": 469,
      "without</w>": 470,
      "down</w>": 471,
      "ced</w>": 472,
      "man": 473,
      "those</w>": 474,
      "ves</w>": 475,
      "coun": 476,
      "himself</w>": 477,
      "new</w>": 478,
      "make</w>": 479,
      "ey": 480,
      "ge": 481,
      "pri": 482,
      "ren": 483,
      "pi": 484,
      "te": 485,
      "even</w>": 486,
      "day</w>": 487,
      "well</w>": 488,
      "ff": 489,
      "beg": 490,
      "ure</w>": 491,
      "ary</w>": 492,
      "ft</w>": 493,
      "every</w>": 494,
      "tly</w>": 495,
      "shed</w>": 496,
      "ten": 497,
      "might</w>": 498,
      "ect</w>": 499,
      "tra": 500,
      "say</w>": 501,
      "ree</w>": 502,
      "ob": 503,
      "ness</w>": 504,
      "take</w>": 505,
      "while</w>": 506,
      "im": 507,
      "ged</w>": 508,
      "pres": 509,
      "rough</w>": 510,
      "kno": 511,
      "rin": 512,
      "chi": 513,
      "here</w>": 514,
      "ack</w>": 515,
      "les</w>": 516,
      "low</w>": 517,
      "hel": 518,
      "seem": 519,
      "same</w>": 520,
      "son</w>": 521,
      "long</w>": 522,
      "thought</w>": 523,
      "think</w>": 524,
      "ps</w>": 525,
      "just</w>": 526,
      "cer": 527,
      "through</w>": 528,
      "hu": 529,
      "fri": 530,
      "yet</w>": 531,
      "cal": 532,
      "han": 533,
      "still</w>": 534,
      "sin": 535,
      "tter</w>": 536,
      "give</w>": 537,
      "bro": 538,
      "shi": 539,
      "ck": 540,
      "youn": 541,
      "took</w>": 542,
      "sho": 543,
      "car": 544,
      "too</w>": 545,
      "vo": 546,
      "imp": 547,
      "lan": 548,
      "ears</w>": 549,
      "nothing</w>": 550,
      "less</w>": 551,
      "can": 552,
      "tru": 553,
      "cause</w>": 554,
      "min": 555,
      "many</w>": 556,
      "sti": 557,
      "dis": 558,
      "ess</w>": 559,
      "gra": 560,
      "ger</w>": 561,
      "cor": 562,
      "na": 563,
      "tell</w>": 564,
      "dly</w>": 565,
      "har": 566,
      "fel": 567,
      "again</w>": 568,
      "off</w>": 569,
      "cre": 570,
      "cei": 571,
      "her": 572,
      "last</w>": 573,
      "happ": 574,
      "young</w>": 575,
      "get</w>": 576,
      "ster</w>": 577,
      "ven</w>": 578,
      "read": 579,
      "ways</w>": 580,
      "ws</w>": 581,
      "pos": 582,
      "ces</w>": 583,
      "ath</w>": 584,
      "tu": 585,
      "life</w>": 586,
      "pas": 587,
      "eyes</w>": 588,
      "under</w>": 589,
      "ct</w>": 590,
      "ken</w>": 591,
      "saw</w>": 592,
      "lar": 593,
      "back</w>": 594,
      "turned</w>": 595,
      "qui": 596,
      "el</w>": 597,
      "dd": 598,
      "away</w>": 599,
      "love</w>": 600,
      "sm": 601,
      "tain</w>": 602,
      "found</w>": 603,
      "lor": 604,
      "left</w>": 605,
      "een</w>": 606,
      "ther": 607,
      "side</w>": 608,
      "med</w>": 609,
      "age</w>": 610,
      "hou": 611,
      "put</w>": 612,
      "sure</w>": 613,
      "comm": 614,
      "wo": 615,
      "nor</w>": 616,
      "ything</w>": 617,
      "head</w>": 618,
      "fol": 619,
      "once</w>": 620,
      "cont": 621,
      "ort</w>": 622,
      "always</w>": 623,
      "ened</w>": 624,
      "another</w>": 625,
      "nat": 626,
      "ls</w>": 627,
      "my": 628,
      "whom</w>": 629,
      "tim": 630,
      "looked</w>": 631,
      "ssed</w>": 632,
      "got</w>": 633,
      "clo": 634,
      "sto": 635,
      "rs</w>": 636,
      "right</w>": 637,
      "ents</w>": 638,
      "ba": 639,
      "char": 640,
      "sta": 641,
      "three</w>": 642,
      "pe</w>": 643,
      "lon": 644,
      "sing</w>": 645,
      "plea": 646,
      "seemed</w>": 647,
      "hand</w>": 648,
      "tre": 649,
      "ei": 650,
      "look</w>": 651,
      "ten</w>": 652,
      "having</w>": 653,
      "inter": 654,
      "roo": 655,
      "mrs</w>": 656,
      "prin": 657,
      "tal": 658,
      "stan": 659,
      "face</w>": 660,
      "action</w>": 661,
      "inst</w>": 662,
      "eng": 663,
      "against</w>": 664,
      "brea": 665,
      "wr": 666,
      "see": 667,
      "under": 668,
      "because</w>": 669,
      "ses</w>": 670,
      "dea": 671,
      "round</w>": 672,
      "heard</w>": 673,
      "gen": 674,
      "both</w>": 675,
      "spec": 676,
      "dist": 677,
      "sen": 678,
      "il</w>": 679,
      "mat": 680,
      "ms</w>": 681,
      "sion</w>": 682,
      "mer": 683,
      "going</w>": 684,
      "ward</w>": 685,
      "something</w>": 686,
      "told</w>": 687,
      "ently</w>": 688,
      "part</w>": 689,
      "house</w>": 690,
      "sur": 691,
      "wards</w>": 692,
      "batt": 693,
      "poin": 694,
      "cl": 695,
      "began</w>": 696,
      "res</w>": 697,
      "each</w>": 698,
      "spea": 699,
      "ard</w>": 700,
      "night</w>": 701,
      "peop": 702,
      "asked</w>": 703,
      "ner</w>": 704,
      "cla": 705,
      "rep": 706,
      "sou": 707,
      "also</w>": 708,
      "things</w>": 709,
      "val": 710,
      "ition</w>": 711,
      "felt</w>": 712,
      "whole</w>": 713,
      "ready</w>": 714,
      "lat": 715,
      "ssion</w>": 716,
      "don</w>": 717,
      "str": 718,
      "people</w>": 719,
      "dar": 720,
      "fin": 721,
      "lost</w>": 722,
      "cy</w>": 723,
      "answ": 724,
      "cour": 725,
      "light</w>": 726,
      "place</w>": 727,
      "wat": 728,
      "ke": 729,
      "wil": 730,
      "stre": 731,
      "chan": 732,
      "soon</w>": 733,
      "wal": 734,
      "quite</w>": 735,
      "ous": 736,
      "rai": 737,
      "hor": 738,
      "ion</w>": 739,
      "cal</w>": 740,
      "illed</w>": 741,
      "dra": 742,
      "lly</w>": 743,
      "deli": 744,
      "rac": 745,
      "gave</w>": 746,
      "ste": 747,
      "stor": 748,
      "sub": 749,
      "exp": 750,
      "set</w>": 751,
      "myself</w>": 752,
      "beli": 753,
      "br": 754,
      "kee": 755,
      "seen</w>": 756,
      "heart</w>": 757,
      "sted</w>": 758,
      "ig": 759,
      "find</w>": 760,
      "ice</w>": 761,
      "wing</w>": 762,
      "father</w>": 763,
      "hon": 764,
      "better</w>": 765,
      "called</w>": 766,
      "emp": 767,
      "ach": 768,
      "knew</w>": 769,
      "ious</w>": 770,
      "mind</w>": 771,
      "try</w>": 772,
      "ar</w>": 773,
      "ched</w>": 774,
      "nor": 775,
      "times</w>": 776,
      "thee</w>": 777,
      "ber": 778,
      "sk": 779,
      "fre": 780,
      "enti": 781,
      "cur": 782,
      "room</w>": 783,
      "betw": 784,
      "between</w>": 785,
      "poor</w>": 786,
      "fo": 787,
      "ed": 788,
      "far</w>": 789,
      "stood</w>": 790,
      "lau": 791,
      "turn</w>": 792,
      "cap": 793,
      "pow": 794,
      "mber</w>": 795,
      "done</w>": 796,
      "whose</w>": 797,
      "thus</w>": 798,
      "recei": 799,
      "col": 800,
      "eu": 801,
      "tun": 802,
      "ven": 803,
      "consi": 804,
      "miss</w>": 805,
      "body</w>": 806,
      "inst": 807,
      "oc": 808,
      "sig": 809,
      "sol": 810,
      "ction</w>": 811,
      "ins</w>": 812,
      "stand</w>": 813,
      "dear</w>": 814,
      "hun": 815,
      "why</w>": 816,
      "gent": 817,
      "gener": 818,
      "tor": 819,
      "land</w>": 820,
      "till</w>": 821,
      "ations</w>": 822,
      "tri": 823,
      "spo": 824,
      "god</w>": 825,
      "ul": 826,
      "van": 827,
      "cro": 828,
      "ut": 829,
      "ans</w>": 830,
      "sil": 831,
      "pped</w>": 832,
      "cannot</w>": 833,
      "yed</w>": 834,
      "rought</w>": 835,
      "bar": 836,
      "bed</w>": 837,
      "almost</w>": 838,
      "ef</w>": 839,
      "bor": 840,
      "fic": 841,
      "few</w>": 842,
      "bla": 843,
      "name</w>": 844,
      "near</w>": 845,
      "full</w>": 846,
      "ited</w>": 847,
      "years</w>": 848,
      "hal": 849,
      "among</w>": 850,
      "dered</w>": 851,
      "tting</w>": 852,
      "dou": 853,
      "want</w>": 854,
      "read</w>": 855,
      "rest</w>": 856,
      "bel": 857,
      "ening</w>": 858,
      "word</w>": 859,
      "spir": 860,
      "lied</w>": 861,
      "reg": 862,
      "dro": 863,
      "mil": 864,
      "int": 865,
      "pur": 866,
      "hands</w>": 867,
      "hath</w>": 868,
      "brought</w>": 869,
      "since</w>": 870,
      "ene": 871,
      "follow": 872,
      "wan": 873,
      "ffer": 874,
      "dge</w>": 875,
      "lady</w>": 876,
      "itu": 877,
      "row</w>": 878,
      "late</w>": 879,
      "fac": 880,
      "world</w>": 881,
      "words</w>": 882,
      "work</w>": 883,
      "dan": 884,
      "rather</w>": 885,
      "win": 886,
      "sir</w>": 887,
      "ep</w>": 888,
      "served</w>": 889,
      "sudd": 890,
      "eve</w>": 891,
      "he": 892,
      "lord</w>": 893,
      "looking</w>": 894,
      "fal": 895,
      "rema": 896,
      "cri": 897,
      "moment</w>": 898,
      "kes</w>": 899,
      "possi": 900,
      "door</w>": 901,
      "bri": 902,
      "star": 903,
      "whe": 904,
      "bur": 905,
      "battn</w>": 906,
      "taken</w>": 907,
      "lear": 908,
      "ship</w>": 909,
      "fully</w>": 910,
      "hear</w>": 911,
      "ough</w>": 912,
      "pose</w>": 913,
      "best</w>": 914,
      "reas": 915,
      "anything</w>": 916,
      "din": 917,
      "leave</w>": 918,
      "fer": 919,
      "fran": 920,
      "speak</w>": 921,
      "bi": 922,
      "used</w>": 923,
      "selves</w>": 924,
      "stran": 925,
      "ey</w>": 926,
      "bra": 927,
      "does</w>": 928,
      "count</w>": 929,
      "xt</w>": 930,
      "death</w>": 931,
      "there": 932,
      "wed</w>": 933,
      "ging</w>": 934,
      "fec": 935,
      "stu": 936,
      "desi": 937,
      "sent</w>": 938,
      "je": 939,
      "ture</w>": 940,
      "lay</w>": 941,
      "killed</w>": 942,
      "foo": 943,
      "ron": 944,
      "ali": 945,
      "mother</w>": 946,
      "tions</w>": 947,
      "kind</w>": 948,
      "great": 949,
      "tor</w>": 950,
      "reme": 951,
      "woman</w>": 952,
      "cried</w>": 953,
      "san": 954,
      "thers</w>": 955,
      "dur": 956,
      "edu": 957,
      "herself</w>": 958,
      "next</w>": 959,
      "cess": 960,
      "appear": 961,
      "stru": 962,
      "ours</w>": 963,
      "men": 964,
      "given</w>": 965,
      "temp": 966,
      "ffi": 967,
      "home</w>": 968,
      "scen": 969,
      "gr": 970,
      "indi": 971,
      "joh": 972,
      "half</w>": 973,
      "gla": 974,
      "zed</w>": 975,
      "ell": 976,
      "ining</w>": 977,
      "keep</w>": 978,
      "ger": 979,
      "beau": 980,
      "lar</w>": 981,
      "dev": 982,
      "towards</w>": 983,
      "per</w>": 984,
      "whether</w>": 985,
      "sor": 986,
      "nei": 987,
      "call</w>": 988,
      "john</w>": 989,
      "already</w>": 990,
      "hol": 991,
      "doub": 992,
      "ima": 993,
      "ately</w>": 994,
      "den</w>": 995,
      "ating</w>": 996,
      "des</w>": 997,
      "ously</w>": 998,
      "secon": 999,
      "enough</w>": 1000,
      "feel": 1001,
      "uni": 1002,
      "stri": 1003,
      "quest": 1004,
      "contin": 1005,
      "held</w>": 1006,
      "enly</w>": 1007,
      "passed</w>": 1008,
      "peri": 1009,
      "ph": 1010,
      "quir": 1011,
      "believe</w>": 1012,
      "lt</w>": 1013,
      "frien": 1014,
      "clu": 1015,
      "son": 1016,
      "vered</w>": 1017,
      "medi": 1018,
      "won": 1019,
      "certain</w>": 1020,
      "gir": 1021,
      "ement</w>": 1022,
      "sat</w>": 1023,
      "gentle": 1024,
      "order</w>": 1025,
      "power</w>": 1026,
      "ters</w>": 1027,
      "hold</w>": 1028,
      "coming</w>": 1029,
      "cted</w>": 1030,
      "ari": 1031,
      "voice</w>": 1032,
      "ject</w>": 1033,
      "cious</w>": 1034,
      "mer</w>": 1035,
      "present</w>": 1036,
      "continu": 1037,
      "unti": 1038,
      "sept</w>": 1039,
      "iled</w>": 1040,
      "sle": 1041,
      "days</w>": 1042,
      "toge": 1043,
      "together</w>": 1044,
      "table</w>": 1045,
      "cked</w>": 1046,
      "enter</w>": 1047,
      "true</w>": 1048,
      "out": 1049,
      "gro": 1050,
      "hind</w>": 1051,
      "sy</w>": 1052,
      "says</w>": 1053,
      "et": 1054,
      "friend</w>": 1055,
      "exce": 1056,
      "often</w>": 1057,
      "ns</w>": 1058,
      "ond</w>": 1059,
      "dau</w>": 1060,
      "fle": 1061,
      "became</w>": 1062,
      "known</w>": 1063,
      "off": 1064,
      "fortun": 1065,
      "received</w>": 1066,
      "replied</w>": 1067,
      "behind</w>": 1068,
      "ssing</w>": 1069,
      "until</w>": 1070,
      "fur": 1071,
      "ghts</w>": 1072,
      "during</w>": 1073,
      "really</w>": 1074,
      "gone</w>": 1075,
      "air</w>": 1076,
      "haps</w>": 1077,
      "perhaps</w>": 1078,
      "suc": 1079,
      "everything</w>": 1080,
      "va": 1081,
      "ought</w>": 1082,
      "por": 1083,
      "inde": 1084,
      "ounded</w>": 1085,
      "ached</w>": 1086,
      "ping</w>": 1087,
      "iting</w>": 1088,
      "second</w>": 1089,
      "sever": 1090,
      "prince</w>": 1091,
      "bli": 1092,
      "fell</w>": 1093,
      "id": 1094,
      "wish</w>": 1095,
      "nu": 1096,
      "bloo": 1097,
      "happy</w>": 1098,
      "help</w>": 1099,
      "gs</w>": 1100,
      "es": 1101,
      "course</w>": 1102,
      "four</w>": 1103,
      "them": 1104,
      "ster": 1105,
      "fami": 1106,
      "parti": 1107,
      "suddenly</w>": 1108,
      "exc": 1109,
      "abo": 1110,
      "posed</w>": 1111,
      "ze</w>": 1112,
      "master</w>": 1113,
      "hen": 1114,
      "tt": 1115,
      "white</w>": 1116,
      "high</w>": 1117,
      "ad</w>": 1118,
      "speci": 1119,
      "returned</w>": 1120,
      "tran": 1121,
      "ne</w>": 1122,
      "possible</w>": 1123,
      "rying</w>": 1124,
      "either</w>": 1125,
      "matter</w>": 1126,
      "morning</w>": 1127,
      "ors</w>": 1128,
      "therefore</w>": 1129,
      "expre": 1130,
      "ches</w>": 1131,
      "within</w>": 1132,
      "ide": 1133,
      "choo": 1134,
      "ments</w>": 1135,
      "feel</w>": 1136,
      "educ</w>": 1137,
      "art</w>": 1138,
      "fair</w>": 1139,
      "dire": 1140,
      "themselves</w>": 1141,
      "disc": 1142,
      "oned</w>": 1143,
      "vice</w>": 1144,
      "pal": 1145,
      "small</w>": 1146,
      "war</w>": 1147,
      "drew</w>": 1148,
      "nature</w>": 1149,
      "live</w>": 1150,
      "high": 1151,
      "sup": 1152,
      "tered</w>": 1153,
      "wife</w>": 1154,
      "gri": 1155,
      "roy": 1156,
      "ching</w>": 1157,
      "died</w>": 1158,
      "vol": 1159,
      "standing</w>": 1160,
      "hope</w>": 1161,
      "open</w>": 1162,
      "answered</w>": 1163,
      "offic": 1164,
      "others</w>": 1165,
      "vely</w>": 1166,
      "understand</w>": 1167,
      "fore": 1168,
      "dow</w>": 1169,
      "ask</w>": 1170,
      "taking</w>": 1171,
      "ished</w>": 1172,
      "lou": 1173,
      "sort</w>": 1174,
      "shing</w>": 1175,
      "over": 1176,
      "pret": 1177,
      "la</w>": 1178,
      "sand</w>": 1179,
      "ght": 1180,
      "vil": 1181,
      "ably</w>": 1182,
      "ected</w>": 1183,
      "sit</w>": 1184,
      "desp": 1185,
      "differ": 1186,
      "chil": 1187,
      "rely</w>": 1188,
      "alone</w>": 1189,
      "ders</w>": 1190,
      "ming</w>": 1191,
      "phi": 1192,
      "mur": 1193,
      "along</w>": 1194,
      "simp": 1195,
      "comes</w>": 1196,
      "become</w>": 1197,
      "tain": 1198,
      "wher": 1199,
      "making</w>": 1200,
      "soul</w>": 1201,
      "reason</w>": 1202,
      "fan": 1203,
      "lish</w>": 1204,
      "black</w>": 1205,
      "state</w>": 1206,
      "ki": 1207,
      "form</w>": 1208,
      "laugh": 1209,
      "cou": 1210,
      "ring</w>": 1211,
      "mine</w>": 1212,
      "royal</w>": 1213,
      "fied</w>": 1214,
      "least</w>": 1215,
      "run": 1216,
      "position</w>": 1217,
      "supp": 1218,
      "covered</w>": 1219,
      "publi": 1220,
      "necess": 1221,
      "story</w>": 1222,
      "den": 1223,
      "tou": 1224,
      "atten": 1225,
      "kept</w>": 1226,
      "pea": 1227,
      "above</w>": 1228,
      "person</w>": 1229,
      "break</w>": 1230,
      "fear</w>": 1231,
      "general</w>": 1232,
      "gar": 1233,
      "point</w>": 1234,
      "large</w>": 1235,
      "dred</w>": 1236,
      "sing": 1237,
      "thousand</w>": 1238,
      "thir": 1239,
      "scri": 1240,
      "list": 1241,
      "imag": 1242,
      "dead</w>": 1243,
      "after": 1244,
      "cess</w>": 1245,
      "outh</w>": 1246,
      "several</w>": 1247,
      "ies</w>": 1248,
      "five</w>": 1249,
      "cul": 1250,
      "care</w>": 1251,
      "dri": 1252,
      "sses</w>": 1253,
      "tal</w>": 1254,
      "bring</w>": 1255,
      "sati": 1256,
      "means</w>": 1257,
      "cing</w>": 1258,
      "dent</w>": 1259,
      "gg": 1260,
      "than": 1261,
      "ton": 1262,
      "mean</w>": 1263,
      "sometimes</w>": 1264,
      "cho": 1265,
      "appro": 1266,
      "hur": 1267,
      "arms</w>": 1268,
      "lieu": 1269,
      "inten": 1270,
      "rench</w>": 1271,
      "ped</w>": 1272,
      "cir": 1273,
      "tro": 1274,
      "joined</w>": 1275,
      "case</w>": 1276,
      "thi": 1277,
      "act</w>": 1278,
      "sy": 1279,
      "seeing</w>": 1280,
      "pra": 1281,
      "trou": 1282,
      "letter</w>": 1283,
      "longer</w>": 1284,
      "hundred</w>": 1285,
      "money</w>": 1286,
      "swe": 1287,
      "immedi": 1288,
      "fire</w>": 1289,
      "north</w>": 1290,
      "irs</w>": 1291,
      "feeling</w>": 1292,
      "is": 1293,
      "turning</w>": 1294,
      "scene</w>": 1295,
      "promi": 1296,
      "arri": 1297,
      "else</w>": 1298,
      "return</w>": 1299,
      "shou": 1300,
      "strange</w>": 1301,
      "pen": 1302,
      "len": 1303,
      "stra": 1304,
      "ety</w>": 1305,
      "answer</w>": 1306,
      "ish</w>": 1307,
      "particu": 1308,
      "aug</w>": 1309,
      "itch</w>": 1310,
      "ths</w>": 1311,
      "force</w>": 1312,
      "human</w>": 1313,
      "ban": 1314,
      "where": 1315,
      "serve</w>": 1316,
      "sci": 1317,
      "nov</w>": 1318,
      "ble": 1319,
      "fav": 1320,
      "show</w>": 1321,
      "tive</w>": 1322,
      "neither</w>": 1323,
      "hour</w>": 1324,
      "ral</w>": 1325,
      "itted</w>": 1326,
      "know": 1327,
      "sts</w>": 1328,
      "ctor</w>": 1329,
      "noti": 1330,
      "appeared</w>": 1331,
      "met</w>": 1332,
      "cau": 1333,
      "fron": 1334,
      "lin": 1335,
      "sting</w>": 1336,
      "reli": 1337,
      "ounds</w>": 1338,
      "sight</w>": 1339,
      "fine</w>": 1340,
      "talk</w>": 1341,
      "manner</w>": 1342,
      "thre": 1343,
      "itself</w>": 1344,
      "band</w>": 1345,
      "vers": 1346,
      "ugh": 1347,
      "child</w>": 1348,
      "als</w>": 1349,
      "soci": 1350,
      "na</w>": 1351,
      "ones</w>": 1352,
      "gentleman</w>": 1353,
      "itting</w>": 1354,
      "arm</w>": 1355,
      "gue</w>": 1356,
      "entered</w>": 1357,
      "sli": 1358,
      "flu": 1359,
      "pl": 1360,
      "country</w>": 1361,
      "fort</w>": 1362,
      "indeed</w>": 1363,
      "vie": 1364,
      "gran": 1365,
      "eld</w>": 1366,
      "friends</w>": 1367,
      "eri": 1368,
      "wee": 1369,
      "eff": 1370,
      "brother</w>": 1371,
      "heaven</w>": 1372,
      "che": 1373,
      "wea": 1374,
      "hus": 1375,
      "let": 1376,
      "thro": 1377,
      "tained</w>": 1378,
      "sun": 1379,
      "satis": 1380,
      "willi": 1381,
      "solu": 1382,
      "schoo": 1383,
      "vy</w>": 1384,
      "colle": 1385,
      "bear</w>": 1386,
      "int</w>": 1387,
      "wanted</w>": 1388,
      "occa": 1389,
      "fla": 1390,
      "hard</w>": 1391,
      "dom</w>": 1392,
      "certain": 1393,
      "ran</w>": 1394,
      "vel": 1395,
      "joy</w>": 1396,
      "resp": 1397,
      "company</w>": 1398,
      "care": 1399,
      "stro": 1400,
      "co</w>": 1401,
      "close</w>": 1402,
      "idea</w>": 1403,
      "siness</w>": 1404,
      "usu": 1405,
      "lieut</w>": 1406,
      "ya</w>": 1407,
      "ap": 1408,
      "ges</w>": 1409,
      "dness</w>": 1410,
      "disa": 1411,
      "posse": 1412,
      "short</w>": 1413,
      "ye</w>": 1414,
      "cle</w>": 1415,
      "qua": 1416,
      "wise</w>": 1417,
      "ames</w>": 1418,
      "secre": 1419,
      "oct</w>": 1420,
      "mile</w>": 1421,
      "william</w>": 1422,
      "ering</w>": 1423,
      "vent": 1424,
      "serv": 1425,
      "reco": 1426,
      "moun": 1427,
      "surpri": 1428,
      "ef": 1429,
      "evening</w>": 1430,
      "question</w>": 1431,
      "sco": 1432,
      "dst</w>": 1433,
      "tom</w>": 1434,
      "girl</w>": 1435,
      "scar": 1436,
      "family</w>": 1437,
      "knowle": 1438,
      "daugh": 1439,
      "need</w>": 1440,
      "cep": 1441,
      "terri": 1442,
      "advan": 1443,
      "sense</w>": 1444,
      "vir": 1445,
      "gni": 1446,
      "dren</w>": 1447,
      "children</w>": 1448,
      "eded</w>": 1449,
      "affec": 1450,
      "ius</w>": 1451,
      "wel": 1452,
      "opened</w>": 1453,
      "gover": 1454,
      "your": 1455,
      "thu": 1456,
      "formed</w>": 1457,
      "evid": 1458,
      "kin": 1459,
      "bene": 1460,
      "followed</w>": 1461,
      "flo": 1462,
      "remember</w>": 1463,
      "ang": 1464,
      "forth</w>": 1465,
      "immediately</w>": 1466,
      "sal": 1467,
      "gal": 1468,
      "desire</w>": 1469,
      "bad</w>": 1470,
      "bly</w>": 1471,
      "comman": 1472,
      "spoke</w>": 1473,
      "service</w>": 1474,
      "water</w>": 1475,
      "remained</w>": 1476,
      "lying</w>": 1477,
      "around</w>": 1478,
      "accor": 1479,
      "unto</w>": 1480,
      "concer": 1481,
      "charac": 1482,
      "french</w>": 1483,
      "duced</w>": 1484,
      "iness</w>": 1485,
      "mada": 1486,
      "proce": 1487,
      "dies</w>": 1488,
      "buried</w>": 1489,
      "doing</w>": 1490,
      "change</w>": 1491,
      "fall</w>": 1492,
      "ative</w>": 1493,
      "cip": 1494,
      "jec": 1495,
      "thor": 1496,
      "natu": 1497,
      "laid</w>": 1498,
      "sound</w>": 1499,
      "lies</w>": 1500,
      "justi": 1501,
      "suff": 1502,
      "tried</w>": 1503,
      "truth</w>": 1504,
      "rel": 1505,
      "ities</w>": 1506,
      "carried</w>": 1507,
      "conv": 1508,
      "riage</w>": 1509,
      "beauti": 1510,
      "eal</w>": 1511,
      "doubt</w>": 1512,
      "diffi": 1513,
      "ste</w>": 1514,
      "tel": 1515,
      "equ": 1516,
      "husband</w>": 1517,
      "assu": 1518,
      "eye</w>": 1519,
      "spirit</w>": 1520,
      "cle": 1521,
      "front</w>": 1522,
      "business</w>": 1523,
      "pol": 1524,
      "seems</w>": 1525,
      "book</w>": 1526,
      "nal</w>": 1527,
      "year</w>": 1528,
      "alex": 1529,
      "women</w>": 1530,
      "near": 1531,
      "chri": 1532,
      "none</w>": 1533,
      "repe": 1534,
      "sweet</w>": 1535,
      "ecu": 1536,
      "unt</w>": 1537,
      "certainly</w>": 1538,
      "getting</w>": 1539,
      "jean</w>": 1540,
      "doth</w>": 1541,
      "dark</w>": 1542,
      "road</w>": 1543,
      "saying</w>": 1544,
      "strong</w>": 1545,
      "bert</w>": 1546,
      "cru": 1547,
      "earth</w>": 1548,
      "every": 1549,
      "chief</w>": 1550,
      "feet</w>": 1551,
      "inv": 1552,
      "ground</w>": 1553,
      "ii</w>": 1554,
      "makes</w>": 1555,
      "mp</w>": 1556,
      "moved</w>": 1557,
      "different</w>": 1558,
      "diti": 1559,
      "boy</w>": 1560,
      "opin": 1561,
      "account</w>": 1562,
      "honour</w>": 1563,
      "blood</w>": 1564,
      "common</w>": 1565,
      "pointed</w>": 1566,
      "ast</w>": 1567,
      "pretty</w>": 1568,
      "free</w>": 1569,
      "pier": 1570,
      "bre": 1571,
      "sun</w>": 1572,
      "hardly</w>": 1573,
      "obli": 1574,
      "sequ": 1575,
      "rose</w>": 1576,
      "disp": 1577,
      "run</w>": 1578,
      "iling</w>": 1579,
      "henry</w>": 1580,
      "admi": 1581,
      "def": 1582,
      "mean": 1583,
      "geor": 1584,
      "remar": 1585,
      "ingly</w>": 1586,
      "following</w>": 1587,
      "sla": 1588,
      "yourself</w>": 1589,
      "compan": 1590,
      "officer</w>": 1591,
      "afterwards</w>": 1592,
      "blu": 1593,
      "pleasure</w>": 1594,
      "tears</w>": 1595,
      "natural</w>": 1596,
      "pul": 1597,
      "glad</w>": 1598,
      "seem</w>": 1599,
      "ordin": 1600,
      "ates</w>": 1601,
      "we": 1602,
      "meet</w>": 1603,
      "eight</w>": 1604,
      "ece</w>": 1605,
      "wro": 1606,
      "wrote</w>": 1607,
      "consider": 1608,
      "cra": 1609,
      "aw": 1610,
      "xed</w>": 1611,
      "plain</w>": 1612,
      "cient</w>": 1613,
      "struck</w>": 1614,
      "dence</w>": 1615,
      "ied</w>": 1616,
      "hand": 1617,
      "law</w>": 1618,
      "quar": 1619,
      "chur": 1620,
      "although</w>": 1621,
      "sons</w>": 1622,
      "six</w>": 1623,
      "raid</w>": 1624,
      "public</w>": 1625,
      "dec": 1626,
      "queen</w>": 1627,
      "city</w>": 1628,
      "fit</w>": 1629,
      "subject</w>": 1630,
      "pass</w>": 1631,
      "daughter</w>": 1632,
      "tic</w>": 1633,
      "raised</w>": 1634,
      "continued</w>": 1635,
      "afraid</w>": 1636,
      "trans": 1637,
      "what": 1638,
      "duke</w>": 1639,
      "deci": 1640,
      "mary</w>": 1641,
      "bit</w>": 1642,
      "allow": 1643,
      "shu": 1644,
      "deal</w>": 1645,
      "town</w>": 1646,
      "ror</w>": 1647,
      "loved</w>": 1648,
      "necessary</w>": 1649,
      "france</w>": 1650,
      "knowledge</w>": 1651,
      "hair</w>": 1652,
      "walked</w>": 1653,
      "fortune</w>": 1654,
      "specially</w>": 1655,
      "smile</w>": 1656,
      "cks</w>": 1657,
      "happened</w>": 1658,
      "sible</w>": 1659,
      "sei": 1660,
      "dest</w>": 1661,
      "ve": 1662,
      "ality</w>": 1663,
      "ils</w>": 1664,
      "sum": 1665,
      "maj": 1666,
      "sant</w>": 1667,
      "aged</w>": 1668,
      "soldi": 1669,
      "fact</w>": 1670,
      "yo": 1671,
      "sha</w>": 1672,
      "ats</w>": 1673,
      "shes</w>": 1674,
      "living</w>": 1675,
      "cut</w>": 1676,
      "val</w>": 1677,
      "ended</w>": 1678,
      "enty</w>": 1679,
      "boo": 1680,
      "deep</w>": 1681,
      "thinking</w>": 1682,
      "ise</w>": 1683,
      "arti": 1684,
      "bit": 1685,
      "any": 1686,
      "beautiful</w>": 1687,
      "captain</w>": 1688,
      "school</w>": 1689,
      "george</w>": 1690,
      "opp": 1691,
      "lif": 1692,
      "itude</w>": 1693,
      "ead</w>": 1694,
      "onal</w>": 1695,
      "fellow</w>": 1696,
      "sleep</w>": 1697,
      "ross</w>": 1698,
      "worthy</w>": 1699,
      "assi": 1700,
      "yond</w>": 1701,
      "ions</w>": 1702,
      "further</w>": 1703,
      "dition</w>": 1704,
      "acqua": 1705,
      "ney</w>": 1706,
      "view</w>": 1707,
      "expe": 1708,
      "offi": 1709,
      "lev": 1710,
      "dee": 1711,
      "london</w>": 1712,
      "noble</w>": 1713,
      "real</w>": 1714,
      "suppose</w>": 1715,
      "eved</w>": 1716,
      "pat": 1717,
      "street</w>": 1718,
      "spa": 1719,
      "stay</w>": 1720,
      "knows</w>": 1721,
      "placed</w>": 1722,
      "ben": 1723,
      "bir": 1724,
      "cold</w>": 1725,
      "sister</w>": 1726,
      "jan</w>": 1727,
      "mal": 1728,
      "reached</w>": 1729,
      "beyond</w>": 1730,
      "virtu": 1731,
      "prob": 1732,
      "ort": 1733,
      "past</w>": 1734,
      "sitting</w>": 1735,
      "madame</w>": 1736,
      "pressed</w>": 1737,
      "ility</w>": 1738,
      "refu": 1739,
      "regt</w>": 1740,
      "resu": 1741,
      "dor": 1742,
      "lived</w>": 1743,
      "early</w>": 1744,
      "sions</w>": 1745,
      "thoughts</w>": 1746,
      "fra": 1747,
      "beth</w>": 1748,
      "doctor</w>": 1749,
      "jo</w>": 1750,
      "twi": 1751,
      "mel": 1752,
      "sk</w>": 1753,
      "sky</w>": 1754,
      "sett": 1755,
      "nar": 1756,
      "sides</w>": 1757,
      "ton</w>": 1758,
      "ery</w>": 1759,
      "viol": 1760,
      "ature</w>": 1761,
      "easi": 1762,
      "percei": 1763,
      "volun": 1764,
      "across</w>": 1765,
      "except</w>": 1766,
      "tch</w>": 1767,
      "tched</w>": 1768,
      "lips</w>": 1769,
      "field</w>": 1770,
      "ily</w>": 1771,
      "capt</w>": 1772,
      "succe": 1773,
      "xi": 1774,
      "priv": 1775,
      "flow": 1776,
      "ute</w>": 1777,
      "condu": 1778,
      "giving</w>": 1779,
      "wre": 1780,
      "ghted</w>": 1781,
      "agre": 1782,
      "dress</w>": 1783,
      "gn": 1784,
      "sea</w>": 1785,
      "experi": 1786,
      "cket</w>": 1787,
      "ford</w>": 1788,
      "opinion</w>": 1789,
      "rememb": 1790,
      "var": 1791,
      "rup": 1792,
      "woo": 1793,
      "pping</w>": 1794,
      "later</w>": 1795,
      "cup": 1796,
      "pay</w>": 1797,
      "ets</w>": 1798,
      "convers": 1799,
      "stren": 1800,
      "stic</w>": 1801,
      "midd": 1802,
      "dg": 1803,
      "third</w>": 1804,
      "circu": 1805,
      "justice</w>": 1806,
      "mas</w>": 1807,
      "cation</w>": 1808,
      "mit</w>": 1809,
      "vitch</w>": 1810,
      "fast</w>": 1811,
      "prepar": 1812,
      "especially</w>": 1813,
      "die</w>": 1814,
      "ov</w>": 1815,
      "rage</w>": 1816,
      "gaz": 1817,
      "battle</w>": 1818,
      "wished</w>": 1819,
      "terrible</w>": 1820,
      "squ": 1821,
      "ue</w>": 1822,
      "wait</w>": 1823,
      "onary</w>": 1824,
      "musi": 1825,
      "ested</w>": 1826,
      "mes</w>": 1827,
      "oured</w>": 1828,
      "ordinary</w>": 1829,
      "descri": 1830,
      "fif": 1831,
      "usual</w>": 1832,
      "english</w>": 1833,
      "church</w>": 1834,
      "eur</w>": 1835,
      "window</w>": 1836,
      "cr": 1837,
      "interest</w>": 1838,
      "itten</w>": 1839,
      "ign</w>": 1840,
      "len</w>": 1841,
      "heavy</w>": 1842,
      "sign</w>": 1843,
      "inted</w>": 1844,
      "easy</w>": 1845,
      "expression</w>": 1846,
      "perfec": 1847,
      "broke</w>": 1848,
      "beside</w>": 1849,
      "outbreak</w>": 1850,
      "send</w>": 1851,
      "strai": 1852,
      "crow": 1853,
      "waiting</w>": 1854,
      "streng": 1855,
      "ented</w>": 1856,
      "wounded</w>": 1857,
      "quick": 1858,
      "inning</w>": 1859,
      "bb": 1860,
      "quired</w>": 1861,
      "hast</w>": 1862,
      "lie</w>": 1863,
      "stopped</w>": 1864,
      "expected</w>": 1865,
      "leaving</w>": 1866,
      "lance</w>": 1867,
      "dressed</w>": 1868,
      "comple": 1869,
      "itary</w>": 1870,
      "prac": 1871,
      "chard</w>": 1872,
      "provi": 1873,
      "tation</w>": 1874,
      "excell": 1875,
      "hours</w>": 1876,
      "ith</w>": 1877,
      "sage</w>": 1878,
      "drin": 1879,
      "fing": 1880,
      "bal": 1881,
      "fect</w>": 1882,
      "instead</w>": 1883,
      "liar</w>": 1884,
      "ja": 1885,
      "miser": 1886,
      "ley</w>": 1887,
      "suffi": 1888,
      "talking</w>": 1889,
      "ty": 1890,
      "custo": 1891,
      "play</w>": 1892,
      "claim": 1893,
      "cs</w>": 1894,
      "silence</w>": 1895,
      "greater</w>": 1896,
      "filled</w>": 1897,
      "army</w>": 1898,
      "import": 1899,
      "curi": 1900,
      "susp": 1901,
      "spite</w>": 1902,
      "court</w>": 1903,
      "forward</w>": 1904,
      "save</w>": 1905,
      "sieur</w>": 1906,
      "practi": 1907,
      "ong": 1908,
      "memor": 1909,
      "ination</w>": 1910,
      "exi": 1911,
      "profe": 1912,
      "whatever</w>": 1913,
      "clear</w>": 1914,
      "glor": 1915,
      "foot</w>": 1916,
      "villa": 1917,
      "monsieur</w>": 1918,
      "added</w>": 1919,
      "pierre</w>": 1920,
      "consci": 1921,
      "conversation</w>": 1922,
      "deter": 1923,
      "ens</w>": 1924,
      "east</w>": 1925,
      "rich</w>": 1926,
      "beginning</w>": 1927,
      "recogni": 1928,
      "ote</w>": 1929,
      "ly": 1930,
      "lit": 1931,
      "inc": 1932,
      "big</w>": 1933,
      "greatest</w>": 1934,
      "consequ": 1935,
      "former</w>": 1936,
      "worth</w>": 1937,
      "married</w>": 1938,
      "follow</w>": 1939,
      "bru": 1940,
      "fear": 1941,
      "horse</w>": 1942,
      "mous</w>": 1943,
      "written</w>": 1944,
      "attemp": 1945,
      "im</w>": 1946,
      "refle": 1947,
      "duty</w>": 1948,
      "happiness</w>": 1949,
      "private</w>": 1950,
      "mouth</w>": 1951,
      "prot": 1952,
      "emplo": 1953,
      "ach</w>": 1954,
      "mea": 1955,
      "const": 1956,
      "sit": 1957,
      "steps</w>": 1958,
      "princess</w>": 1959,
      "tired</w>": 1960,
      "pic": 1961,
      "according</w>": 1962,
      "shoul": 1963,
      "ghty</w>": 1964,
      "chance</w>": 1965,
      "ore</w>": 1966,
      "utes</w>": 1967,
      "pursu": 1968,
      "richard</w>": 1969,
      "attention</w>": 1970,
      "quire</w>": 1971,
      "anne</w>": 1972,
      "toward</w>": 1973,
      "showed</w>": 1974,
      "walk</w>": 1975,
      "allowed</w>": 1976,
      "bl": 1977,
      "trying</w>": 1978,
      "respec": 1979,
      "impre": 1980,
      "ties</w>": 1981,
      "fl": 1982,
      "please</w>": 1983,
      "character</w>": 1984,
      "circum": 1985,
      "sely</w>": 1986,
      "impossible</w>": 1987,
      "ele": 1988,
      "extre": 1989,
      "secret</w>": 1990,
      "james</w>": 1991,
      "leng": 1992,
      "nearly</w>": 1993,
      "trouble</w>": 1994,
      "south</w>": 1995,
      "pray</w>": 1996,
      "number</w>": 1997,
      "menti": 1998,
      "ures</w>": 1999,
      "raise</w>": 2000,
      "inging</w>": 2001,
      "piece</w>": 2002,
      "fresh</w>": 2003,
      "cely</w>": 2004,
      "beauty</w>": 2005,
      "effect</w>": 2006,
      "charles</w>": 2007,
      "twenty</w>": 2008,
      "simply</w>": 2009,
      "object</w>": 2010,
      "mini": 2011,
      "write</w>": 2012,
      "belo": 2013,
      "ker</w>": 2014,
      "stly</w>": 2015,
      "ards</w>": 2016,
      "far": 2017,
      "tes</w>": 2018,
      "peace</w>": 2019,
      "straight</w>": 2020,
      "cat": 2021,
      "grew</w>": 2022,
      "feb</w>": 2023,
      "confi": 2024,
      "meant</w>": 2025,
      "extra": 2026,
      "rable</w>": 2027,
      "wind</w>": 2028,
      "wild</w>": 2029,
      "speaking</w>": 2030,
      "arrived</w>": 2031,
      "grace</w>": 2032,
      "pleased</w>": 2033,
      "neigh": 2034,
      "resi": 2035,
      "servant</w>": 2036,
      "dread": 2037,
      "cent": 2038,
      "latter</w>": 2039,
      "ortun": 2040,
      "grat": 2041,
      "contemp": 2042,
      "occup": 2043,
      "lest</w>": 2044,
      "expediti": 2045,
      "mission</w>": 2046,
      "tual</w>": 2047,
      "strength</w>": 2048,
      "plan": 2049,
      "enjo": 2050,
      "div": 2051,
      "ingu": 2052,
      "wonder": 2053,
      "understood</w>": 2054,
      "form": 2055,
      "alth</w>": 2056,
      "tment</w>": 2057,
      "arran": 2058,
      "easily</w>": 2059,
      "observed</w>": 2060,
      "cry</w>": 2061,
      "shire</w>": 2062,
      "less": 2063,
      "green</w>": 2064,
      "broken</w>": 2065,
      "obe": 2066,
      "cast</w>": 2067,
      "vic": 2068,
      "carry</w>": 2069,
      "stance</w>": 2070,
      "deri": 2071,
      "evil</w>": 2072,
      "looks</w>": 2073,
      "various</w>": 2074,
      "clear": 2075,
      "spee": 2076,
      "threw</w>": 2077,
      "dec</w>": 2078,
      "rent</w>": 2079,
      "princip": 2080,
      "history</w>": 2081,
      "quickly</w>": 2082,
      "changed</w>": 2083,
      "absolu": 2084,
      "corner</w>": 2085,
      "alexan": 2086,
      "regard</w>": 2087,
      "line</w>": 2088,
      "resol": 2089,
      "intel": 2090,
      "knowing</w>": 2091,
      "teen</w>": 2092,
      "tened</w>": 2093,
      "liked</w>": 2094,
      "expeditionary</w>": 2095,
      "bound</w>": 2096,
      "mbling</w>": 2097,
      "cape</w>": 2098,
      "presented</w>": 2099,
      "visit</w>": 2100,
      "caught</w>": 2101,
      "sof": 2102,
      "liber": 2103,
      "pleasant</w>": 2104,
      "larly</w>": 2105,
      "prou": 2106,
      "purpose</w>": 2107,
      "single</w>": 2108,
      "presence</w>": 2109,
      "kness</w>": 2110,
      "ghtly</w>": 2111,
      "silent</w>": 2112,
      "confe": 2113,
      "whisp": 2114,
      "stress</w>": 2115,
      "philo": 2116,
      "rance</w>": 2117,
      "shot</w>": 2118,
      "wonder</w>": 2119,
      "stone</w>": 2120,
      "avo": 2121,
      "perfectly</w>": 2122,
      "enli": 2123,
      "merely</w>": 2124,
      "learned</w>": 2125,
      "occasion</w>": 2126,
      "blue</w>": 2127,
      "fixed</w>": 2128,
      "conclu": 2129,
      "tage</w>": 2130,
      "minutes</w>": 2131,
      "stle</w>": 2132,
      "holding</w>": 2133,
      "mble</w>": 2134,
      "sive</w>": 2135,
      "eat</w>": 2136,
      "kne": 2137,
      "mn</w>": 2138,
      "pes</w>": 2139,
      "ler</w>": 2140,
      "influ": 2141,
      "mbled</w>": 2142,
      "fy</w>": 2143,
      "aunt</w>": 2144,
      "smo": 2145,
      "tin": 2146,
      "opportun": 2147,
      "oner</w>": 2148,
      "particular</w>": 2149,
      "rank</w>": 2150,
      "tea": 2151,
      "eable</w>": 2152,
      "dare</w>": 2153,
      "exam": 2154,
      "philoso": 2155,
      "declar": 2156,
      "glan": 2157,
      "probably</w>": 2158,
      "russi": 2159,
      "thank</w>": 2160,
      "spent</w>": 2161,
      "entirely</w>": 2162,
      "gree": 2163,
      "lik": 2164,
      "gold</w>": 2165,
      "obliged</w>": 2166,
      "wood</w>": 2167,
      "uncle</w>": 2168,
      "enemy</w>": 2169,
      "appearance</w>": 2170,
      "ctions</w>": 2171,
      "gun</w>": 2172,
      "instru": 2173,
      "sel</w>": 2174,
      "news</w>": 2175,
      "holy</w>": 2176,
      "youth</w>": 2177,
      "fig": 2178,
      "appear</w>": 2179,
      "xote</w>": 2180,
      "quixote</w>": 2181,
      "oper": 2182,
      "claimed</w>": 2183,
      "lose</w>": 2184,
      "ast": 2185,
      "forget</w>": 2186,
      "allow</w>": 2187,
      "tering</w>": 2188,
      "wrong</w>": 2189,
      "length</w>": 2190,
      "person": 2191,
      "shment</w>": 2192,
      "ago</w>": 2193,
      "mentioned</w>": 2194,
      "paris</w>": 2195,
      "passing</w>": 2196,
      "sters</w>": 2197,
      "promo": 2198,
      "seized</w>": 2199,
      "cent</w>": 2200,
      "law": 2201,
      "wear": 2202,
      "gods</w>": 2203,
      "watch</w>": 2204,
      "loss</w>": 2205,
      "thomas</w>": 2206,
      "mb</w>": 2207,
      "bas": 2208,
      "ital</w>": 2209,
      "pale</w>": 2210,
      "bear": 2211,
      "ung</w>": 2212,
      "command</w>": 2213,
      "med": 2214,
      "ences</w>": 2215,
      "mista": 2216,
      "mistress</w>": 2217,
      "how": 2218,
      "gentle</w>": 2219,
      "march</w>": 2220,
      "draw</w>": 2221,
      "she": 2222,
      "sty</w>": 2223,
      "vious</w>": 2224,
      "england</w>": 2225,
      "dinner</w>": 2226,
      "lars</w>": 2227,
      "symp": 2228,
      "tr": 2229,
      "cho</w>": 2230,
      "future</w>": 2231,
      "compli": 2232,
      "paid</w>": 2233,
      "quiet</w>": 2234,
      "ory</w>": 2235,
      "worse</w>": 2236,
      "proper</w>": 2237,
      "begin</w>": 2238,
      "sudden</w>": 2239,
      "myster": 2240,
      "society</w>": 2241,
      "sad</w>": 2242,
      "pity</w>": 2243,
      "ham": 2244,
      "enter": 2245,
      "intro": 2246,
      "seven</w>": 2247,
      "goo": 2248,
      "pati": 2249,
      "gui": 2250,
      "coast</w>": 2251,
      "pan": 2252,
      "move</w>": 2253,
      "levin</w>": 2254,
      "cate</w>": 2255,
      "ff</w>": 2256,
      "orig": 2257,
      "instant</w>": 2258,
      "closed</w>": 2259,
      "bac": 2260,
      "fli": 2261,
      "ow": 2262,
      "unless</w>": 2263,
      "disco": 2264,
      "edward</w>": 2265,
      "ny</w>": 2266,
      "goes</w>": 2267,
      "belon": 2268,
      "ease</w>": 2269,
      "distingu": 2270,
      "beneath</w>": 2271,
      "hood</w>": 2272,
      "leading</w>": 2273,
      "shook</w>": 2274,
      "exer": 2275,
      "board</w>": 2276,
      "remain</w>": 2277,
      "middle</w>": 2278,
      "ages</w>": 2279,
      "signi": 2280,
      "govern": 2281,
      "zen</w>": 2282,
      "regu": 2283,
      "mov": 2284,
      "jour": 2285,
      "laughed</w>": 2286,
      "mul": 2287,
      "comfor": 2288,
      "months</w>": 2289,
      "born</w>": 2290,
      "cking</w>": 2291,
      "girls</w>": 2292,
      "ordered</w>": 2293,
      "laugh</w>": 2294,
      "ladies</w>": 2295,
      "promise</w>": 2296,
      "excellent</w>": 2297,
      "bright</w>": 2298,
      "bul": 2299,
      "chair</w>": 2300,
      "staf": 2301,
      "step</w>": 2302,
      "garden</w>": 2303,
      "dows</w>": 2304,
      "ia</w>": 2305,
      "lows</w>": 2306,
      "gged</w>": 2307,
      "dul": 2308,
      "awa": 2309,
      "minute</w>": 2310,
      "difficul": 2311,
      "mit": 2312,
      "aled</w>": 2313,
      "sorry</w>": 2314,
      "lowly</w>": 2315,
      "ghtful</w>": 2316,
      "author": 2317,
      "letters</w>": 2318,
      "wall</w>": 2319,
      "shar": 2320,
      "monte</w>": 2321,
      "respect</w>": 2322,
      "lives</w>": 2323,
      "conne": 2324,
      "tually</w>": 2325,
      "pecu": 2326,
      "za": 2327,
      "seek</w>": 2328,
      "cuse</w>": 2329,
      "swi": 2330,
      "started</w>": 2331,
      "fun": 2332,
      "kill</w>": 2333,
      "contra": 2334,
      "rue</w>": 2335,
      "els</w>": 2336,
      "degre": 2337,
      "ribu": 2338,
      "sear": 2339,
      "repeated</w>": 2340,
      "dem": 2341,
      "charge</w>": 2342,
      "ferred</w>": 2343,
      "considered</w>": 2344,
      "expec": 2345,
      "evidently</w>": 2346,
      "rel</w>": 2347,
      "clou": 2348,
      "tte</w>": 2349,
      "sugg": 2350,
      "amed</w>": 2351,
      "amp": 2352,
      "reading</w>": 2353,
      "military</w>": 2354,
      "stances</w>": 2355,
      "volunte": 2356,
      "endea": 2357,
      "paper</w>": 2358,
      "endeav": 2359,
      "rol": 2360,
      "receive</w>": 2361,
      "consider</w>": 2362,
      "ester": 2363,
      "simple</w>": 2364,
      "note</w>": 2365,
      "ests</w>": 2366,
      "devo": 2367,
      "proud</w>": 2368,
      "wer</w>": 2369,
      "tten</w>": 2370,
      "works</w>": 2371,
      "scarcely</w>": 2372,
      "produ": 2373,
      "mitted</w>": 2374,
      "itable</w>": 2375,
      "poli": 2376,
      "officers</w>": 2377,
      "yer</w>": 2378,
      "figure</w>": 2379,
      "perfect</w>": 2380,
      "jects</w>": 2381,
      "erial</w>": 2382,
      "ners</w>": 2383,
      "tone</w>": 2384,
      "offered</w>": 2385,
      "dle</w>": 2386,
      "verse</w>": 2387,
      "divi": 2388,
      "carriage</w>": 2389,
      "german</w>": 2390,
      "virtue</w>": 2391,
      "music</w>": 2392,
      "drawn</w>": 2393,
      "zing</w>": 2394,
      "noticed</w>": 2395,
      "dden</w>": 2396,
      "regar": 2397,
      "doro": 2398,
      "dep": 2399,
      "danger</w>": 2400,
      "false</w>": 2401,
      "mee": 2402,
      "proper": 2403,
      "glass</w>": 2404,
      "persons</w>": 2405,
      "putting</w>": 2406,
      "prison": 2407,
      "horses</w>": 2408,
      "depar": 2409,
      "eds</w>": 2410,
      "learn</w>": 2411,
      "fancy</w>": 2412,
      "fallen</w>": 2413,
      "oni": 2414,
      "ries</w>": 2415,
      "somewhat</w>": 2416,
      "shut</w>": 2417,
      "kov</w>": 2418,
      "super": 2419,
      "stantly</w>": 2420,
      "frequ": 2421,
      "horri": 2422,
      "cure</w>": 2423,
      "lab": 2424,
      "mere</w>": 2425,
      "marry</w>": 2426,
      "spirits</w>": 2427,
      "hearing</w>": 2428,
      "staff</w>": 2429,
      "end": 2430,
      "oppos": 2431,
      "erful</w>": 2432,
      "separ": 2433,
      "sancho</w>": 2434,
      "opportunity</w>": 2435,
      "slowly</w>": 2436,
      "pain": 2437,
      "government</w>": 2438,
      "attack</w>": 2439,
      "stairs</w>": 2440,
      "books</w>": 2441,
      "vna</w>": 2442,
      "thed</w>": 2443,
      "gar</w>": 2444,
      "ghtened</w>": 2445,
      "west</w>": 2446,
      "etted</w>": 2447,
      "coo": 2448,
      "condition</w>": 2449,
      "tains</w>": 2450,
      "party</w>": 2451,
      "notice</w>": 2452,
      "smiled</w>": 2453,
      "telling</w>": 2454,
      "vent</w>": 2455,
      "gentlemen</w>": 2456,
      "running</w>": 2457,
      "mis": 2458,
      "christi": 2459,
      "mined</w>": 2460,
      "splen": 2461,
      "moder": 2462,
      "miles</w>": 2463,
      "promoted</w>": 2464,
      "regi": 2465,
      "wore</w>": 2466,
      "ony</w>": 2467,
      "thos</w>": 2468,
      "office</w>": 2469,
      "andrew</w>": 2470,
      "respon": 2471,
      "exclaimed</w>": 2472,
      "hat</w>": 2473,
      "mighty</w>": 2474,
      "stop</w>": 2475,
      "ignor": 2476,
      "deser": 2477,
      "touch</w>": 2478,
      "believed</w>": 2479,
      "van</w>": 2480,
      "ements</w>": 2481,
      "marriage</w>": 2482,
      "sity</w>": 2483,
      "faul": 2484,
      "resolved</w>": 2485,
      "puni": 2486,
      "ine": 2487,
      "lean": 2488,
      "forced</w>": 2489,
      "tongue</w>": 2490,
      "settled</w>": 2491,
      "religi": 2492,
      "ysi": 2493,
      "enlisted</w>": 2494,
      "advent": 2495,
      "dily</w>": 2496,
      "amu": 2497,
      "eter": 2498,
      "lot</w>": 2499,
      "cons": 2500,
      "langu": 2501,
      "distance</w>": 2502,
      "gazetted</w>": 2503,
      "lig": 2504,
      "sal</w>": 2505,
      "rap": 2506,
      "ful": 2507,
      "dian</w>": 2508,
      "drink</w>": 2509,
      "cated</w>": 2510,
      "persu": 2511,
      "talked</w>": 2512,
      "orted</w>": 2513,
      "bot": 2514,
      "fond</w>": 2515,
      "suffer": 2516,
      "exac": 2517,
      "incl": 2518,
      "aching</w>": 2519,
      "vain</w>": 2520,
      "appointed</w>": 2521,
      "coat</w>": 2522,
      "promised</w>": 2523,
      "bid</w>": 2524,
      "gives</w>": 2525,
      "natur": 2526,
      "influence</w>": 2527,
      "pain</w>": 2528,
      "ply</w>": 2529,
      "prove</w>": 2530,
      "class</w>": 2531,
      "ner": 2532,
      "enced</w>": 2533,
      "likely</w>": 2534,
      "ancy</w>": 2535,
      "finding</w>": 2536,
      "equal</w>": 2537,
      "important</w>": 2538,
      "anti": 2539,
      "top</w>": 2540,
      "sul": 2541,
      "creature</w>": 2542,
      "angry</w>": 2543,
      "thful</w>": 2544,
      "vers</w>": 2545,
      "vering</w>": 2546,
      "engaged</w>": 2547,
      "sake</w>": 2548,
      "fai": 2549,
      "cial</w>": 2550,
      "liter": 2551,
      "due</w>": 2552,
      "foun": 2553,
      "guil": 2554,
      "imagine</w>": 2555,
      "warm</w>": 2556,
      "shop</w>": 2557,
      "grave</w>": 2558,
      "study</w>": 2559,
      "del": 2560,
      "ina</w>": 2561,
      "chee": 2562,
      "writ": 2563,
      "breath</w>": 2564,
      "remembered</w>": 2565,
      "origin": 2566,
      "particularly</w>": 2567,
      "river</w>": 2568,
      "scre": 2569,
      "swee": 2570,
      "sent": 2571,
      "cries</w>": 2572,
      "higher</w>": 2573,
      "convin": 2574,
      "spar": 2575,
      "nur": 2576,
      "besides</w>": 2577,
      "fight</w>": 2578,
      "comfort</w>": 2579,
      "discovered</w>": 2580,
      "incre": 2581,
      "mortal</w>": 2582,
      "marius</w>": 2583,
      "judge</w>": 2584,
      "honest</w>": 2585,
      "conscious</w>": 2586,
      "sea": 2587,
      "spoken</w>": 2588,
      "pac": 2589,
      "yi": 2590,
      "physi": 2591,
      "takes</w>": 2592,
      "volu": 2593,
      "bent</w>": 2594,
      "ancient</w>": 2595,
      "surprised</w>": 2596,
      "memory</w>": 2597,
      "midst</w>": 2598,
      "mbers</w>": 2599,
      "determined</w>": 2600,
      "fate</w>": 2601,
      "meaning</w>": 2602,
      "jones</w>": 2603,
      "lead</w>": 2604,
      "glance</w>": 2605,
      "dow": 2606,
      "burst</w>": 2607,
      "inclu": 2608,
      "produced</w>": 2609,
      "buil": 2610,
      "touched</w>": 2611,
      "broo": 2612,
      "inno": 2613,
      "whence</w>": 2614,
      "gotten</w>": 2615,
      "conduct</w>": 2616,
      "ial</w>": 2617,
      "auth": 2618,
      "listened</w>": 2619,
      "delight</w>": 2620,
      "tory</w>": 2621,
      "mly</w>": 2622,
      "ham</w>": 2623,
      "trust</w>": 2624,
      "dying</w>": 2625,
      "confu": 2626,
      "capable</w>": 2627,
      "walking</w>": 2628,
      "offer</w>": 2629,
      "village</w>": 2630,
      "opposite</w>": 2631,
      "writing</w>": 2632,
      "eding</w>": 2633,
      "cross</w>": 2634,
      "fair": 2635,
      "bottom</w>": 2636,
      "plu": 2637,
      "tion": 2638,
      "disapp": 2639,
      "gol": 2640,
      "drawing</w>": 2641,
      "ured</w>": 2642,
      "expect</w>": 2643,
      "desired</w>": 2644,
      "hil": 2645,
      "politi": 2646,
      "mess": 2647,
      "nice</w>": 2648,
      "dreadful</w>": 2649,
      "dance</w>": 2650,
      "ic</w>": 2651,
      "special</w>": 2652,
      "tit": 2653,
      "devil</w>": 2654,
      "sper": 2655,
      "dering</w>": 2656,
      "appa": 2657,
      "silver</w>": 2658,
      "motion</w>": 2659,
      "guar": 2660,
      "ph</w>": 2661,
      "spring</w>": 2662,
      "sympa": 2663,
      "eg": 2664,
      "ught</w>": 2665,
      "however</w>": 2666,
      "rever": 2667,
      "serious</w>": 2668,
      "cult</w>": 2669,
      "tely</w>": 2670,
      "lion</w>": 2671,
      "lock</w>": 2672,
      "esty</w>": 2673,
      "execu": 2674,
      "presently</w>": 2675,
      "greatly</w>": 2676,
      "kiss</w>": 2677,
      "conce": 2678,
      "taining</w>": 2679,
      "zz": 2680,
      "sooner</w>": 2681,
      "ousin</w>": 2682,
      "thine</w>": 2683,
      "rise</w>": 2684,
      "moi": 2685,
      "occur": 2686,
      "soldier</w>": 2687,
      "wide</w>": 2688,
      "vag": 2689,
      "poe": 2690,
      "passion</w>": 2691,
      "satisfied</w>": 2692,
      "surprise</w>": 2693,
      "bility</w>": 2694,
      "cally</w>": 2695,
      "ctly</w>": 2696,
      "faction</w>": 2697,
      "repu": 2698,
      "ple</w>": 2699,
      "sought</w>": 2700,
      "courage</w>": 2701,
      "exactly</w>": 2702,
      "noise</w>": 2703,
      "escape</w>": 2704,
      "dy": 2705,
      "orders</w>": 2706,
      "tender</w>": 2707,
      "eliza": 2708,
      "difficult</w>": 2709,
      "dr</w>": 2710,
      "argu": 2711,
      "itation</w>": 2712,
      "thes</w>": 2713,
      "ounced</w>": 2714,
      "cler": 2715,
      "gy</w>": 2716,
      "stea": 2717,
      "generally</w>": 2718,
      "cli": 2719,
      "throw</w>": 2720,
      "faith</w>": 2721,
      "ams</w>": 2722,
      "smiling</w>": 2723,
      "forgive</w>": 2724,
      "meeting</w>": 2725,
      "bran": 2726,
      "elled</w>": 2727,
      "finished</w>": 2728,
      "thrown</w>": 2729,
      "fashi": 2730,
      "reck": 2731,
      "safe</w>": 2732,
      "sover": 2733,
      "ury</w>": 2734,
      "cousin</w>": 2735,
      "famous</w>": 2736,
      "civi": 2737,
      "sole": 2738,
      "twel": 2739,
      "impro": 2740,
      "decided</w>": 2741,
      "charming</w>": 2742,
      "interrup": 2743,
      "kissed</w>": 2744,
      "complete</w>": 2745,
      "and": 2746,
      "destro": 2747,
      "below</w>": 2748,
      "gloo": 2749,
      "boys</w>": 2750,
      "beg</w>": 2751,
      "utter": 2752,
      "neighb": 2753,
      "brave</w>": 2754,
      "prepared</w>": 2755,
      "hamlet</w>": 2756,
      "elizabeth</w>": 2757,
      "appre": 2758,
      "perceived</w>": 2759,
      "eror</w>": 2760,
      "ourselves</w>": 2761,
      "distur": 2762,
      "outside</w>": 2763,
      "strugg": 2764,
      "circumstances</w>": 2765,
      "vis": 2766,
      "atures</w>": 2767,
      "played</w>": 2768,
      "ma</w>": 2769,
      "anim": 2770,
      "forgotten</w>": 2771,
      "trees</w>": 2772,
      "eful</w>": 2773,
      "unable</w>": 2774,
      "suspi": 2775,
      "sen</w>": 2776,
      "wine</w>": 2777,
      "xious</w>": 2778,
      "descen": 2779,
      "twice</w>": 2780,
      "hung</w>": 2781,
      "laughing</w>": 2782,
      "dost</w>": 2783,
      "calling</w>": 2784,
      "darkness</w>": 2785,
      "grief</w>": 2786,
      "hot</w>": 2787,
      "waited</w>": 2788,
      "soldiers</w>": 2789,
      "volunteered</w>": 2790,
      "expressed</w>": 2791,
      "tended</w>": 2792,
      "situ": 2793,
      "pair</w>": 2794,
      "compla": 2795,
      "difficulty</w>": 2796,
      "main": 2797,
      "feelings</w>": 2798,
      "lovely</w>": 2799,
      "shadow</w>": 2800,
      "fortunate</w>": 2801,
      "hosp": 2802,
      "grand": 2803,
      "extraordinary</w>": 2804,
      "cris": 2805,
      "supposed</w>": 2806,
      "cting</w>": 2807,
      "sword</w>": 2808,
      "golden</w>": 2809,
      "legs</w>": 2810,
      "mad</w>": 2811,
      "anna</w>": 2812,
      "concei": 2813,
      "aded</w>": 2814,
      "cian</w>": 2815,
      "shame</w>": 2816,
      "lower</w>": 2817,
      "rang</w>": 2818,
      "firm</w>": 2819,
      "beha": 2820,
      "castle</w>": 2821,
      "quest</w>": 2822,
      "mark</w>": 2823,
      "places</w>": 2824,
      "perio": 2825,
      "success</w>": 2826,
      "ah</w>": 2827,
      "stened</w>": 2828,
      "embra": 2829,
      "rence</w>": 2830,
      "hill</w>": 2831,
      "mid": 2832,
      "possession</w>": 2833,
      "acquaint": 2834,
      "dship</w>": 2835,
      "moving</w>": 2836,
      "meg</w>": 2837,
      "worn</w>": 2838,
      "loud</w>": 2839,
      "gate</w>": 2840,
      "od": 2841,
      "vel</w>": 2842,
      "lei": 2843,
      "parts</w>": 2844,
      "rising</w>": 2845,
      "floor</w>": 2846,
      "eldest</w>": 2847,
      "iron</w>": 2848,
      "declared</w>": 2849,
      "peculiar</w>": 2850,
      "ama": 2851,
      "cea": 2852,
      "fly</w>": 2853,
      "recolle": 2854,
      "everybody</w>": 2855,
      "turns</w>": 2856,
      "altogether</w>": 2857,
      "keeping</w>": 2858,
      "nobody</w>": 2859,
      "sacri": 2860,
      "soft</w>": 2861,
      "atic</w>": 2862,
      "troub": 2863,
      "divine</w>": 2864,
      "loves</w>": 2865,
      "communi": 2866,
      "taste</w>": 2867,
      "reach</w>": 2868,
      "sorrow</w>": 2869,
      "ásha</w>": 2870,
      "quie": 2871,
      "spot</w>": 2872,
      "caused</w>": 2873,
      "ester</w>": 2874,
      "nest</w>": 2875,
      "drun": 2876,
      "zar": 2877,
      "matters</w>": 2878,
      "valjean</w>": 2879,
      "insi": 2880,
      "attrac": 2881,
      "experience</w>": 2882,
      "dog</w>": 2883,
      "week</w>": 2884,
      "bs</w>": 2885,
      "accompan": 2886,
      "reply</w>": 2887,
      "dged</w>": 2888,
      "pin": 2889,
      "all": 2890,
      "sick</w>": 2891,
      "dest": 2892,
      "gall": 2893,
      "extrem": 2894,
      "amy</w>": 2895,
      "fool</w>": 2896,
      "affection</w>": 2897,
      "ops</w>": 2898,
      "speech</w>": 2899,
      "bow</w>": 2900,
      "degree</w>": 2901,
      "valancy</w>": 2902,
      "dropped</w>": 2903,
      "expla": 2904,
      "treat</w>": 2905,
      "suffered</w>": 2906,
      "russian</w>": 2907,
      "authority</w>": 2908,
      "yel": 2909,
      "pride</w>": 2910,
      "acquainted</w>": 2911,
      "alyo": 2912,
      "begged</w>": 2913,
      "natásha</w>": 2914,
      "alyosha</w>": 2915,
      "travel": 2916,
      "satisfaction</w>": 2917,
      "osity</w>": 2918,
      "seat</w>": 2919,
      "positi": 2920,
      "advantage</w>": 2921,
      "suffer</w>": 2922,
      "yor": 2923,
      "noon</w>": 2924,
      "det": 2925,
      "guard</w>": 2926,
      "cester</w>": 2927,
      "pet": 2928,
      "heaven": 2929,
      "dream</w>": 2930,
      "favour</w>": 2931,
      "concerning</w>": 2932,
      "crowd</w>": 2933,
      "resolu": 2934,
      "grow</w>": 2935,
      "visible</w>": 2936,
      "twelve</w>": 2937,
      "stup": 2938,
      "ssive</w>": 2939,
      "drove</w>": 2940,
      "mention</w>": 2941,
      "anxious</w>": 2942,
      "race</w>": 2943,
      "blow</w>": 2944,
      "page</w>": 2945,
      "ian</w>": 2946,
      "christian</w>": 2947,
      "hy": 2948,
      "elder</w>": 2949,
      "colon": 2950,
      "questions</w>": 2951,
      "cel": 2952,
      "rushed</w>": 2953,
      "esting</w>": 2954,
      "intended</w>": 2955,
      "sufficient</w>": 2956,
      "liberty</w>": 2957,
      "won</w>": 2958,
      "pocket</w>": 2959,
      "bore</w>": 2960,
      "summer</w>": 2961,
      "actually</w>": 2962,
      "ress</w>": 2963,
      "oning</w>": 2964,
      "mped</w>": 2965,
      "counten": 2966,
      "slee": 2967,
      "sion": 2968,
      "heads</w>": 2969,
      "fred</w>": 2970,
      "illu": 2971,
      "watched</w>": 2972,
      "cles</w>": 2973,
      "may": 2974,
      "decei": 2975,
      "accep": 2976,
      "stranger</w>": 2977,
      "gained</w>": 2978,
      "strang": 2979,
      "wounds</w>": 2980,
      "rif": 2981,
      "sures</w>": 2982,
      "free": 2983,
      "armed</w>": 2984,
      "member</w>": 2985,
      "hurt</w>": 2986,
      "pers</w>": 2987,
      "tery</w>": 2988,
      "bol": 2989,
      "servan": 2990,
      "clothes</w>": 2991,
      "stern</w>": 2992,
      "succeeded</w>": 2993,
      "servants</w>": 2994,
      "hence</w>": 2995,
      "mou": 2996,
      "emperor</w>": 2997,
      "fru": 2998,
      "ump": 2999,
      "reali": 3000,
      "spect</w>": 3001,
      "stream</w>": 3002,
      "proceeded</w>": 3003,
      "everyone</w>": 3004,
      "splendid</w>": 3005,
      "begun</w>": 3006,
      "wonderful</w>": 3007,
      "exerci": 3008,
      "um</w>": 3009,
      "mach": 3010,
      "thru": 3011,
      "neck</w>": 3012,
      "passage</w>": 3013,
      "foot": 3014,
      "danger": 3015,
      "journey</w>": 3016,
      "serving</w>": 3017,
      "enjoy</w>": 3018,
      "fat": 3019,
      "gli": 3020,
      "moral</w>": 3021,
      "listen</w>": 3022,
      "som</w>": 3023,
      "triump": 3024,
      "beat</w>": 3025,
      "asking</w>": 3026,
      "proved</w>": 3027,
      "grown</w>": 3028,
      "ample</w>": 3029,
      "king": 3030,
      "complet": 3031,
      "counte": 3032,
      "gradu": 3033,
      "absolutely</w>": 3034,
      "completely</w>": 3035,
      "countess</w>": 3036,
      "kable</w>": 3037,
      "fingers</w>": 3038,
      "highest</w>": 3039,
      "gor": 3040,
      "unknown</w>": 3041,
      "thick</w>": 3042,
      "share</w>": 3043,
      "dressing</w>": 3044,
      "faces</w>": 3045,
      "attempt</w>": 3046,
      "pil": 3047,
      "commanding</w>": 3048,
      "anyone</w>": 3049,
      "surely</w>": 3050,
      "arily</w>": 3051,
      "rie</w>": 3052,
      "comb": 3053,
      "philosoph": 3054,
      "language</w>": 3055,
      "hate</w>": 3056,
      "shalt</w>": 3057,
      "gain</w>": 3058,
      "discu": 3059,
      "ment": 3060,
      "ourable</w>": 3061,
      "deman": 3062,
      "hopes</w>": 3063,
      "wis": 3064,
      "breast</w>": 3065,
      "nine</w>": 3066,
      "grand</w>": 3067,
      "ideas</w>": 3068,
      "fer</w>": 3069,
      "tent</w>": 3070,
      "tren": 3071,
      "ghting</w>": 3072,
      "utmost</w>": 3073,
      "winter</w>": 3074,
      "major</w>": 3075,
      "direction</w>": 3076,
      "uttered</w>": 3077,
      "fil": 3078,
      "hamed</w>": 3079,
      "ashamed</w>": 3080,
      "ption</w>": 3081,
      "considerable</w>": 3082,
      "ana</w>": 3083,
      "leaves</w>": 3084,
      "unhappy</w>": 3085,
      "rary</w>": 3086,
      "appears</w>": 3087,
      "alian</w>": 3088,
      "ense</w>": 3089,
      "ational</w>": 3090,
      "surr": 3091,
      "occupied</w>": 3092,
      "author</w>": 3093,
      "ple": 3094,
      "treated</w>": 3095,
      "bread</w>": 3096,
      "inj": 3097,
      "onable</w>": 3098,
      "worship</w>": 3099,
      "lifted</w>": 3100,
      "ber</w>": 3101,
      "ttered</w>": 3102,
      "ann": 3103,
      "anton": 3104,
      "laws</w>": 3105,
      "acce": 3106,
      "ants</w>": 3107,
      "watching</w>": 3108,
      "key</w>": 3109,
      "laurie</w>": 3110,
      "anxi": 3111,
      "seated</w>": 3112,
      "acci": 3113,
      "spread</w>": 3114,
      "frederi": 3115,
      "pper</w>": 3116,
      "curious</w>": 3117,
      "naturally</w>": 3118,
      "ddy</w>": 3119,
      "suit</w>": 3120,
      "mounted</w>": 3121,
      "ace</w>": 3122,
      "willing</w>": 3123,
      "names</w>": 3124,
      "euro": 3125,
      "prisoner</w>": 3126,
      "hall</w>": 3127,
      "decl": 3128,
      "popu": 3129,
      "possessed</w>": 3130,
      "truly</w>": 3131,
      "effec": 3132,
      "violent</w>": 3133,
      "sacrifi": 3134,
      "taught</w>": 3135,
      "finger</w>": 3136,
      "ivan": 3137,
      "judg": 3138,
      "excited</w>": 3139,
      "ivano": 3140,
      "bury</w>": 3141,
      "quick</w>": 3142,
      "double</w>": 3143,
      "que</w>": 3144,
      "etc</w>": 3145,
      "fifty</w>": 3146,
      "other": 3147,
      "assure</w>": 3148,
      "drive</w>": 3149,
      "employed</w>": 3150,
      "otherwise</w>": 3151,
      "bun": 3152,
      "prevent</w>": 3153,
      "wear</w>": 3154,
      "thinks</w>": 3155,
      "impression</w>": 3156,
      "shown</w>": 3157,
      "excuse</w>": 3158,
      "opening</w>": 3159,
      "terror</w>": 3160,
      "compar": 3161,
      "distinguished</w>": 3162,
      "sau": 3163,
      "listening</w>": 3164,
      "regre": 3165,
      "leep</w>": 3166,
      "asleep</w>": 3167,
      "handsome</w>": 3168,
      "restor": 3169,
      "month</w>": 3170,
      "aware</w>": 3171,
      "fault</w>": 3172,
      "usually</w>": 3173,
      "superi": 3174,
      "health</w>": 3175,
      "avoid</w>": 3176,
      "convinced</w>": 3177,
      "acquaintance</w>": 3178,
      "tted</w>": 3179,
      "sm</w>": 3180,
      "ves": 3181,
      "possibly</w>": 3182,
      "result</w>": 3183,
      "countenance</w>": 3184,
      "rese": 3185,
      "tiv": 3186,
      "swear</w>": 3187,
      "quis": 3188,
      "personal</w>": 3189,
      "mour</w>": 3190,
      "shore</w>": 3191,
      "affair</w>": 3192,
      "calm</w>": 3193,
      "express</w>": 3194,
      "melan": 3195,
      "welcome</w>": 3196,
      "yellow</w>": 3197,
      "dangerous</w>": 3198,
      "praise</w>": 3199,
      "retired</w>": 3200,
      "carrying</w>": 3201,
      "mental</w>": 3202,
      "consequence</w>": 3203,
      "join</w>": 3204,
      "finite</w>": 3205,
      "flew</w>": 3206,
      "modern</w>": 3207,
      "frederick</w>": 3208,
      "four": 3209,
      "understanding</w>": 3210,
      "empty</w>": 3211,
      "signs</w>": 3212,
      "returning</w>": 3213,
      "happen</w>": 3214,
      "falling</w>": 3215,
      "portion</w>": 3216,
      "ception</w>": 3217,
      "miserable</w>": 3218,
      "event</w>": 3219,
      "obtained</w>": 3220,
      "chief": 3221,
      "difference</w>": 3222,
      "yes</w>": 3223,
      "rost": 3224,
      "sac": 3225,
      "trembling</w>": 3226,
      "period</w>": 3227,
      "wilt</w>": 3228,
      "increas": 3229,
      "simil": 3230,
      "walls</w>": 3231,
      "active</w>": 3232,
      "peter</w>": 3233,
      "dang": 3234,
      "gru": 3235,
      "post</w>": 3236,
      "vidu": 3237,
      "ouring</w>": 3238,
      "individu": 3239,
      "alexey</w>": 3240,
      "non</w>": 3241,
      "sty": 3242,
      "robert</w>": 3243,
      "lic": 3244,
      "broad</w>": 3245,
      "bbed</w>": 3246,
      "stands</w>": 3247,
      "foreign</w>": 3248,
      "search</w>": 3249,
      "hin": 3250,
      "yment</w>": 3251,
      "ssions</w>": 3252,
      "saint</w>": 3253,
      "mosco": 3254,
      "boat</w>": 3255,
      "attached</w>": 3256,
      "step": 3257,
      "issu": 3258,
      "flowers</w>": 3259,
      "moscow</w>": 3260,
      "vari": 3261,
      "hearts</w>": 3262,
      "regarded</w>": 3263,
      "ending</w>": 3264,
      "neg": 3265,
      "compre": 3266,
      "island</w>": 3267,
      "majesty</w>": 3268,
      "movement</w>": 3269,
      "bou": 3270,
      "lst</w>": 3271,
      "pure</w>": 3272,
      "thered</w>": 3273,
      "whilst</w>": 3274,
      "gazed</w>": 3275,
      "glory</w>": 3276,
      "ends</w>": 3277,
      "stence</w>": 3278,
      "entre": 3279,
      "afri": 3280,
      "eigh": 3281,
      "drop</w>": 3282,
      "choly</w>": 3283,
      "melancholy</w>": 3284,
      "dry</w>": 3285,
      "native</w>": 3286,
      "pardon</w>": 3287,
      "vast</w>": 3288,
      "despair</w>": 3289,
      "mour": 3290,
      "advi": 3291,
      "dor</w>": 3292,
      "deta": 3293,
      "ference</w>": 3294,
      "viour</w>": 3295,
      "distin": 3296,
      "thanks</w>": 3297,
      "among": 3298,
      "amongst</w>": 3299,
      "juli": 3300,
      "growing</w>": 3301,
      "agreeable</w>": 3302,
      "glanced</w>": 3303,
      "sar</w>": 3304,
      "catch</w>": 3305,
      "regular</w>": 3306,
      "haste</w>": 3307,
      "when": 3308,
      "interrupted</w>": 3309,
      "jan": 3310,
      "former": 3311,
      "picture</w>": 3312,
      "formerly</w>": 3313,
      "reven": 3314,
      "fier": 3315,
      "pulled</w>": 3316,
      "trenches</w>": 3317,
      "rit": 3318,
      "new": 3319,
      "explain</w>": 3320,
      "tures</w>": 3321,
      "ct": 3322,
      "gil": 3323,
      "stretched</w>": 3324,
      "wants</w>": 3325,
      "plan</w>": 3326,
      "whispered</w>": 3327,
      "immen": 3328,
      "equally</w>": 3329,
      "alexandro": 3330,
      "vell": 3331,
      "imperial</w>": 3332,
      "clearly</w>": 3333,
      "nation</w>": 3334,
      "net</w>": 3335,
      "quarter</w>": 3336,
      "aside</w>": 3337,
      "commission</w>": 3338,
      "aming</w>": 3339,
      "sens": 3340,
      "sharp</w>": 3341,
      "teach</w>": 3342,
      "vin": 3343,
      "rapi": 3344,
      "weak</w>": 3345,
      "behold</w>": 3346,
      "repro": 3347,
      "six": 3348,
      "seless</w>": 3349,
      "ade</w>": 3350,
      "dr": 3351,
      "ysses</w>": 3352,
      "instantly</w>": 3353,
      "oul</w>": 3354,
      "dience</w>": 3355,
      "worked</w>": 3356,
      "aid</w>": 3357,
      "gan": 3358,
      "ior</w>": 3359,
      "ket</w>": 3360,
      "ming": 3361,
      "valu": 3362,
      "finally</w>": 3363,
      "tree</w>": 3364,
      "plain": 3365,
      "maid</w>": 3366,
      "confess</w>": 3367,
      "suspici": 3368,
      "cristo</w>": 3369,
      "slight</w>": 3370,
      "honor</w>": 3371,
      "shouted</w>": 3372,
      "thin</w>": 3373,
      "delighted</w>": 3374,
      "advanced</w>": 3375,
      "sacred</w>": 3376,
      "blo": 3377,
      "citi": 3378,
      "ker": 3379,
      "frightened</w>": 3380,
      "imper": 3381,
      "hero": 3382,
      "tless</w>": 3383,
      "deb": 3384,
      "agreed</w>": 3385,
      "ath": 3386,
      "distant</w>": 3387,
      "success": 3388,
      "assured</w>": 3389,
      "nikov</w>": 3390,
      "estab": 3391,
      "wicked</w>": 3392,
      "mercy</w>": 3393,
      "laughter</w>": 3394,
      "criti": 3395,
      "confidence</w>": 3396,
      "io</w>": 3397,
      "kni": 3398,
      "hide</w>": 3399,
      "becoming</w>": 3400,
      "reader</w>": 3401,
      "highly</w>": 3402,
      "transl": 3403,
      "colonel</w>": 3404,
      "bare</w>": 3405,
      "path</w>": 3406,
      "que": 3407,
      "kit": 3408,
      "oh</w>": 3409,
      "hau": 3410,
      "shel": 3411,
      "spe": 3412,
      "mies</w>": 3413,
      "tol": 3414,
      "preci": 3415,
      "scor": 3416,
      "impati": 3417,
      "conscience</w>": 3418,
      "yester": 3419,
      "spend</w>": 3420,
      "eternal</w>": 3421,
      "soever</w>": 3422,
      "carefully</w>": 3423,
      "sette</w>": 3424,
      "cosette</w>": 3425,
      "box</w>": 3426,
      "tender": 3427,
      "ulysses</w>": 3428,
      "wretched</w>": 3429,
      "minister</w>": 3430,
      "occurred</w>": 3431,
      "inci": 3432,
      "fish</w>": 3433,
      "mond</w>": 3434,
      "escap": 3435,
      "grant</w>": 3436,
      "formation</w>": 3437,
      "signed</w>": 3438,
      "introdu": 3439,
      "nose</w>": 3440,
      "contrary</w>": 3441,
      "ousness</w>": 3442,
      "approached</w>": 3443,
      "food</w>": 3444,
      "prece": 3445,
      "effort</w>": 3446,
      "ghly</w>": 3447,
      "conc": 3448,
      "disappear": 3449,
      "bed": 3450,
      "forgot</w>": 3451,
      "lines</w>": 3452,
      "accompanied</w>": 3453,
      "phe": 3454,
      "gho": 3455,
      "familiar</w>": 3456,
      "bitter</w>": 3457,
      "situation</w>": 3458,
      "stee": 3459,
      "companion</w>": 3460,
      "mon</w>": 3461,
      "tin</w>": 3462,
      "tary</w>": 3463,
      "political</w>": 3464,
      "yesterday</w>": 3465,
      "previous</w>": 3466,
      "hesit": 3467,
      "coura": 3468,
      "beheld</w>": 3469,
      "hoped</w>": 3470,
      "bringing</w>": 3471,
      "pron": 3472,
      "vance</w>": 3473,
      "houses</w>": 3474,
      "nora</w>": 3475,
      "ices</w>": 3476,
      "albert</w>": 3477,
      "fairs</w>": 3478,
      "affairs</w>": 3479,
      "interesting</w>": 3480,
      "tac": 3481,
      "shoulders</w>": 3482,
      "whenever</w>": 3483,
      "besto": 3484,
      "needs</w>": 3485,
      "informed</w>": 3486,
      "restra": 3487,
      "value</w>": 3488,
      "ca</w>": 3489,
      "histor": 3490,
      "depen": 3491,
      "train</w>": 3492,
      "tall</w>": 3493,
      "whale</w>": 3494,
      "indiffer": 3495,
      "recomm": 3496,
      "accusto": 3497,
      "content</w>": 3498,
      "support</w>": 3499,
      "forms</w>": 3500,
      "space</w>": 3501,
      "bishop</w>": 3502,
      "suffering</w>": 3503,
      "ire</w>": 3504,
      "gently</w>": 3505,
      "betra": 3506,
      "rish</w>": 3507,
      "dull</w>": 3508,
      "posing</w>": 3509,
      "joe</w>": 3510,
      "nt</w>": 3511,
      "elds</w>": 3512,
      "worst</w>": 3513,
      "bold</w>": 3514,
      "house": 3515,
      "report</w>": 3516,
      "strong": 3517,
      "ball</w>": 3518,
      "made": 3519,
      "advice</w>": 3520,
      "crossed</w>": 3521,
      "inquired</w>": 3522,
      "saved</w>": 3523,
      "shor": 3524,
      "devoted</w>": 3525,
      "rostó": 3526,
      "thy": 3527,
      "burning</w>": 3528,
      "choose</w>": 3529,
      "directly</w>": 3530,
      "scot": 3531,
      "blind</w>": 3532,
      "ale</w>": 3533,
      "sex</w>": 3534,
      "leg": 3535,
      "actions</w>": 3536,
      "delicious</w>": 3537,
      "ess": 3538,
      "hab": 3539,
      "priest</w>": 3540,
      "bloom</w>": 3541,
      "deeply</w>": 3542,
      "sigh": 3543,
      "ill": 3544,
      "lec": 3545,
      "ability</w>": 3546,
      "ador": 3547,
      "comfortable</w>": 3548,
      "cher</w>": 3549,
      "secu": 3550,
      "blame</w>": 3551,
      "disap": 3552,
      "original</w>": 3553,
      "ès</w>": 3554,
      "present": 3555,
      "vented</w>": 3556,
      "existence</w>": 3557,
      "shaking</w>": 3558,
      "tured</w>": 3559,
      "tea</w>": 3560,
      "fanci": 3561,
      "quietly</w>": 3562,
      "intellig": 3563,
      "property</w>": 3564,
      "extremely</w>": 3565,
      "lli": 3566,
      "brilli": 3567,
      "innocent</w>": 3568,
      "earl</w>": 3569,
      "selle</w>": 3570,
      "asse": 3571,
      "lucy</w>": 3572,
      "rents</w>": 3573,
      "calls</w>": 3574,
      "moiselle</w>": 3575,
      "mademoiselle</w>": 3576,
      "ener": 3577,
      "bott": 3578,
      "attend</w>": 3579,
      "forest</w>": 3580,
      "jeal": 3581,
      "pti": 3582,
      "wound</w>": 3583,
      "aling</w>": 3584,
      "eless</w>": 3585,
      "sum</w>": 3586,
      "rask": 3587,
      "morrow</w>": 3588,
      "olnikov</w>": 3589,
      "raskolnikov</w>": 3590,
      "hidden</w>": 3591,
      "horror</w>": 3592,
      "thirty</w>": 3593,
      "afternoon</w>": 3594,
      "clif": 3595,
      "lighted</w>": 3596,
      "pole": 3597,
      "working</w>": 3598,
      "amid</w>": 3599,
      "hanging</w>": 3600,
      "friendly</w>": 3601,
      "knees</w>": 3602,
      "down": 3603,
      "including</w>": 3604,
      "similar</w>": 3605,
      "accustomed</w>": 3606,
      "tful</w>": 3607,
      "tied</w>": 3608,
      "chamber</w>": 3609,
      "nurse</w>": 3610,
      "freedom</w>": 3611,
      "iii</w>": 3612,
      "aten</w>": 3613,
      "rious</w>": 3614,
      "sped</w>": 3615,
      "moments</w>": 3616,
      "eces</w>": 3617,
      "gues</w>": 3618,
      "gray</w>": 3619,
      "admir": 3620,
      "toler": 3621,
      "plat": 3622,
      "accu": 3623,
      "attac": 3624,
      "ssor</w>": 3625,
      "break": 3626,
      "sensible</w>": 3627,
      "windows</w>": 3628,
      "accept</w>": 3629,
      "style</w>": 3630,
      "playing</w>": 3631,
      "claim</w>": 3632,
      "education</w>": 3633,
      "trea": 3634,
      "partly</w>": 3635,
      "singu": 3636,
      "imagination</w>": 3637,
      "mitya</w>": 3638,
      "mani": 3639,
      "social</w>": 3640,
      "habit</w>": 3641,
      "arthu": 3642,
      "metho": 3643,
      "rolled</w>": 3644,
      "arthur</w>": 3645,
      "ka</w>": 3646,
      "stir": 3647,
      "rome</w>": 3648,
      "conver": 3649,
      "furni": 3650,
      "tee": 3651,
      "moon</w>": 3652,
      "addressed</w>": 3653,
      "bbing</w>": 3654,
      "provided</w>": 3655,
      "civil</w>": 3656,
      "teeth</w>": 3657,
      "main</w>": 3658,
      "fail</w>": 3659,
      "showing</w>": 3660,
      "refused</w>": 3661,
      "misery</w>": 3662,
      "loving</w>": 3663,
      "wherein</w>": 3664,
      "thyself</w>": 3665,
      "unfortunate</w>": 3666,
      "sunk</w>": 3667,
      "wealth</w>": 3668,
      "yours</w>": 3669,
      "rooms</w>": 3670,
      "arrival</w>": 3671,
      "blessed</w>": 3672,
      "awful</w>": 3673,
      "enjoyed</w>": 3674,
      "viously</w>": 3675,
      "palace</w>": 3676,
      "desper": 3677,
      "necessity</w>": 3678,
      "farther</w>": 3679,
      "ra</w>": 3680,
      "cky</w>": 3681,
      "cred": 3682,
      "vali": 3683,
      "gallant</w>": 3684,
      "veni": 3685,
      "numer": 3686,
      "elop": 3687,
      "minds</w>": 3688,
      "reputation</w>": 3689,
      "utter</w>": 3690,
      "sav": 3691,
      "amoun": 3692,
      "interested</w>": 3693,
      "college</w>": 3694,
      "explained</w>": 3695,
      "tus</w>": 3696,
      "ret</w>": 3697,
      "remarkable</w>": 3698,
      "curiosity</w>": 3699,
      "glorious</w>": 3700,
      "eager": 3701,
      "buy</w>": 3702,
      "cap</w>": 3703,
      "fighting</w>": 3704,
      "spi": 3705,
      "powers</w>": 3706,
      "ox": 3707,
      "acity</w>": 3708,
      "affected</w>": 3709,
      "adju": 3710,
      "brown</w>": 3711,
      "land": 3712,
      "nearer</w>": 3713,
      "flying</w>": 3714,
      "sour": 3715,
      "logi": 3716,
      "ships</w>": 3717,
      "start</w>": 3718,
      "male</w>": 3719,
      "narrow</w>": 3720,
      "flesh</w>": 3721,
      "intention</w>": 3722,
      "weeks</w>": 3723,
      "thorou": 3724,
      "dgate</w>": 3725,
      "lydgate</w>": 3726,
      "precious</w>": 3727,
      "delightful</w>": 3728,
      "attended</w>": 3729,
      "ado": 3730,
      "inspir": 3731,
      "terms</w>": 3732,
      "raising</w>": 3733,
      "murmur": 3734,
      "eager</w>": 3735,
      "mal</w>": 3736,
      "napole": 3737,
      "direct</w>": 3738,
      "measure</w>": 3739,
      "thrust</w>": 3740,
      "bea": 3741,
      "bowed</w>": 3742,
      "fetch</w>": 3743,
      "medal</w>": 3744,
      "indul": 3745,
      "bosom</w>": 3746,
      "remains</w>": 3747,
      "ency</w>": 3748,
      "stoo": 3749,
      "sole</w>": 3750,
      "horrible</w>": 3751,
      "philosophy</w>": 3752,
      "jane</w>": 3753,
      "bon": 3754,
      "abs": 3755,
      "admit</w>": 3756,
      "advance</w>": 3757,
      "rendered</w>": 3758,
      "driven</w>": 3759,
      "frequently</w>": 3760,
      "harm</w>": 3761,
      "merry</w>": 3762,
      "solemn</w>": 3763,
      "fatal</w>": 3764,
      "proof</w>": 3765,
      "shoulder</w>": 3766,
      "wisdom</w>": 3767,
      "apo": 3768,
      "jected</w>": 3769,
      "win</w>": 3770,
      "events</w>": 3771,
      "entrance</w>": 3772,
      "lating</w>": 3773,
      "delicate</w>": 3774,
      "bridge</w>": 3775,
      "wishes</w>": 3776,
      "pointment</w>": 3777,
      "friendship</w>": 3778,
      "continually</w>": 3779,
      "hospital</w>": 3780,
      "dol": 3781,
      "comra": 3782,
      "streets</w>": 3783,
      "owing</w>": 3784,
      "thri": 3785,
      "reti": 3786,
      "thea</w>": 3787,
      "becomes</w>": 3788,
      "gathered</w>": 3789,
      "clean</w>": 3790,
      "dorothea</w>": 3791,
      "bell</w>": 3792,
      "chol": 3793,
      "gun": 3794,
      "wed": 3795,
      "ars</w>": 3796,
      "consent</w>": 3797,
      "francs</w>": 3798,
      "univers": 3799,
      "mysterious</w>": 3800,
      "leaning</w>": 3801,
      "tan": 3802,
      "station</w>": 3803,
      "dish</w>": 3804,
      "proceed</w>": 3805,
      "wned</w>": 3806,
      "setting</w>": 3807,
      "sophi": 3808,
      "ector</w>": 3809,
      "ceful</w>": 3810,
      "strike</w>": 3811,
      "dischar": 3812,
      "murder</w>": 3813,
      "immense</w>": 3814,
      "like": 3815,
      "soo": 3816,
      "rant</w>": 3817,
      "likewise</w>": 3818,
      "fled</w>": 3819,
      "acted</w>": 3820,
      "profound</w>": 3821,
      "fifteen</w>": 3822,
      "police</w>": 3823,
      "gradually</w>": 3824,
      "asc": 3825,
      "rently</w>": 3826,
      "crime</w>": 3827,
      "apparently</w>": 3828,
      "cun": 3829,
      "wra": 3830,
      "ables</w>": 3831,
      "proposed</w>": 3832,
      "establi": 3833,
      "monstr": 3834,
      "york</w>": 3835,
      "bil": 3836,
      "ivan</w>": 3837,
      "vere</w>": 3838,
      "rain</w>": 3839,
      "visit": 3840,
      "pieces</w>": 3841,
      "hero</w>": 3842,
      "bought</w>": 3843,
      "rule</w>": 3844,
      "mbs</w>": 3845,
      "excit": 3846,
      "vron": 3847,
      "anger</w>": 3848,
      "intim": 3849,
      "rested</w>": 3850,
      "jose": 3851,
      "kindly</w>": 3852,
      "guilty</w>": 3853,
      "vronsky</w>": 3854,
      "subjects</w>": 3855,
      "generous</w>": 3856,
      "constant</w>": 3857,
      "tle</w>": 3858,
      "yards</w>": 3859,
      "size</w>": 3860,
      "reasons</w>": 3861,
      "bank</w>": 3862,
      "ruin</w>": 3863,
      "cured</w>": 3864,
      "described</w>": 3865,
      "conten": 3866,
      "dust</w>": 3867,
      "napoleon</w>": 3868,
      "sin</w>": 3869,
      "alive</w>": 3870,
      "athos</w>": 3871,
      "yers</w>": 3872,
      "rows</w>": 3873,
      "assa": 3874,
      "emer": 3875,
      "younger</w>": 3876,
      "grateful</w>": 3877,
      "ceased</w>": 3878,
      "hither": 3879,
      "sees</w>": 3880,
      "indian</w>": 3881,
      "indign": 3882,
      "doors</w>": 3883,
      "edge</w>": 3884,
      "cruel</w>": 3885,
      "apar": 3886,
      "encoura": 3887,
      "needed</w>": 3888,
      "powerful</w>": 3889,
      "anybody</w>": 3890,
      "required</w>": 3891,
      "dign": 3892,
      "del</w>": 3893,
      "longed</w>": 3894,
      "troops</w>": 3895,
      "kindness</w>": 3896,
      "pr": 3897,
      "theat": 3898,
      "dious</w>": 3899,
      "shake</w>": 3900,
      "gloomy</w>": 3901,
      "dru": 3902,
      "conqu": 3903,
      "shape</w>": 3904,
      "cana": 3905,
      "smoke</w>": 3906,
      "car</w>": 3907,
      "conveni": 3908,
      "gging</w>": 3909,
      "directed</w>": 3910,
      "fashion</w>": 3911,
      "hit</w>": 3912,
      "legi": 3913,
      "example</w>": 3914,
      "evidence</w>": 3915,
      "sympathy</w>": 3916,
      "ron</w>": 3917,
      "slow</w>": 3918,
      "feared</w>": 3919,
      "arranged</w>": 3920,
      "stepan</w>": 3921,
      "suspec": 3922,
      "marked</w>": 3923,
      "papers</w>": 3924,
      "ameri": 3925,
      "barri": 3926,
      "falstaff</w>": 3927,
      "bearing</w>": 3928,
      "utterly</w>": 3929,
      "hitherto</w>": 3930,
      "ur</w>": 3931,
      "wol": 3932,
      "meo</w>": 3933,
      "grass</w>": 3934,
      "aign</w>": 3935,
      "indu": 3936,
      "magni": 3937,
      "cil</w>": 3938,
      "prick</w>": 3939,
      "rostóv</w>": 3940,
      "encoun": 3941,
      "stat": 3942,
      "luci": 3943,
      "souls</w>": 3944,
      "faithful</w>": 3945,
      "kitch": 3946,
      "absence</w>": 3947,
      "sprang</w>": 3948,
      "mili": 3949,
      "smoo": 3950,
      "superior</w>": 3951,
      "bless</w>": 3952,
      "ada</w>": 3953,
      "render</w>": 3954,
      "slept</w>": 3955,
      "disappeared</w>": 3956,
      "crying</w>": 3957,
      "ske": 3958,
      "lefort</w>": 3959,
      "villefort</w>": 3960,
      "speed</w>": 3961,
      "knight</w>": 3962,
      "accompli": 3963,
      "seldom</w>": 3964,
      "ark": 3965,
      "thoroughly</w>": 3966,
      "snow</w>": 3967,
      "disgu": 3968,
      "signific": 3969,
      "rapidly</w>": 3970,
      "use": 3971,
      "rejo": 3972,
      "severe</w>": 3973,
      "spare</w>": 3974,
      "observe</w>": 3975,
      "despat": 3976,
      "christ": 3977,
      "bird</w>": 3978,
      "aston": 3979,
      "judgment</w>": 3980,
      "dant</w>": 3981,
      "rev</w>": 3982,
      "esti": 3983,
      "observ": 3984,
      "gest</w>": 3985,
      "keen</w>": 3986,
      "ator</w>": 3987,
      "busy</w>": 3988,
      "ection</w>": 3989,
      "mony</w>": 3990,
      "recognized</w>": 3991,
      "pse</w>": 3992,
      "romeo</w>": 3993,
      "agement</w>": 3994,
      "entine</w>": 3995,
      "daily</w>": 3996,
      "prison</w>": 3997,
      "ak</w>": 3998,
      "grou": 3999,
      "enger</w>": 4000,
      "rode</w>": 4001,
      "didst</w>": 4002,
      "consu": 4003,
      "convi": 4004,
      "tors</w>": 4005,
      "foolish</w>": 4006,
      "messenger</w>": 4007,
      "iv</w>": 4008,
      "cost</w>": 4009,
      "task</w>": 4010,
      "someone</w>": 4011,
      "gel</w>": 4012,
      "ghtest</w>": 4013,
      "breakfast</w>": 4014,
      "joseph</w>": 4015,
      "kitt": 4016,
      "ounding</w>": 4017,
      "span": 4018,
      "helped</w>": 4019,
      "committed</w>": 4020,
      "stron": 4021,
      "introduced</w>": 4022,
      "escaped</w>": 4023,
      "fat</w>": 4024,
      "chec": 4025,
      "joy": 4026,
      "picked</w>": 4027,
      "astoni": 4028,
      "named</w>": 4029,
      "wholly</w>": 4030,
      "refuse</w>": 4031,
      "experienced</w>": 4032,
      "greek</w>": 4033,
      "evident</w>": 4034,
      "absolute</w>": 4035,
      "back": 4036,
      "arkad": 4037,
      "ose</w>": 4038,
      "accoun": 4039,
      "ay</w>": 4040,
      "sn": 4041,
      "roman</w>": 4042,
      "mass</w>": 4043,
      "grey</w>": 4044,
      "mans</w>": 4045,
      "voices</w>": 4046,
      "title</w>": 4047,
      "fierce</w>": 4048,
      "kings</w>": 4049,
      "vous</w>": 4050,
      "witness</w>": 4051,
      "rie": 4052,
      "chester</w>": 4053,
      "alexander</w>": 4054,
      "iously</w>": 4055,
      "ressed</w>": 4056,
      "bloody</w>": 4057,
      "importance</w>": 4058,
      "dents</w>": 4059,
      "not": 4060,
      "illa</w>": 4061,
      "marilla</w>": 4062,
      "valentine</w>": 4063,
      "touching</w>": 4064,
      "hurried</w>": 4065,
      "painful</w>": 4066,
      "ignorant</w>": 4067,
      "host</w>": 4068,
      "ll": 4069,
      "enor": 4070,
      "enthu": 4071,
      "poi": 4072,
      "tuous</w>": 4073,
      "dared</w>": 4074,
      "enthusi": 4075,
      "ines</w>": 4076,
      "eness</w>": 4077,
      "enchan": 4078,
      "rid</w>": 4079,
      "lof": 4080,
      "corre": 4081,
      "constitu": 4082,
      "kitchen</w>": 4083,
      "kitty</w>": 4084,
      "removed</w>": 4085,
      "scra": 4086,
      "austr": 4087,
      "ential</w>": 4088,
      "rifle</w>": 4089,
      "upper</w>": 4090,
      "shining</w>": 4091,
      "admitted</w>": 4092,
      "mankind</w>": 4093,
      "relief</w>": 4094,
      "threat": 4095,
      "square</w>": 4096,
      "popular</w>": 4097,
      "quisite</w>": 4098,
      "kat": 4099,
      "notes</w>": 4100,
      "game</w>": 4101,
      "itish</w>": 4102,
      "british</w>": 4103,
      "approach</w>": 4104,
      "troubled</w>": 4105,
      "sat": 4106,
      "magi": 4107,
      "failed</w>": 4108,
      "contribu": 4109,
      "operations</w>": 4110,
      "behaviour</w>": 4111,
      "inside</w>": 4112,
      "parents</w>": 4113,
      "discour": 4114,
      "perceive</w>": 4115,
      "discover</w>": 4116,
      "suggested</w>": 4117,
      "vas": 4118,
      "tier</w>": 4119,
      "col</w>": 4120,
      "delivered</w>": 4121,
      "crown</w>": 4122,
      "borne</w>": 4123,
      "demanded</w>": 4124,
      "shoo": 4125,
      "bade</w>": 4126,
      "circle</w>": 4127,
      "religious</w>": 4128,
      "sell</w>": 4129,
      "vices</w>": 4130,
      "pushed</w>": 4131,
      "points</w>": 4132,
      "scarce</w>": 4133,
      "relations</w>": 4134,
      "obey</w>": 4135,
      "jun": 4136,
      "ament</w>": 4137,
      "sorts</w>": 4138,
      "couple</w>": 4139,
      "flung</w>": 4140,
      "extreme</w>": 4141,
      "mistake</w>": 4142,
      "manife": 4143,
      "dread</w>": 4144,
      "lit</w>": 4145,
      "vid</w>": 4146,
      "thence</w>": 4147,
      "god": 4148,
      "candle</w>": 4149,
      "base</w>": 4150,
      "goodness</w>": 4151,
      "brilliant</w>": 4152,
      "arse</w>": 4153,
      "associ": 4154,
      "judi": 4155,
      "plun": 4156,
      "professor</w>": 4157,
      "surrounded</w>": 4158,
      "vessel</w>": 4159,
      "canadian</w>": 4160,
      "bad": 4161,
      "dder</w>": 4162,
      "kn": 4163,
      "recovered</w>": 4164,
      "conf": 4165,
      "address</w>": 4166,
      "fill</w>": 4167,
      "exhau": 4168,
      "grati": 4169,
      "peasant</w>": 4170,
      "kened</w>": 4171,
      "ser</w>": 4172,
      "tily</w>": 4173,
      "fields</w>": 4174,
      "fare": 4175,
      "nichol": 4176,
      "relation</w>": 4177,
      "revenge</w>": 4178,
      "nicholas</w>": 4179,
      "misc": 4180,
      "stared</w>": 4181,
      "cheerful</w>": 4182,
      "pit": 4183,
      "squire</w>": 4184,
      "entering</w>": 4185,
      "huge</w>": 4186,
      "louis</w>": 4187,
      "cheeks</w>": 4188,
      "accepted</w>": 4189,
      "negle": 4190,
      "sophia</w>": 4191,
      "blan": 4192,
      "mir": 4193,
      "missed</w>": 4194,
      "wl</w>": 4195,
      "torpe": 4196,
      "choice</w>": 4197,
      "resumed</w>": 4198,
      "weary</w>": 4199,
      "yard</w>": 4200,
      "forty</w>": 4201,
      "gress</w>": 4202,
      "chiefly</w>": 4203,
      "song</w>": 4204,
      "weight</w>": 4205,
      "shee": 4206,
      "desc": 4207,
      "condem": 4208,
      "preva": 4209,
      "itual</w>": 4210,
      "woods</w>": 4211,
      "beloved</w>": 4212,
      "suspicion</w>": 4213,
      "dier</w>": 4214,
      "mai": 4215,
      "fury</w>": 4216,
      "adventure</w>": 4217,
      "ha</w>": 4218,
      "image</w>": 4219,
      "excitement</w>": 4220,
      "inclined</w>": 4221,
      "itated</w>": 4222,
      "stars</w>": 4223,
      "dding</w>": 4224,
      "flat": 4225,
      "ical</w>": 4226,
      "rors</w>": 4227,
      "wen": 4228,
      "rio": 4229,
      "gaze</w>": 4230,
      "sank</w>": 4231,
      "deny</w>": 4232,
      "slave</w>": 4233,
      "inn</w>": 4234,
      "inquir": 4235,
      "chap": 4236,
      "therine</w>": 4237,
      "clerk</w>": 4238,
      "african</w>": 4239,
      "plainly</w>": 4240,
      "swa": 4241,
      "oul": 4242,
      "lio</w>": 4243,
      "add</w>": 4244,
      "ems</w>": 4245,
      "drunk</w>": 4246,
      "quo": 4247,
      "trif": 4248,
      "birds</w>": 4249,
      "singular</w>": 4250,
      "test</w>": 4251,
      "xx": 4252,
      "aband": 4253,
      "jumped</w>": 4254,
      "tale</w>": 4255,
      "pon": 4256,
      "vert</w>": 4257,
      "seeking</w>": 4258,
      "produce</w>": 4259,
      "pad": 4260,
      "sounds</w>": 4261,
      "vul": 4262,
      "wit</w>": 4263,
      "jove</w>": 4264,
      "manners</w>": 4265,
      "pointing</w>": 4266,
      "struction</w>": 4267,
      "supper</w>": 4268,
      "patience</w>": 4269,
      "anxiety</w>": 4270,
      "fyo": 4271,
      "laying</w>": 4272,
      "faint</w>": 4273,
      "oft</w>": 4274,
      "humble</w>": 4275,
      "doed</w>": 4276,
      "yield</w>": 4277,
      "torpedoed</w>": 4278,
      "sus</w>": 4279,
      "holmes</w>": 4280,
      "forehead</w>": 4281,
      "imagined</w>": 4282,
      "belonged</w>": 4283,
      "lun": 4284,
      "tomorrow</w>": 4285,
      "amb": 4286,
      "fairly</w>": 4287,
      "cup</w>": 4288,
      "mate</w>": 4289,
      "information</w>": 4290,
      "itor</w>": 4291,
      "alter": 4292,
      "ounce</w>": 4293,
      "herd</w>": 4294,
      "principal</w>": 4295,
      "pru": 4296,
      "hid</w>": 4297,
      "absur": 4298,
      "wick</w>": 4299,
      "persi": 4300,
      "desires</w>": 4301,
      "foul</w>": 4302,
      "ridi": 4303,
      "creatures</w>": 4304,
      "magnific": 4305,
      "fare</w>": 4306,
      "hector</w>": 4307,
      "shows</w>": 4308,
      "fourth</w>": 4309,
      "danglars</w>": 4310,
      "astonished</w>": 4311,
      "dwel": 4312,
      "doc": 4313,
      "provo": 4314,
      "ssy</w>": 4315,
      "breaking</w>": 4316,
      "sport</w>": 4317,
      "chest</w>": 4318,
      "woke</w>": 4319,
      "consideration</w>": 4320,
      "leg</w>": 4321,
      "sher": 4322,
      "shine</w>": 4323,
      "anima": 4324,
      "mount</w>": 4325,
      "animal</w>": 4326,
      "cele": 4327,
      "tear</w>": 4328,
      "stick</w>": 4329,
      "develop": 4330,
      "singing</w>": 4331,
      "gazing</w>": 4332,
      "endure</w>": 4333,
      "celebr": 4334,
      "isa": 4335,
      "sail": 4336,
      "absor": 4337,
      "gets</w>": 4338,
      "smell</w>": 4339,
      "temper</w>": 4340,
      "approaching</w>": 4341,
      "individual</w>": 4342,
      "conceal</w>": 4343,
      "jack</w>": 4344,
      "lover</w>": 4345,
      "promp": 4346,
      "gracious</w>": 4347,
      "favour": 4348,
      "commanded</w>": 4349,
      "ised</w>": 4350,
      "hole</w>": 4351,
      "fellows</w>": 4352,
      "keeper</w>": 4353,
      "sacrifice</w>": 4354,
      "dignity</w>": 4355,
      "hell</w>": 4356,
      "rare</w>": 4357,
      "applied</w>": 4358,
      "assistance</w>": 4359,
      "confusion</w>": 4360,
      "concealed</w>": 4361,
      "alities</w>": 4362,
      "dir": 4363,
      "stupid</w>": 4364,
      "admiration</w>": 4365,
      "ald</w>": 4366,
      "mber": 4367,
      "contro": 4368,
      "clouds</w>": 4369,
      "credit</w>": 4370,
      "sisters</w>": 4371,
      "final</w>": 4372,
      "exercise</w>": 4373,
      "ami": 4374,
      "attered</w>": 4375,
      "lowing</w>": 4376,
      "jac": 4377,
      "trench</w>": 4378,
      "hat": 4379,
      "dozen</w>": 4380,
      "agree</w>": 4381,
      "loose</w>": 4382,
      "invited</w>": 4383,
      "flight</w>": 4384,
      "irish</w>": 4385,
      "composed</w>": 4386,
      "mbly</w>": 4387,
      "disposition</w>": 4388,
      "purcha": 4389,
      "careful</w>": 4390,
      "bitter": 4391,
      "concluded</w>": 4392,
      "enormous</w>": 4393,
      "bour": 4394,
      "date</w>": 4395,
      "dges</w>": 4396,
      "lim": 4397,
      "quit</w>": 4398,
      "hang</w>": 4399,
      "entire</w>": 4400,
      "throwing</w>": 4401,
      "egy": 4402,
      "bottle</w>": 4403,
      "eous</w>": 4404,
      "remo": 4405,
      "tow": 4406,
      "storm</w>": 4407,
      "enemies</w>": 4408,
      "fortunes</w>": 4409,
      "tele": 4410,
      "fea": 4411,
      "thly</w>": 4412,
      "retreat</w>": 4413,
      "locked</w>": 4414,
      "earli": 4415,
      "itive</w>": 4416,
      "remarked</w>": 4417,
      "resolution</w>": 4418,
      "lo</w>": 4419,
      "embar": 4420,
      "dreams</w>": 4421,
      "science</w>": 4422,
      "mad": 4423,
      "forts</w>": 4424,
      "mes": 4425,
      "learning</w>": 4426,
      "questi": 4427,
      "religion</w>": 4428,
      "desperate</w>": 4429,
      "zy</w>": 4430,
      "head": 4431,
      "tel</w>": 4432,
      "stayed</w>": 4433,
      "darling</w>": 4434,
      "murder": 4435,
      "pursued</w>": 4436,
      "bles</w>": 4437,
      "da</w>": 4438,
      "ling": 4439,
      "lets</w>": 4440,
      "fancied</w>": 4441,
      "eth</w>": 4442,
      "national</w>": 4443,
      "tedly</w>": 4444,
      "explan": 4445,
      "skin</w>": 4446,
      "birth</w>": 4447,
      "built</w>": 4448,
      "pene": 4449,
      "heavi": 4450,
      "belief</w>": 4451,
      "continue</w>": 4452,
      "eating</w>": 4453,
      "lid</w>": 4454,
      "secure</w>": 4455,
      "depri": 4456,
      "rough": 4457,
      "thern</w>": 4458,
      "stol</w>": 4459,
      "spake</w>": 4460,
      "edi": 4461,
      "sher</w>": 4462,
      "rock</w>": 4463,
      "pole</w>": 4464,
      "attenti": 4465,
      "estate</w>": 4466,
      "neighbor": 4467,
      "mingled</w>": 4468,
      "tant</w>": 4469,
      "infer": 4470,
      "mutual</w>": 4471,
      "handed</w>": 4472,
      "chosen</w>": 4473,
      "increased</w>": 4474,
      "recor": 4475,
      "althy</w>": 4476,
      "venge": 4477,
      "weather</w>": 4478,
      "rat": 4479,
      "zov</w>": 4480,
      "habit": 4481,
      "human": 4482,
      "heat</w>": 4483,
      "cloud</w>": 4484,
      "kins</w>": 4485,
      "cerem": 4486,
      "connected</w>": 4487,
      "gest": 4488,
      "represent": 4489,
      "serge": 4490,
      "consciousness</w>": 4491,
      "fearful</w>": 4492,
      "departure</w>": 4493,
      "abu": 4494,
      "glou": 4495,
      "tès</w>": 4496,
      "stage</w>": 4497,
      "waters</w>": 4498,
      "dantès</w>": 4499,
      "efforts</w>": 4500,
      "practice</w>": 4501,
      "amount</w>": 4502,
      "thr": 4503,
      "request</w>": 4504,
      "deed</w>": 4505,
      "dear": 4506,
      "poet</w>": 4507,
      "gay</w>": 4508,
      "harry</w>": 4509,
      "strongly</w>": 4510,
      "jol": 4511,
      "beast</w>": 4512,
      "fic</w>": 4513,
      "muttered</w>": 4514,
      "possibility</w>": 4515,
      "clever</w>": 4516,
      "connection</w>": 4517,
      "cool</w>": 4518,
      "guardian</w>": 4519,
      "regret</w>": 4520,
      "useful</w>": 4521,
      "cec": 4522,
      "dging</w>": 4523,
      "fts</w>": 4524,
      "arose</w>": 4525,
      "withstanding</w>": 4526,
      "brain</w>": 4527,
      "porthos</w>": 4528,
      "character": 4529,
      "assumed</w>": 4530,
      "patient</w>": 4531,
      "apprehen": 4532,
      "notwithstanding</w>": 4533,
      "penetr": 4534,
      "bon</w>": 4535,
      "che</w>": 4536,
      "revol": 4537,
      "bodies</w>": 4538,
      "stepped</w>": 4539,
      "ditions</w>": 4540,
      "suffici": 4541,
      "apart</w>": 4542,
      "fren": 4543,
      "wester": 4544,
      "buck": 4545,
      "fee": 4546,
      "brothers</w>": 4547,
      "disposed</w>": 4548,
      "match</w>": 4549,
      "colour</w>": 4550,
      "western</w>": 4551,
      "ass</w>": 4552,
      "angel</w>": 4553,
      "pains</w>": 4554,
      "somewhere</w>": 4555,
      "eyed</w>": 4556,
      "demand</w>": 4557,
      "longing</w>": 4558,
      "receiving</w>": 4559,
      "overcome</w>": 4560,
      "glea": 4561,
      "thé": 4562,
      "cursed</w>": 4563,
      "defend</w>": 4564,
      "stronger</w>": 4565,
      "yon": 4566,
      "passion": 4567,
      "murmured</w>": 4568,
      "infan": 4569,
      "reserve</w>": 4570,
      "whither</w>": 4571,
      "mari": 4572,
      "smal": 4573,
      "rapid</w>": 4574,
      "kingdom</w>": 4575,
      "drank</w>": 4576,
      "ko": 4577,
      "snat": 4578,
      "cover</w>": 4579,
      "camp</w>": 4580,
      "fame</w>": 4581,
      "capital</w>": 4582,
      "flat</w>": 4583,
      "shortly</w>": 4584,
      "favourite</w>": 4585,
      "somebody</w>": 4586,
      "clown</w>": 4587,
      "deeds</w>": 4588,
      "misfortune</w>": 4589,
      "antony</w>": 4590,
      "yev": 4591,
      "ant": 4592,
      "lip</w>": 4593,
      "teous</w>": 4594,
      "lately</w>": 4595,
      "studied</w>": 4596,
      "achil": 4597,
      "today</w>": 4598,
      "honourable</w>": 4599,
      "alexandrovitch</w>": 4600,
      "achilles</w>": 4601,
      "alice</w>": 4602,
      "cher": 4603,
      "widow</w>": 4604,
      "presu": 4605,
      "addressing</w>": 4606,
      "holds</w>": 4607,
      "immediate</w>": 4608,
      "views</w>": 4609,
      "cat</w>": 4610,
      "infinite</w>": 4611,
      "orts</w>": 4612,
      "dogs</w>": 4613,
      "managed</w>": 4614,
      "objects</w>": 4615,
      "venture</w>": 4616,
      "commander</w>": 4617,
      "tells</w>": 4618,
      "wooden</w>": 4619,
      "contempt</w>": 4620,
      "lofty</w>": 4621,
      "athu": 4622,
      "safe": 4623,
      "stra</w>": 4624,
      "burg</w>": 4625,
      "slipped</w>": 4626,
      "mountain</w>": 4627,
      "argument</w>": 4628,
      "zarathu": 4629,
      "sufficiently</w>": 4630,
      "zarathustra</w>": 4631,
      "ances</w>": 4632,
      "poo": 4633,
      "guess</w>": 4634,
      "aught</w>": 4635,
      "price</w>": 4636,
      "created</w>": 4637,
      "throat</w>": 4638,
      "petty</w>": 4639,
      "europe": 4640,
      "revolu": 4641,
      "sold</w>": 4642,
      "council</w>": 4643,
      "reflected</w>": 4644,
      "dings</w>": 4645,
      "esar</w>": 4646,
      "caesar</w>": 4647,
      "dam": 4648,
      "plenty</w>": 4649,
      "shep": 4650,
      "height</w>": 4651,
      "but": 4652,
      "earnest</w>": 4653,
      "pressing</w>": 4654,
      "lux": 4655,
      "painted</w>": 4656,
      "cardin": 4657,
      "distinc": 4658,
      "meanwhile</w>": 4659,
      "drinking</w>": 4660,
      "hast": 4661,
      "roman": 4662,
      "marga": 4663,
      "deliver</w>": 4664,
      "visited</w>": 4665,
      "insisted</w>": 4666,
      "margaret</w>": 4667,
      "fears</w>": 4668,
      "sounded</w>": 4669,
      "wet</w>": 4670,
      "members</w>": 4671,
      "exquisite</w>": 4672,
      "elia</w>": 4673,
      "diana</w>": 4674,
      "hollow</w>": 4675,
      "circumstance</w>": 4676,
      "rec": 4677,
      "quitted</w>": 4678,
      "scho": 4679,
      "gy": 4680,
      "shadows</w>": 4681,
      "obst": 4682,
      "embrace</w>": 4683,
      "comprehen": 4684,
      "eves</w>": 4685,
      "metery</w>": 4686,
      "cemetery</w>": 4687,
      "impul": 4688,
      "jection</w>": 4689,
      "repeat</w>": 4690,
      "brutus</w>": 4691,
      "contented</w>": 4692,
      "bag": 4693,
      "radi": 4694,
      "unexpected</w>": 4695,
      "found": 4696,
      "accident</w>": 4697,
      "stir</w>": 4698,
      "stily</w>": 4699,
      "stem</w>": 4700,
      "phen</w>": 4701,
      "hin</w>": 4702,
      "obsc": 4703,
      "wondered</w>": 4704,
      "strode</w>": 4705,
      "leaned</w>": 4706,
      "destroy</w>": 4707,
      "pounds</w>": 4708,
      "allu": 4709,
      "supre": 4710,
      "mac": 4711,
      "progress</w>": 4712,
      "vision</w>": 4713,
      "aches</w>": 4714,
      "examined</w>": 4715,
      "mystery</w>": 4716,
      "kil": 4717,
      "elo": 4718,
      "liar": 4719,
      "literary</w>": 4720,
      "struggle</w>": 4721,
      "descended</w>": 4722,
      "emotion</w>": 4723,
      "erina</w>": 4724,
      "require</w>": 4725,
      "christ</w>": 4726,
      "katerina</w>": 4727,
      "confir": 4728,
      "emed</w>": 4729,
      "disagre": 4730,
      "madam</w>": 4731,
      "guide</w>": 4732,
      "swift</w>": 4733,
      "odd</w>": 4734,
      "sleeping</w>": 4735,
      "fter</w>": 4736,
      "lively</w>": 4737,
      "lace</w>": 4738,
      "acious</w>": 4739,
      "morrel</w>": 4740,
      "prevented</w>": 4741,
      "staring</w>": 4742,
      "thereby</w>": 4743,
      "ghost</w>": 4744,
      "owe</w>": 4745,
      "anno": 4746,
      "performed</w>": 4747,
      "begins</w>": 4748,
      "ignorance</w>": 4749,
      "through": 4750,
      "losing</w>": 4751,
      "attribu": 4752,
      "commonly</w>": 4753,
      "governor</w>": 4754,
      "quarrel</w>": 4755,
      "yiel": 4756,
      "throughout</w>": 4757,
      "mun": 4758,
      "rate</w>": 4759,
      "eral</w>": 4760,
      "qualities</w>": 4761,
      "pav": 4762,
      "sins</w>": 4763,
      "concern</w>": 4764,
      "concerned</w>": 4765,
      "disturbed</w>": 4766,
      "kerchief</w>": 4767,
      "cis</w>": 4768,
      "non": 4769,
      "titude</w>": 4770,
      "wings</w>": 4771,
      "reasonable</w>": 4772,
      "francis</w>": 4773,
      "slightly</w>": 4774,
      "slightest</w>": 4775,
      "punishment</w>": 4776,
      "vague</w>": 4777,
      "suspected</w>": 4778,
      "discourse</w>": 4779,
      "leon": 4780,
      "knocked</w>": 4781,
      "clam": 4782,
      "valry</w>": 4783,
      "remark</w>": 4784,
      "softly</w>": 4785,
      "poetry</w>": 4786,
      "heavenly</w>": 4787,
      "cy": 4788,
      "antly</w>": 4789,
      "stones</w>": 4790,
      "counsel</w>": 4791,
      "stephen</w>": 4792,
      "benefit</w>": 4793,
      "gallo": 4794,
      "related</w>": 4795,
      "properly</w>": 4796,
      "persuaded</w>": 4797,
      "pronounced</w>": 4798,
      "astonishment</w>": 4799,
      "alas</w>": 4800,
      "quality</w>": 4801,
      "subsequ": 4802,
      "remaining</w>": 4803,
      "hatred</w>": 4804,
      "thénar": 4805,
      "kin</w>": 4806,
      "poured</w>": 4807,
      "features</w>": 4808,
      "paused</w>": 4809,
      "keeps</w>": 4810,
      "medical</w>": 4811,
      "settle</w>": 4812,
      "heavens</w>": 4813,
      "vengeance</w>": 4814,
      "arch": 4815,
      "arts</w>": 4816,
      "alo": 4817,
      "cade</w>": 4818,
      "obtain</w>": 4819,
      "grav": 4820,
      "finds</w>": 4821,
      "torn</w>": 4822,
      "brief</w>": 4823,
      "expecting</w>": 4824,
      "catherine</w>": 4825,
      "striking</w>": 4826,
      "weap": 4827,
      "conclusion</w>": 4828,
      "university</w>": 4829,
      "european</w>": 4830,
      "thless</w>": 4831,
      "dish": 4832,
      "earne": 4833,
      "press</w>": 4834,
      "gue": 4835,
      "cold": 4836,
      "indepen": 4837,
      "cardinal</w>": 4838,
      "fit": 4839,
      "gation</w>": 4840,
      "represented</w>": 4841,
      "labor": 4842,
      "mps</w>": 4843,
      "shade</w>": 4844,
      "folded</w>": 4845,
      "finish</w>": 4846,
      "culous</w>": 4847,
      "soverei": 4848,
      "triumph</w>": 4849,
      "mn": 4850,
      "vex": 4851,
      "cases</w>": 4852,
      "brow</w>": 4853,
      "weep</w>": 4854,
      "discovery</w>": 4855,
      "valuable</w>": 4856,
      "du</w>": 4857,
      "ege</w>": 4858,
      "epi": 4859,
      "vi</w>": 4860,
      "hastily</w>": 4861,
      "lack</w>": 4862,
      "eving</w>": 4863,
      "abroad</w>": 4864,
      "silk</w>": 4865,
      "facts</w>": 4866,
      "fulness</w>": 4867,
      "whel": 4868,
      "perform": 4869,
      "vile</w>": 4870,
      "pause</w>": 4871,
      "passions</w>": 4872,
      "ddle</w>": 4873,
      "genius</w>": 4874,
      "gloucester</w>": 4875,
      "cassi": 4876,
      "nights</w>": 4877,
      "sentim": 4878,
      "senses</w>": 4879,
      "skill</w>": 4880,
      "arrang": 4881,
      "aven": 4882,
      "cts</w>": 4883,
      "iny</w>": 4884,
      "coy</w>": 4885,
      "tending</w>": 4886,
      "bar</w>": 4887,
      "keth</w>": 4888,
      "successful</w>": 4889,
      "yst</w>": 4890,
      "italian</w>": 4891,
      "lions</w>": 4892,
      "lad</w>": 4893,
      "mar</w>": 4894,
      "acting</w>": 4895,
      "contained</w>": 4896,
      "folly</w>": 4897,
      "contri": 4898,
      "tiny</w>": 4899,
      "source</w>": 4900,
      "characteri": 4901,
      "reality</w>": 4902,
      "voy": 4903,
      "charm</w>": 4904,
      "recalled</w>": 4905,
      "tenant</w>": 4906,
      "deliber": 4907,
      "hurry</w>": 4908,
      "boots</w>": 4909,
      "consequently</w>": 4910,
      "nervous</w>": 4911,
      "distinct</w>": 4912,
      "using</w>": 4913,
      "reve": 4914,
      "shell</w>": 4915,
      "parted</w>": 4916,
      "duties</w>": 4917,
      "citizen</w>": 4918,
      "woul": 4919,
      "hated</w>": 4920,
      "acknowle": 4921,
      "distress</w>": 4922,
      "falls</w>": 4923,
      "occasi": 4924,
      "considering</w>": 4925,
      "wearing</w>": 4926,
      "regiment</w>": 4927,
      "dless</w>": 4928,
      "hither</w>": 4929,
      "ato": 4930,
      "besee": 4931,
      "details</w>": 4932,
      "intelligence</w>": 4933,
      "ava": 4934,
      "tness</w>": 4935,
      "alle": 4936,
      "training</w>": 4937,
      "lands</w>": 4938,
      "frame</w>": 4939,
      "sentence</w>": 4940,
      "intimate</w>": 4941,
      "itors</w>": 4942,
      "wishing</w>": 4943,
      "mination</w>": 4944,
      "phra": 4945,
      "fits</w>": 4946,
      "ri</w>": 4947,
      "sman</w>": 4948,
      "ón": 4949,
      "ority</w>": 4950,
      "sov</w>": 4951,
      "casau": 4952,
      "chant</w>": 4953,
      "marks</w>": 4954,
      "transferred</w>": 4955,
      "whatsoever</w>": 4956,
      "divided</w>": 4957,
      "casaubon</w>": 4958,
      "floo": 4959,
      "gates</w>": 4960,
      "matic</w>": 4961,
      "pen</w>": 4962,
      "sp</w>": 4963,
      "geous</w>": 4964,
      "minded</w>": 4965,
      "franz</w>": 4966,
      "thither</w>": 4967,
      "deceived</w>": 4968,
      "tenderness</w>": 4969,
      "pistol</w>": 4970,
      "edingly</w>": 4971,
      "exceedingly</w>": 4972,
      "magnificent</w>": 4973,
      "relea": 4974,
      "chess</w>": 4975,
      "attd</w>": 4976,
      "surre": 4977,
      "overwhel": 4978,
      "gratitude</w>": 4979,
      "energy</w>": 4980,
      "coldstream</w>": 4981,
      "aim</w>": 4982,
      "gin</w>": 4983,
      "west": 4984,
      "inor</w>": 4985,
      "elinor</w>": 4986,
      "versal</w>": 4987,
      "lucky</w>": 4988,
      "universal</w>": 4989,
      "frequent</w>": 4990,
      "ivanovitch</w>": 4991,
      "savage</w>": 4992,
      "useless</w>": 4993,
      "bes</w>": 4994,
      "rush</w>": 4995,
      "firmly</w>": 4996,
      "victory</w>": 4997,
      "attracted</w>": 4998,
      "performance</w>": 4999,
      "jen": 5000,
      "hide": 5001,
      "female</w>": 5002,
      "illness</w>": 5003,
      "absorbed</w>": 5004,
      "ingham</w>": 5005,
      "eel</w>": 5006,
      "correspon": 5007,
      "causes</w>": 5008,
      "reflection</w>": 5009,
      "dingly</w>": 5010,
      "za</w>": 5011,
      "pretended</w>": 5012,
      "prospect</w>": 5013,
      "reported</w>": 5014,
      "belong</w>": 5015,
      "peasan": 5016,
      "labour</w>": 5017,
      "farewell</w>": 5018,
      "tr</w>": 5019,
      "stol": 5020,
      "eafter</w>": 5021,
      "gift</w>": 5022,
      "ranks</w>": 5023,
      "naked</w>": 5024,
      "writer</w>": 5025,
      "fruit</w>": 5026,
      "bat": 5027,
      "jon": 5028,
      "piti": 5029,
      "port</w>": 5030,
      "sburg</w>": 5031,
      "well": 5032,
      "roof</w>": 5033,
      "susta": 5034,
      "forming</w>": 5035,
      "sphere</w>": 5036,
      "rupt</w>": 5037,
      "woe</w>": 5038,
      "genu": 5039,
      "eton</w>": 5040,
      "whereas</w>": 5041,
      "middle": 5042,
      "glancing</w>": 5043,
      "eagerly</w>": 5044,
      "mischi": 5045,
      "ky</w>": 5046,
      "kled</w>": 5047,
      "tish</w>": 5048,
      "ington</w>": 5049,
      "lords</w>": 5050,
      "mistaken</w>": 5051,
      "arkadyev": 5052,
      "ze": 5053,
      "itely</w>": 5054,
      "bucket</w>": 5055,
      "extended</w>": 5056,
      "survi": 5057,
      "mented</w>": 5058,
      "opinions</w>": 5059,
      "cheek</w>": 5060,
      "confused</w>": 5061,
      "py</w>": 5062,
      "iture</w>": 5063,
      "ello</w>": 5064,
      "jar": 5065,
      "union</w>": 5066,
      "exter": 5067,
      "waste</w>": 5068,
      "afford</w>": 5069,
      "flame</w>": 5070,
      "separate</w>": 5071,
      "coach</w>": 5072,
      "constantly</w>": 5073,
      "material</w>": 5074,
      "wanting</w>": 5075,
      "facul": 5076,
      "system</w>": 5077,
      "prayer</w>": 5078,
      "level</w>": 5079,
      "custom</w>": 5080,
      "physical</w>": 5081,
      "ud</w>": 5082,
      "shone</w>": 5083,
      "exhi": 5084,
      "fastened</w>": 5085,
      "day": 5086,
      "trial</w>": 5087,
      "principle</w>": 5088,
      "precisely</w>": 5089,
      "group</w>": 5090,
      "air": 5091,
      "apt</w>": 5092,
      "eleven</w>": 5093,
      "letting</w>": 5094,
      "forces</w>": 5095,
      "prosper": 5096,
      "attitude</w>": 5097,
      "troy</w>": 5098,
      "everywhere</w>": 5099,
      "bears</w>": 5100,
      "literature</w>": 5101,
      "thénardier</w>": 5102,
      "ideal</w>": 5103,
      "tible</w>": 5104,
      "upstairs</w>": 5105,
      "clock</w>": 5106,
      "spectac": 5107,
      "valiant</w>": 5108,
      "wedding</w>": 5109,
      "abandoned</w>": 5110,
      "aram": 5111,
      "beating</w>": 5112,
      "united</w>": 5113,
      "asser": 5114,
      "monster</w>": 5115,
      "shir": 5116,
      "solation</w>": 5117,
      "whereof</w>": 5118,
      "describe</w>": 5119,
      "eleg": 5120,
      "persuade</w>": 5121,
      "numerous</w>": 5122,
      "badly</w>": 5123,
      "amiable</w>": 5124,
      "aramis</w>": 5125,
      "adi": 5126,
      "fted</w>": 5127,
      "pare</w>": 5128,
      "thew</w>": 5129,
      "prepare</w>": 5130,
      "part": 5131,
      "scru": 5132,
      "presents</w>": 5133,
      "closely</w>": 5134,
      "matthew</w>": 5135,
      "conducted</w>": 5136,
      "gn</w>": 5137,
      "stard</w>": 5138,
      "lights</w>": 5139,
      "camp": 5140,
      "cable</w>": 5141,
      "tersburg</w>": 5142,
      "petersburg</w>": 5143,
      "speaks</w>": 5144,
      "occasion": 5145,
      "possess</w>": 5146,
      "wept</w>": 5147,
      "violence</w>": 5148,
      "effects</w>": 5149,
      "occasionally</w>": 5150,
      "dmit": 5151,
      "kly</w>": 5152,
      "stling</w>": 5153,
      "urged</w>": 5154,
      "via</w>": 5155,
      "skir": 5156,
      "driving</w>": 5157,
      "australian</w>": 5158,
      "condemned</w>": 5159,
      "explanation</w>": 5160,
      "cus</w>": 5161,
      "inev": 5162,
      "haun": 5163,
      "arch</w>": 5164,
      "uneasy</w>": 5165,
      "abb": 5166,
      "extent</w>": 5167,
      "emin": 5168,
      "awake</w>": 5169,
      "hastened</w>": 5170,
      "sigh</w>": 5171,
      "ext</w>": 5172,
      "wai": 5173,
      "waves</w>": 5174,
      "changing</w>": 5175,
      "handkerchief</w>": 5176,
      "victor": 5177,
      "you": 5178,
      "inward</w>": 5179,
      "tern</w>": 5180,
      "manu": 5181,
      "happily</w>": 5182,
      "recognize</w>": 5183,
      "lessly</w>": 5184,
      "dded</w>": 5185,
      "kut": 5186,
      "úzov</w>": 5187,
      "alarmed</w>": 5188,
      "acquired</w>": 5189,
      "seriously</w>": 5190,
      "curate</w>": 5191,
      "spiritual</w>": 5192,
      "weeping</w>": 5193,
      "intellec": 5194,
      "kutúzov</w>": 5195,
      "oon</w>": 5196,
      "pha": 5197,
      "tial</w>": 5198,
      "sages</w>": 5199,
      "duchess</w>": 5200,
      "services</w>": 5201,
      "luck</w>": 5202,
      "sented</w>": 5203,
      "stories</w>": 5204,
      "brings</w>": 5205,
      "freely</w>": 5206,
      "sands</w>": 5207,
      "tton</w>": 5208,
      "sunday</w>": 5209,
      "slo": 5210,
      "sement</w>": 5211,
      "rail": 5212,
      "furious</w>": 5213,
      "gade</w>": 5214,
      "compas": 5215,
      "herbert</w>": 5216,
      "fication</w>": 5217,
      "thanked</w>": 5218,
      "description</w>": 5219,
      "season</w>": 5220,
      "appreci": 5221,
      "conceive</w>": 5222,
      "embraced</w>": 5223,
      "ivanovna</w>": 5224,
      "infantry</w>": 5225,
      "safety</w>": 5226,
      "boun": 5227,
      "blin": 5228,
      "rings</w>": 5229,
      "rene": 5230,
      "ray</w>": 5231,
      "cab": 5232,
      "travell": 5233,
      "intend</w>": 5234,
      "start": 5235,
      "quarters</w>": 5236,
      "attacked</w>": 5237,
      "acts</w>": 5238,
      "sang</w>": 5239,
      "idle</w>": 5240,
      "accordingly</w>": 5241,
      "blows</w>": 5242,
      "roar": 5243,
      "silly</w>": 5244,
      "mio</w>": 5245,
      "cur</w>": 5246,
      "guards</w>": 5247,
      "mountains</w>": 5248,
      "displea": 5249,
      "sofa</w>": 5250,
      "medit": 5251,
      "beseech</w>": 5252,
      "bones</w>": 5253,
      "esc": 5254,
      "noi": 5255,
      "limbs</w>": 5256,
      "risk</w>": 5257,
      "sured</w>": 5258,
      "lasting</w>": 5259,
      "whir": 5260,
      "wake</w>": 5261,
      "sels</w>": 5262,
      "shock</w>": 5263,
      "solitary</w>": 5264,
      "avoi": 5265,
      "brooke</w>": 5266,
      "method</w>": 5267,
      "arkadyevitch</w>": 5268,
      "ken": 5269,
      "provin": 5270,
      "advanta": 5271,
      "wondering</w>": 5272,
      "belonging</w>": 5273,
      "deserted</w>": 5274,
      "zes</w>": 5275,
      "enth</w>": 5276,
      "mage</w>": 5277,
      "need": 5278,
      "preserve</w>": 5279,
      "addition</w>": 5280,
      "observing</w>": 5281,
      "happi": 5282,
      "baby</w>": 5283,
      "ign": 5284,
      "knife</w>": 5285,
      "fought</w>": 5286,
      "oli": 5287,
      "inhabit": 5288,
      "elev": 5289,
      "neu": 5290,
      "profession</w>": 5291,
      "soveraign</w>": 5292,
      "destroyed</w>": 5293,
      "treasure</w>": 5294,
      "spanish</w>": 5295,
      "dirty</w>": 5296,
      "dity</w>": 5297,
      "iz": 5298,
      "returns</w>": 5299,
      "orn": 5300,
      "tail</w>": 5301,
      "hum": 5302,
      "candi": 5303,
      "discer": 5304,
      "scots</w>": 5305,
      "daughters</w>": 5306,
      "delay</w>": 5307,
      "compared</w>": 5308,
      "peasants</w>": 5309,
      "wning</w>": 5310,
      "reward</w>": 5311,
      "witne": 5312,
      "sail</w>": 5313,
      "unity</w>": 5314,
      "guests</w>": 5315,
      "geon</w>": 5316,
      "burn</w>": 5317,
      "declare</w>": 5318,
      "nea": 5319,
      "sby</w>": 5320,
      "lic</w>": 5321,
      "shru": 5322,
      "dome": 5323,
      "chor": 5324,
      "canst</w>": 5325,
      "honours</w>": 5326,
      "institu": 5327,
      "drops</w>": 5328,
      "gallan": 5329,
      "funeral</w>": 5330,
      "machine</w>": 5331,
      "juliet</w>": 5332,
      "jealous</w>": 5333,
      "theatre</w>": 5334,
      "supreme</w>": 5335,
      "gt</w>": 5336,
      "rosal": 5337,
      "dio</w>": 5338,
      "sergt</w>": 5339,
      "chin</w>": 5340,
      "larger</w>": 5341,
      "dearest</w>": 5342,
      "aspect</w>": 5343,
      "cin": 5344,
      "row": 5345,
      "riding</w>": 5346,
      "cot": 5347,
      "solic": 5348,
      "design</w>": 5349,
      "ext": 5350,
      "quant": 5351,
      "manage</w>": 5352,
      "humour</w>": 5353,
      "trembled</w>": 5354,
      "official</w>": 5355,
      "principles</w>": 5356,
      "hills</w>": 5357,
      "dmitri</w>": 5358,
      "fati": 5359,
      "hoo": 5360,
      "trin": 5361,
      "notion</w>": 5362,
      "sect</w>": 5363,
      "domin": 5364,
      "shoes</w>": 5365,
      "merit</w>": 5366,
      "depths</w>": 5367,
      "announced</w>": 5368,
      "sensation</w>": 5369,
      "queer</w>": 5370,
      "tally</w>": 5371,
      "inher": 5372,
      "ridge</w>": 5373,
      "saf": 5374,
      "sick": 5375,
      "coff": 5376,
      "deserve</w>": 5377,
      "contradi": 5378,
      "sighed</w>": 5379,
      "oud</w>": 5380,
      "outw": 5381,
      "aloud</w>": 5382,
      "ride</w>": 5383,
      "defi": 5384,
      "figu": 5385,
      "breathing</w>": 5386,
      "slaves</w>": 5387,
      "wretch</w>": 5388,
      "suspect</w>": 5389,
      "division</w>": 5390,
      "apartment</w>": 5391,
      "hideous</w>": 5392,
      "figures</w>": 5393,
      "ug": 5394,
      "ye": 5395,
      "series</w>": 5396,
      "pipe</w>": 5397,
      "stuck</w>": 5398,
      "discre": 5399,
      "practical</w>": 5400,
      "indifferent</w>": 5401,
      "farm</w>": 5402,
      "hers</w>": 5403,
      "never": 5404,
      "tar": 5405,
      "perpe": 5406,
      "shal": 5407,
      "pull</w>": 5408,
      "surface</w>": 5409,
      "temple</w>": 5410,
      "prayers</w>": 5411,
      "affection": 5412,
      "disagreeable</w>": 5413,
      "destruction</w>": 5414,
      "achi": 5415,
      "relieved</w>": 5416,
      "bending</w>": 5417,
      "message</w>": 5418,
      "lend</w>": 5419,
      "onely</w>": 5420,
      "dim</w>": 5421,
      "dible</w>": 5422,
      "negr": 5423,
      "prejudi": 5424,
      "prize</w>": 5425,
      "trace</w>": 5426,
      "aries</w>": 5427,
      "favor": 5428,
      "adventures</w>": 5429,
      "negro</w>": 5430,
      "invol": 5431,
      "presi": 5432,
      "pace</w>": 5433,
      "tempor": 5434,
      "enjoyment</w>": 5435,
      "building</w>": 5436,
      "issue</w>": 5437,
      "adjutant</w>": 5438,
      "alarm</w>": 5439,
      "dio": 5440,
      "containing</w>": 5441,
      "exposed</w>": 5442,
      "earthly</w>": 5443,
      "chain</w>": 5444,
      "portra": 5445,
      "numbers</w>": 5446,
      "companions</w>": 5447,
      "resul": 5448,
      "lawyer</w>": 5449,
      "execution</w>": 5450,
      "leicester</w>": 5451,
      "dine</w>": 5452,
      "fying</w>": 5453,
      "hon</w>": 5454,
      "pless</w>": 5455,
      "angu": 5456,
      "sers</w>": 5457,
      "pick</w>": 5458,
      "contents</w>": 5459,
      "crossing</w>": 5460,
      "satisfy</w>": 5461,
      "defence</w>": 5462,
      "flower</w>": 5463,
      "established</w>": 5464,
      "embarra": 5465,
      "glit": 5466,
      "ratt": 5467,
      "smar": 5468,
      "envel": 5469,
      "hotel</w>": 5470,
      "wick": 5471,
      "friar</w>": 5472,
      "fortunately</w>": 5473,
      "article</w>": 5474,
      "musical</w>": 5475,
      "absurd</w>": 5476,
      "nearest</w>": 5477,
      "envelop": 5478,
      "fever</w>": 5479,
      "conditions</w>": 5480,
      "micha": 5481,
      "gram": 5482,
      "sending</w>": 5483,
      "dragged</w>": 5484,
      "reckon</w>": 5485,
      "maintain</w>": 5486,
      "conceived</w>": 5487,
      "cunning</w>": 5488,
      "christmas</w>": 5489,
      "alty</w>": 5490,
      "mping</w>": 5491,
      "landing</w>": 5492,
      "poses</w>": 5493,
      "interpre": 5494,
      "rolling</w>": 5495,
      "positively</w>": 5496,
      "heartily</w>": 5497,
      "rease</w>": 5498,
      "graceful</w>": 5499,
      "strate</w>": 5500,
      "tine</w>": 5501,
      "testi": 5502,
      "stered</w>": 5503,
      "fatho": 5504,
      "stile</w>": 5505,
      "lonely</w>": 5506,
      "curse</w>": 5507,
      "germans</w>": 5508,
      "intense</w>": 5509,
      "school": 5510,
      "kinds</w>": 5511,
      "exhausted</w>": 5512,
      "eloqu": 5513,
      "jim</w>": 5514,
      "insu": 5515,
      "elling</w>": 5516,
      "park</w>": 5517,
      "manly</w>": 5518,
      "charged</w>": 5519,
      "arrive</w>": 5520,
      "occasions</w>": 5521,
      "dorothy</w>": 5522,
      "prisoners</w>": 5523,
      "allworthy</w>": 5524,
      "furnished</w>": 5525,
      "pool</w>": 5526,
      "inform</w>": 5527,
      "roll</w>": 5528,
      "permitted</w>": 5529,
      "chal": 5530,
      "brows</w>": 5531,
      "plans</w>": 5532,
      "flan": 5533,
      "vet</w>": 5534,
      "dawn</w>": 5535,
      "engagement</w>": 5536,
      "conviction</w>": 5537,
      "feeble</w>": 5538,
      "neverth": 5539,
      "ads</w>": 5540,
      "jer": 5541,
      "kent</w>": 5542,
      "lamp</w>": 5543,
      "wherever</w>": 5544,
      "animals</w>": 5545,
      "grandfather</w>": 5546,
      "xing</w>": 5547,
      "inner</w>": 5548,
      "thetic</w>": 5549,
      "nel</w>": 5550,
      "wash</w>": 5551,
      "quires</w>": 5552,
      "interests</w>": 5553,
      "crimin": 5554,
      "admired</w>": 5555,
      "pour</w>": 5556,
      "rice</w>": 5557,
      "madness</w>": 5558,
      "india</w>": 5559,
      "centre</w>": 5560,
      "endeavoured</w>": 5561,
      "reverend</w>": 5562,
      "domestic</w>": 5563,
      "light": 5564,
      "accompany</w>": 5565,
      "puts</w>": 5566,
      "readily</w>": 5567,
      "eil</w>": 5568,
      "murdered</w>": 5569,
      "opera</w>": 5570,
      "ridiculous</w>": 5571,
      "hend</w>": 5572,
      "pa</w>": 5573,
      "fain</w>": 5574,
      "augu": 5575,
      "offended</w>": 5576,
      "weakness</w>": 5577,
      "depend</w>": 5578,
      "etern": 5579,
      "heavily</w>": 5580,
      "wled</w>": 5581,
      "thunder</w>": 5582,
      "eno": 5583,
      "atory</w>": 5584,
      "bel</w>": 5585,
      "lift</w>": 5586,
      "tar</w>": 5587,
      "common": 5588,
      "plato</w>": 5589,
      "sincer": 5590,
      "supported</w>": 5591,
      "american</w>": 5592,
      "shepherd</w>": 5593,
      "distinctly</w>": 5594,
      "voyage</w>": 5595,
      "iago</w>": 5596,
      "kling</w>": 5597,
      "wri": 5598,
      "inspec": 5599,
      "recall</w>": 5600,
      "quali": 5601,
      "somehow</w>": 5602,
      "merchant</w>": 5603,
      "chose</w>": 5604,
      "obedience</w>": 5605,
      "monstrous</w>": 5606,
      "wouldst</w>": 5607,
      "involun": 5608,
      "ert</w>": 5609,
      "stry</w>": 5610,
      "unusual</w>": 5611,
      "previously</w>": 5612,
      "cloak</w>": 5613,
      "assist</w>": 5614,
      "bulstrode</w>": 5615,
      "innoc": 5616,
      "preceding</w>": 5617,
      "mma</w>": 5618,
      "ints</w>": 5619,
      "señ": 5620,
      "mazar": 5621,
      "cade": 5622,
      "motion": 5623,
      "proble": 5624,
      "gifts</w>": 5625,
      "frightful</w>": 5626,
      "explo": 5627,
      "slip</w>": 5628,
      "virtues</w>": 5629,
      "remembrance</w>": 5630,
      "strangely</w>": 5631,
      "cliff</w>": 5632,
      "dishon": 5633,
      "sovereign</w>": 5634,
      "intellectual</w>": 5635,
      "mazarin</w>": 5636,
      "vest</w>": 5637,
      "oran": 5638,
      "beard</w>": 5639,
      "forbi": 5640,
      "agony</w>": 5641,
      "paying</w>": 5642,
      "champ": 5643,
      "audience</w>": 5644,
      "county</w>": 5645,
      "ckets</w>": 5646,
      "pleasures</w>": 5647,
      "temper": 5648,
      "lieutenant</w>": 5649,
      "attempted</w>": 5650,
      "distinguish</w>": 5651,
      "household</w>": 5652,
      "zeal": 5653,
      "chel": 5654,
      "perple": 5655,
      "hung": 5656,
      "narr": 5657,
      "whisper</w>": 5658,
      "europe</w>": 5659,
      "guns</w>": 5660,
      "zens</w>": 5661,
      "reaching</w>": 5662,
      "ental</w>": 5663,
      "solid</w>": 5664,
      "kissing</w>": 5665,
      "appointment</w>": 5666,
      "pulling</w>": 5667,
      "separated</w>": 5668,
      "zzled</w>": 5669,
      "murderer</w>": 5670,
      "niture</w>": 5671,
      "swore</w>": 5672,
      "andre": 5673,
      "rest": 5674,
      "reduced</w>": 5675,
      "affli": 5676,
      "lanca": 5677,
      "silently</w>": 5678,
      "burden</w>": 5679,
      "feels</w>": 5680,
      "furniture</w>": 5681,
      "increase</w>": 5682,
      "resist</w>": 5683,
      "accomplished</w>": 5684,
      "shallow</w>": 5685,
      "vill</w>": 5686,
      "stam": 5687,
      "post": 5688,
      "mixed</w>": 5689,
      "serves</w>": 5690,
      "lored</w>": 5691,
      "club</w>": 5692,
      "offence</w>": 5693,
      "protection</w>": 5694,
      "smooth</w>": 5695,
      "li</w>": 5696,
      "loy": 5697,
      "ruined</w>": 5698,
      "ingen": 5699,
      "wilkins</w>": 5700,
      "pursue</w>": 5701,
      "century</w>": 5702,
      "wrapped</w>": 5703,
      "observation</w>": 5704,
      "inhabitants</w>": 5705,
      "arou": 5706,
      "rosa": 5707,
      "unjust</w>": 5708,
      "motions</w>": 5709,
      "bows</w>": 5710,
      "older</w>": 5711,
      "princes</w>": 5712,
      "wood": 5713,
      "departed</w>": 5714,
      "adop": 5715,
      "rosamond</w>": 5716,
      "cran": 5717,
      "pyo": 5718,
      "slu": 5719,
      "list</w>": 5720,
      "dick</w>": 5721,
      "nephe": 5722,
      "asm</w>": 5723,
      "derly</w>": 5724,
      "seren": 5725,
      "warrant</w>": 5726,
      "sign": 5727,
      "frank</w>": 5728,
      "pretend</w>": 5729,
      "summon": 5730,
      "movements</w>": 5731,
      "pyotr</w>": 5732,
      "flou": 5733,
      "sar": 5734,
      "inquire</w>": 5735,
      "lovers</w>": 5736,
      "pover": 5737,
      "consul": 5738,
      "ecst": 5739,
      "cement</w>": 5740,
      "irrit": 5741,
      "feed</w>": 5742,
      "happens</w>": 5743,
      "instance</w>": 5744,
      "medic": 5745,
      "leness</w>": 5746,
      "veil</w>": 5747,
      "weigh": 5748,
      "insul": 5749,
      "congrat": 5750,
      "fil</w>": 5751,
      "fau": 5752,
      "offer": 5753,
      "cand": 5754,
      "bapti": 5755,
      "alike</w>": 5756,
      "strain</w>": 5757,
      "decide</w>": 5758,
      "glimp": 5759,
      "scottish</w>": 5760,
      "plunged</w>": 5761,
      "fyodor</w>": 5762,
      "nations</w>": 5763,
      "oth": 5764,
      "thunder": 5765,
      "diam": 5766,
      "meat</w>": 5767,
      "prosecu": 5768,
      "privil": 5769,
      "crew</w>": 5770,
      "virtuous</w>": 5771,
      "paces</w>": 5772,
      "kingdo": 5773,
      "comrade</w>": 5774,
      "othello</w>": 5775,
      "mson</w>": 5776,
      "ta</w>": 5777,
      "tya</w>": 5778,
      "hoping</w>": 5779,
      "exact</w>": 5780,
      "dain": 5781,
      "affor": 5782,
      "seeming</w>": 5783,
      "disgrace</w>": 5784,
      "capacity</w>": 5785,
      "black": 5786,
      "severely</w>": 5787,
      "particulars</w>": 5788,
      "passionate</w>": 5789,
      "lingly</w>": 5790,
      "revi": 5791,
      "resc": 5792,
      "lish": 5793,
      "unconscious</w>": 5794,
      "hop": 5795,
      "appet": 5796,
      "compelled</w>": 5797,
      "corrup": 5798,
      "brigade</w>": 5799,
      "favourable</w>": 5800,
      "squee": 5801,
      "padre</w>": 5802,
      "by": 5803,
      "aly</w>": 5804,
      "tively</w>": 5805,
      "burned</w>": 5806,
      "seize</w>": 5807,
      "distinction</w>": 5808,
      "ctive</w>": 5809,
      "doo": 5810,
      "fon": 5811,
      "oath</w>": 5812,
      "shre": 5813,
      "motive</w>": 5814,
      "preserved</w>": 5815,
      "civill</w>": 5816,
      "stiff</w>": 5817,
      "tore</w>": 5818,
      "bree": 5819,
      "tivity</w>": 5820,
      "variety</w>": 5821,
      "celebrated</w>": 5822,
      "genuine</w>": 5823,
      "uted</w>": 5824,
      "reminded</w>": 5825,
      "conception</w>": 5826,
      "sping</w>": 5827,
      "tower</w>": 5828,
      "joining</w>": 5829,
      "distrac": 5830,
      "scrip": 5831,
      "straw</w>": 5832,
      "contempl": 5833,
      "inclination</w>": 5834,
      "anticip": 5835,
      "egypt</w>": 5836,
      "cease</w>": 5837,
      "feast</w>": 5838,
      "lor</w>": 5839,
      "ano</w>": 5840,
      "ensive</w>": 5841,
      "rog": 5842,
      "tide</w>": 5843,
      "sable</w>": 5844,
      "atio</w>": 5845,
      "warwick</w>": 5846,
      "deadly</w>": 5847,
      "ventured</w>": 5848,
      "trine</w>": 5849,
      "doctrine</w>": 5850,
      "safely</w>": 5851,
      "bing</w>": 5852,
      "gen</w>": 5853,
      "ded": 5854,
      "rules</w>": 5855,
      "firing</w>": 5856,
      "counted</w>": 5857,
      "wandering</w>": 5858,
      "imagin": 5859,
      "slain</w>": 5860,
      "inspired</w>": 5861,
      "fed</w>": 5862,
      "justly</w>": 5863,
      "guest</w>": 5864,
      "follows</w>": 5865,
      "examine</w>": 5866,
      "physician</w>": 5867,
      "apparent</w>": 5868,
      "solemn": 5869,
      "chapter</w>": 5870,
      "confirmed</w>": 5871,
      "stout</w>": 5872,
      "witch</w>": 5873,
      "vigor": 5874,
      "leader</w>": 5875,
      "imit": 5876,
      "thering</w>": 5877,
      "stopping</w>": 5878,
      "wrath</w>": 5879,
      "amaz": 5880,
      "impatient</w>": 5881,
      "humanity</w>": 5882,
      "ugly</w>": 5883,
      "ringing</w>": 5884,
      "ori": 5885,
      "stant</w>": 5886,
      "rowed</w>": 5887,
      "moti": 5888,
      "commo": 5889,
      "warded</w>": 5890,
      "suffol": 5891,
      "remarks</w>": 5892,
      "assistant</w>": 5893,
      "bald</w>": 5894,
      "expectation</w>": 5895,
      "gesture</w>": 5896,
      "yonder</w>": 5897,
      "nonsense</w>": 5898,
      "earnestly</w>": 5899,
      "quantity</w>": 5900,
      "flow</w>": 5901,
      "ttering</w>": 5902,
      "bus</w>": 5903,
      "unlike</w>": 5904,
      "posal</w>": 5905,
      "vern</w>": 5906,
      "pee": 5907,
      "purse</w>": 5908,
      "purple</w>": 5909,
      "cultiv": 5910,
      "endeavour</w>": 5911,
      "deceive</w>": 5912,
      "restored</w>": 5913,
      "scorn</w>": 5914,
      "wolf</w>": 5915,
      "confined</w>": 5916,
      "control</w>": 5917,
      "anguish</w>": 5918,
      "va</w>": 5919,
      "rebel": 5920,
      "remove</w>": 5921,
      "nodded</w>": 5922,
      "secur": 5923,
      "lake</w>": 5924,
      "masters</w>": 5925,
      "ache</w>": 5926,
      "fathers</w>": 5927,
      "worl": 5928,
      "helmer</w>": 5929,
      "store</w>": 5930,
      "substance</w>": 5931,
      "starting</w>": 5932,
      "swept</w>": 5933,
      "cruel": 5934,
      "bestowed</w>": 5935,
      "discharge</w>": 5936,
      "invisible</w>": 5937,
      "envy</w>": 5938,
      "states</w>": 5939,
      "ela": 5940,
      "version</w>": 5941,
      "fun</w>": 5942,
      "fired</w>": 5943,
      "eye": 5944,
      "calcul": 5945,
      "creation</w>": 5946,
      "smil": 5947,
      "star</w>": 5948,
      "instinc": 5949,
      "supply</w>": 5950,
      "career</w>": 5951,
      "recover</w>": 5952,
      "entertained</w>": 5953,
      "degrees</w>": 5954,
      "motionless</w>": 5955,
      "ho</w>": 5956,
      "nful</w>": 5957,
      "nings</w>": 5958,
      "pun": 5959,
      "scattered</w>": 5960,
      "nie</w>": 5961,
      "commit</w>": 5962,
      "french": 5963,
      "beings</w>": 5964,
      "lasted</w>": 5965,
      "trade</w>": 5966,
      "dancing</w>": 5967,
      "respectable</w>": 5968,
      "branches</w>": 5969,
      "midnight</w>": 5970,
      "machus</w>": 5971,
      "logical</w>": 5972,
      "sergey</w>": 5973,
      "revealed</w>": 5974,
      "abbé</w>": 5975,
      "hei": 5976,
      "sna": 5977,
      "rejoined</w>": 5978,
      "lady": 5979,
      "mist</w>": 5980,
      "host": 5981,
      "mortal": 5982,
      "clau": 5983,
      "expense</w>": 5984,
      "displa": 5985,
      "preparing</w>": 5986,
      "entreat</w>": 5987,
      "reproach</w>": 5988,
      "sheep</w>": 5989,
      "marianne</w>": 5990,
      "youthful</w>": 5991,
      "sl": 5992,
      "fisher</w>": 5993,
      "scand": 5994,
      "walter</w>": 5995,
      "vanished</w>": 5996,
      "patri": 5997,
      "dorian</w>": 5998,
      "javert</w>": 5999,
      "belongs</w>": 6000,
      "cook</w>": 6001,
      "deprived</w>": 6002,
      "slan": 6003,
      "sworn</w>": 6004,
      "incapable</w>": 6005,
      "tight</w>": 6006,
      "shy</w>": 6007,
      "fix</w>": 6008,
      "fee</w>": 6009,
      "pious</w>": 6010,
      "signal</w>": 6011,
      "barney</w>": 6012,
      "employ</w>": 6013,
      "pursuit</w>": 6014,
      "betrayed</w>": 6015,
      "revolution</w>": 6016,
      "michael</w>": 6017,
      "poverty</w>": 6018,
      "ight</w>": 6019,
      "tations</w>": 6020,
      "vac": 6021,
      "wrought</w>": 6022,
      "logy</w>": 6023,
      "mamma</w>": 6024,
      "immortal</w>": 6025,
      "vanity</w>": 6026,
      "scenes</w>": 6027,
      "supposing</w>": 6028,
      "whereby</w>": 6029,
      "advised</w>": 6030,
      "stirred</w>": 6031,
      "satur": 6032,
      "edly</w>": 6033,
      "ishing</w>": 6034,
      "san</w>": 6035,
      "dient</w>": 6036,
      "modest</w>": 6037,
      "roused</w>": 6038,
      "ffed</w>": 6039,
      "finest</w>": 6040,
      "changes</w>": 6041,
      "doubtless</w>": 6042,
      "villain</w>": 6043,
      "climb": 6044,
      "leisure</w>": 6045,
      "compassion</w>": 6046,
      "oce": 6047,
      "enab": 6048,
      "theory</w>": 6049,
      "liqu": 6050,
      "mode</w>": 6051,
      "greg": 6052,
      "breathe</w>": 6053,
      "vals</w>": 6054,
      "translated</w>": 6055,
      "indignation</w>": 6056,
      "nevertheless</w>": 6057,
      "orange</w>": 6058,
      "nephew</w>": 6059,
      "hester</w>": 6060,
      "too": 6061,
      "xes</w>": 6062,
      "xion</w>": 6063,
      "injustice</w>": 6064,
      "missing</w>": 6065,
      "exclu": 6066,
      "fain": 6067,
      "preferred</w>": 6068,
      "bag</w>": 6069,
      "flushed</w>": 6070,
      "recommended</w>": 6071,
      "tolerable</w>": 6072,
      "ceremony</w>": 6073,
      "señor</w>": 6074,
      "av": 6075,
      "tching</w>": 6076,
      "wd</w>": 6077,
      "recon": 6078,
      "niko": 6079,
      "millions</w>": 6080,
      "winds</w>": 6081,
      "ellen</w>": 6082,
      "articles</w>": 6083,
      "consequences</w>": 6084,
      "cleared</w>": 6085,
      "steady</w>": 6086,
      "travelling</w>": 6087,
      "suffolk</w>": 6088,
      "alfred</w>": 6089,
      "rude</w>": 6090,
      "morous</w>": 6091,
      "wardly</w>": 6092,
      "cared</w>": 6093,
      "basi": 6094,
      "willingly</w>": 6095,
      "stroke</w>": 6096,
      "scarlet</w>": 6097,
      "characters</w>": 6098,
      "triumph": 6099,
      "wei": 6100,
      "unpleasant</w>": 6101,
      "warri": 6102,
      "timon</w>": 6103,
      "answers</w>": 6104,
      "forever</w>": 6105,
      "child": 6106,
      "granted</w>": 6107,
      "wels</w>": 6108,
      "angle</w>": 6109,
      "citizens</w>": 6110,
      "heroes</w>": 6111,
      "flies</w>": 6112,
      "tarily</w>": 6113,
      "bewil": 6114,
      "suitable</w>": 6115,
      "conjec": 6116,
      "term</w>": 6117,
      "swallowed</w>": 6118,
      "trained</w>": 6119,
      "crept</w>": 6120,
      "horatio</w>": 6121,
      "awk": 6122,
      "tyran": 6123,
      "enjoying</w>": 6124,
      "devotion</w>": 6125,
      "debt</w>": 6126,
      "earlier</w>": 6127,
      "eaten</w>": 6128,
      "fold</w>": 6129,
      "pher</w>": 6130,
      "pho": 6131,
      "inct</w>": 6132,
      "error</w>": 6133,
      "evol": 6134,
      "vii</w>": 6135,
      "lane</w>": 6136,
      "pleasing</w>": 6137,
      "classi": 6138,
      "latin</w>": 6139,
      "vener": 6140,
      "instinct</w>": 6141,
      "shud": 6142,
      "peculiar": 6143,
      "resemb": 6144,
      "vulgar</w>": 6145,
      "grammar</w>": 6146,
      "eu</w>": 6147,
      "glo": 6148,
      "wling</w>": 6149,
      "earing</w>": 6150,
      "cians</w>": 6151,
      "leads</w>": 6152,
      "warning</w>": 6153,
      "marble</w>": 6154,
      "porter</w>": 6155,
      "assurance</w>": 6156,
      "sheet</w>": 6157,
      "amused</w>": 6158,
      "translation</w>": 6159,
      "shelter</w>": 6160,
      "summoned</w>": 6161,
      "aim": 6162,
      "sche": 6163,
      "seal</w>": 6164,
      "sest</w>": 6165,
      "cool": 6166,
      "prefer</w>": 6167,
      "night": 6168,
      "petro": 6169,
      "manag": 6170,
      "teenth</w>": 6171,
      "stole</w>": 6172,
      "strict</w>": 6173,
      "punish</w>": 6174,
      "communication</w>": 6175,
      "injured</w>": 6176,
      "impulse</w>": 6177,
      "apri": 6178,
      "cere</w>": 6179,
      "likes</w>": 6180,
      "tim</w>": 6181,
      "lov": 6182,
      "raz": 6183,
      "deck</w>": 6184,
      "acher": 6185,
      "irresi": 6186,
      "compari": 6187,
      "travel</w>": 6188,
      "sincere</w>": 6189,
      "cordi": 6190,
      "treacher": 6191,
      "tribu": 6192,
      "barbar": 6193,
      "lifting</w>": 6194,
      "entertain</w>": 6195,
      "writings</w>": 6196,
      "maintained</w>": 6197,
      "introduce</w>": 6198,
      "congratul": 6199,
      "april</w>": 6200,
      "irresisti": 6201,
      "sbury</w>": 6202,
      "sey</w>": 6203,
      "des": 6204,
      "mirac": 6205,
      "fasc": 6206,
      "pleasan": 6207,
      "ousy</w>": 6208,
      "caution</w>": 6209,
      "easier</w>": 6210,
      "antonio</w>": 6211,
      "despatch</w>": 6212,
      "gent</w>": 6213,
      "pte</w>": 6214,
      "elt</w>": 6215,
      "colu": 6216,
      "shrie": 6217,
      "washed</w>": 6218,
      "ppy</w>": 6219,
      "proportion</w>": 6220,
      "score</w>": 6221,
      "knock</w>": 6222,
      "dislike</w>": 6223,
      "finitely</w>": 6224,
      "derived</w>": 6225,
      "destined</w>": 6226,
      "convenient</w>": 6227,
      "sentiments</w>": 6228,
      "adopted</w>": 6229,
      "ators</w>": 6230,
      "licity</w>": 6231,
      "chest": 6232,
      "viii</w>": 6233,
      "joke</w>": 6234,
      "trage": 6235,
      "passes</w>": 6236,
      "clasped</w>": 6237,
      "hunger</w>": 6238,
      "wandered</w>": 6239,
      "burnt</w>": 6240,
      "desert</w>": 6241,
      "attained</w>": 6242,
      "coarse</w>": 6243,
      "mechan": 6244,
      "heap</w>": 6245,
      "geo": 6246,
      "harmony</w>": 6247,
      "daring</w>": 6248,
      "foe</w>": 6249,
      "parties</w>": 6250,
      "rung</w>": 6251,
      "proceeding</w>": 6252,
      "providence</w>": 6253,
      "rejoi": 6254,
      "killing</w>": 6255,
      "coffin</w>": 6256,
      "phan": 6257,
      "noble": 6258,
      "libr": 6259,
      "greece</w>": 6260,
      "tries</w>": 6261,
      "admirable</w>": 6262,
      "succeed</w>": 6263,
      "greeks</w>": 6264,
      "difficulties</w>": 6265,
      "enthusiasm</w>": 6266,
      "kho": 6267,
      "partri": 6268,
      "roubles</w>": 6269,
      "here": 6270,
      "treat": 6271,
      "consisted</w>": 6272,
      "travelled</w>": 6273,
      "disappointed</w>": 6274,
      "landlord</w>": 6275,
      "throne</w>": 6276,
      "flood</w>": 6277,
      "portrait</w>": 6278,
      "plo": 6279,
      "enka</w>": 6280,
      "italy</w>": 6281,
      "poems</w>": 6282,
      "consolation</w>": 6283,
      "agger": 6284,
      "stock</w>": 6285,
      "charms</w>": 6286,
      "surv": 6287,
      "fanta": 6288,
      "shouting</w>": 6289,
      "wherefore</w>": 6290,
      "certainty</w>": 6291,
      "protect</w>": 6292,
      "advise</w>": 6293,
      "visitors</w>": 6294,
      "macbeth</w>": 6295,
      "shirt</w>": 6296,
      "neuve</w>": 6297,
      "hungry</w>": 6298,
      "aha": 6299,
      "founded</w>": 6300,
      "kna": 6301,
      "steal</w>": 6302,
      "rights</w>": 6303,
      "tip": 6304,
      "judged</w>": 6305,
      "apply</w>": 6306,
      "corpse</w>": 6307,
      "soned</w>": 6308,
      "trojan</w>": 6309,
      "gloom</w>": 6310,
      "recollection</w>": 6311,
      "retire</w>": 6312,
      "ahab</w>": 6313,
      "mood</w>": 6314,
      "rous</w>": 6315,
      "rosy</w>": 6316,
      "cares</w>": 6317,
      "forth": 6318,
      "mic</w>": 6319,
      "prey</w>": 6320,
      "perform</w>": 6321,
      "scrat": 6322,
      "carp": 6323,
      "wron": 6324,
      "species</w>": 6325,
      "cheer": 6326,
      "respected</w>": 6327,
      "regarding</w>": 6328,
      "behaved</w>": 6329,
      "historical</w>": 6330,
      "outward</w>": 6331,
      "ndy": 6332,
      "són": 6333,
      "reserved</w>": 6334,
      "resting</w>": 6335,
      "rocks</w>": 6336,
      "lightly</w>": 6337,
      "permission</w>": 6338,
      "thousands</w>": 6339,
      "heath": 6340,
      "sink</w>": 6341,
      "minated</w>": 6342,
      "horse": 6343,
      "strious</w>": 6344,
      "impressed</w>": 6345,
      "disturb</w>": 6346,
      "celest": 6347,
      "incident</w>": 6348,
      "jarndy": 6349,
      "affectionate</w>": 6350,
      "offering</w>": 6351,
      "sónya</w>": 6352,
      "jarndyce</w>": 6353,
      "equi": 6354,
      "ernal</w>": 6355,
      "spur": 6356,
      "agitation</w>": 6357,
      "permit</w>": 6358,
      "opposed</w>": 6359,
      "pau": 6360,
      "appeal</w>": 6361,
      "bella</w>": 6362,
      "stuff</w>": 6363,
      "aristo": 6364,
      "secrets</w>": 6365,
      "bench</w>": 6366,
      "provide</w>": 6367,
      "knee</w>": 6368,
      "owner</w>": 6369,
      "comrades</w>": 6370,
      "guessed</w>": 6371,
      "exhib": 6372,
      "ocean</w>": 6373,
      "atives</w>": 6374,
      "profit</w>": 6375,
      "parting</w>": 6376,
      "marvell": 6377,
      "plays</w>": 6378,
      "empha": 6379,
      "student</w>": 6380,
      "admire</w>": 6381,
      "artill": 6382,
      "recognised</w>": 6383,
      "legal</w>": 6384,
      "trinity</w>": 6385,
      "amazement</w>": 6386,
      "risen</w>": 6387,
      "til": 6388,
      "cave</w>": 6389,
      "acknowledge</w>": 6390,
      "actual</w>": 6391,
      "propri": 6392,
      "grasp</w>": 6393,
      "cloth</w>": 6394,
      "stair": 6395,
      "submit</w>": 6396,
      "stub": 6397,
      "tonight</w>": 6398,
      "secretary</w>": 6399,
      "teaching</w>": 6400,
      "entertain": 6401,
      "civili": 6402,
      "lent</w>": 6403,
      "slen": 6404,
      "tments</w>": 6405,
      "inju": 6406,
      "fiery</w>": 6407,
      "prodi": 6408,
      "interview</w>": 6409,
      "factory</w>": 6410,
      "blessing</w>": 6411,
      "reflect</w>": 6412,
      "horrid</w>": 6413,
      "june</w>": 6414,
      "criminal</w>": 6415,
      "slender</w>": 6416,
      "bee</w>": 6417,
      "rightly</w>": 6418,
      "soil</w>": 6419,
      "deserved</w>": 6420,
      "proph": 6421,
      "cism</w>": 6422,
      "distri": 6423,
      "crow</w>": 6424,
      "lightning</w>": 6425,
      "gers</w>": 6426,
      "lers</w>": 6427,
      "py": 6428,
      "pus</w>": 6429,
      "lime</w>": 6430,
      "tie</w>": 6431,
      "forgetting</w>": 6432,
      "staying</w>": 6433,
      "matty</w>": 6434,
      "current</w>": 6435,
      "vention</w>": 6436,
      "torture</w>": 6437,
      "grounds</w>": 6438,
      "attending</w>": 6439,
      "band": 6440,
      "anywhere</w>": 6441,
      "philosopher</w>": 6442,
      "discussion</w>": 6443,
      "platoon</w>": 6444,
      "descend</w>": 6445,
      "bill</w>": 6446,
      "kle</w>": 6447,
      "sali": 6448,
      "yr</w>": 6449,
      "ísov</w>": 6450,
      "ard": 6451,
      "butt": 6452,
      "pres</w>": 6453,
      "cutting</w>": 6454,
      "rear</w>": 6455,
      "denísov</w>": 6456,
      "collected</w>": 6457,
      "fifth</w>": 6458,
      "type</w>": 6459,
      "lessons</w>": 6460,
      "sperm</w>": 6461,
      "cunt</w>": 6462,
      "kshire</w>": 6463,
      "sso": 6464,
      "tz</w>": 6465,
      "camb": 6466,
      "missi": 6467,
      "carri": 6468,
      "folk</w>": 6469,
      "igned</w>": 6470,
      "excess</w>": 6471,
      "crushed</w>": 6472,
      "deeper</w>": 6473,
      "violently</w>": 6474,
      "disappointment</w>": 6475,
      "poison</w>": 6476,
      "ladyship</w>": 6477,
      "cating</w>": 6478,
      "dled</w>": 6479,
      "fitted</w>": 6480,
      "aning</w>": 6481,
      "sailed</w>": 6482,
      "cock</w>": 6483,
      "asy</w>": 6484,
      "bot</w>": 6485,
      "itious</w>": 6486,
      "undertake</w>": 6487,
      "merc": 6488,
      "edness</w>": 6489,
      "grim</w>": 6490,
      "bands</w>": 6491,
      "advancing</w>": 6492,
      "volume</w>": 6493,
      "jealousy</w>": 6494,
      "mischief</w>": 6495,
      "sits</w>": 6496,
      "ric</w>": 6497,
      "mption</w>": 6498,
      "obviously</w>": 6499,
      "tales</w>": 6500,
      "milk</w>": 6501,
      "linen</w>": 6502,
      "salt</w>": 6503,
      "patro": 6504,
      "remembering</w>": 6505,
      "exist</w>": 6506,
      "branch</w>": 6507,
      "assembly</w>": 6508,
      "correct</w>": 6509,
      "threatened</w>": 6510,
      "rosalind</w>": 6511,
      "enabled</w>": 6512,
      "lint": 6513,
      "suited</w>": 6514,
      "rarely</w>": 6515,
      "moor</w>": 6516,
      "chairs</w>": 6517,
      "gladly</w>": 6518,
      "grima": 6519,
      "decision</w>": 6520,
      "smoking</w>": 6521,
      "inquiry</w>": 6522,
      "linton</w>": 6523,
      "acy</w>": 6524,
      "absent</w>": 6525,
      "gul": 6526,
      "landed</w>": 6527,
      "doubts</w>": 6528,
      "songs</w>": 6529,
      "inea</w>": 6530,
      "steel</w>": 6531,
      "oxford</w>": 6532,
      "yielded</w>": 6533,
      "daylight</w>": 6534,
      "startled</w>": 6535,
      "ben</w>": 6536,
      "dwell</w>": 6537,
      "ernest</w>": 6538,
      "reference</w>": 6539,
      "one": 6540,
      "mock</w>": 6541,
      "gible</w>": 6542,
      "scroo": 6543,
      "obvious</w>": 6544,
      "baron</w>": 6545,
      "maybe</w>": 6546,
      "alexandrovna</w>": 6547,
      "ambition</w>": 6548,
      "remote</w>": 6549,
      "artillery</w>": 6550,
      "celia</w>": 6551,
      "fr": 6552,
      "fable</w>": 6553,
      "repose</w>": 6554,
      "alger": 6555,
      "ghten</w>": 6556,
      "pope</w>": 6557,
      "ssly</w>": 6558,
      "estee": 6559,
      "volio</w>": 6560,
      "achment</w>": 6561,
      "heels</w>": 6562,
      "brains</w>": 6563,
      "prayed</w>": 6564,
      "sque</w>": 6565,
      "swif": 6566,
      "strangers</w>": 6567,
      "elegant</w>": 6568,
      "algernon</w>": 6569,
      "esteem</w>": 6570,
      "iol": 6571,
      "tha</w>": 6572,
      "rela": 6573,
      "organ": 6574,
      "sadly</w>": 6575,
      "decor": 6576,
      "whoever</w>": 6577,
      "lust</w>": 6578,
      "tragi": 6579,
      "cart</w>": 6580,
      "fox</w>": 6581,
      "consist": 6582,
      "grows</w>": 6583,
      "ette</w>": 6584,
      "garden": 6585,
      "troubles</w>": 6586,
      "positions</w>": 6587,
      "visitor</w>": 6588,
      "tches</w>": 6589,
      "infli": 6590,
      "arrested</w>": 6591,
      "loa": 6592,
      "dia</w>": 6593,
      "solitude</w>": 6594,
      "ghtfully</w>": 6595,
      "despise</w>": 6596,
      "runs</w>": 6597,
      "beasts</w>": 6598,
      "mberland</w>": 6599,
      "atra</w>": 6600,
      "eled</w>": 6601,
      "eased</w>": 6602,
      "rich": 6603,
      "saving</w>": 6604,
      "sevent": 6605,
      "come": 6606,
      "maxi": 6607,
      "capu": 6608,
      "fail": 6609,
      "agitated</w>": 6610,
      "opatra</w>": 6611,
      "pest</w>": 6612,
      "spect": 6613,
      "valley</w>": 6614,
      "believing</w>": 6615,
      "colours</w>": 6616,
      "fern": 6617,
      "thick": 6618,
      "yourselves</w>": 6619,
      "cleopatra</w>": 6620,
      "frag": 6621,
      "lesson</w>": 6622,
      "injury</w>": 6623,
      "restore</w>": 6624,
      "significant</w>": 6625,
      "obstin": 6626,
      "weapon</w>": 6627,
      "cottage</w>": 6628,
      "innocence</w>": 6629,
      "partridge</w>": 6630,
      "heathcliff</w>": 6631,
      "sis</w>": 6632,
      "tables</w>": 6633,
      "wrin": 6634,
      "altered</w>": 6635,
      "secured</w>": 6636,
      "coach": 6637,
      "exchange</w>": 6638,
      "luc": 6639,
      "families</w>": 6640,
      "flash</w>": 6641,
      "meantime</w>": 6642,
      "depth</w>": 6643,
      "bestow</w>": 6644,
      "riot</w>": 6645,
      "appetite</w>": 6646,
      "kably</w>": 6647,
      "insol": 6648,
      "beaten</w>": 6649,
      "loaded</w>": 6650,
      "samu": 6651,
      "toms</w>": 6652,
      "rushing</w>": 6653,
      "work": 6654,
      "dued</w>": 6655,
      "placing</w>": 6656,
      "merri": 6657,
      "tune</w>": 6658,
      "wheels</w>": 6659,
      "sunshine</w>": 6660,
      "perceiving</w>": 6661,
      "teau</w>": 6662,
      "amuse</w>": 6663,
      "habits</w>": 6664,
      "president</w>": 6665,
      "smiles</w>": 6666,
      "samuel</w>": 6667,
      "abun": 6668,
      "awoke</w>": 6669,
      "meal</w>": 6670,
      "zi": 6671,
      "refra": 6672,
      "stati": 6673,
      "conspi": 6674,
      "ceforth</w>": 6675,
      "propose</w>": 6676,
      "admini": 6677,
      "leagues</w>": 6678,
      "firm": 6679,
      "closing</w>": 6680,
      "honor": 6681,
      "grieved</w>": 6682,
      "crates</w>": 6683,
      "measures</w>": 6684,
      "reckoned</w>": 6685,
      "encouraged</w>": 6686,
      "mirror</w>": 6687,
      "wellington</w>": 6688,
      "candide</w>": 6689,
      "comparison</w>": 6690,
      "khov</w>": 6691,
      "gon": 6692,
      "ister</w>": 6693,
      "mth</w>": 6694,
      "stled</w>": 6695,
      "poets</w>": 6696,
      "hostile</w>": 6697,
      "exal": 6698,
      "territ": 6699,
      "inged</w>": 6700,
      "whole": 6701,
      "warmth</w>": 6702,
      "dreamed</w>": 6703,
      "fright</w>": 6704,
      "timid</w>": 6705,
      "strained</w>": 6706,
      "convul": 6707,
      "crowded</w>": 6708,
      "completed</w>": 6709,
      "blin</w>": 6710,
      "russia</w>": 6711,
      "instrument</w>": 6712,
      "filling</w>": 6713,
      "prevailed</w>": 6714,
      "phrase</w>": 6715,
      "cer</w>": 6716,
      "orting</w>": 6717,
      "stal": 6718,
      "eling</w>": 6719,
      "lication</w>": 6720,
      "excu": 6721,
      "echo": 6722,
      "darcy</w>": 6723,
      "liberal</w>": 6724,
      "examination</w>": 6725,
      "destiny</w>": 6726,
      "radiant</w>": 6727,
      "characteristic</w>": 6728,
      "avoided</w>": 6729,
      "sse</w>": 6730,
      "hadst</w>": 6731,
      "remor": 6732,
      "foundation</w>": 6733,
      "independent</w>": 6734,
      "library</w>": 6735,
      "ka": 6736,
      "tfully</w>": 6737,
      "reception</w>": 6738,
      "wave</w>": 6739,
      "affect</w>": 6740,
      "opposition</w>": 6741,
      "withdrew</w>": 6742,
      "trump": 6743,
      "charity</w>": 6744,
      "printed</w>": 6745,
      "answering</w>": 6746,
      "courte": 6747,
      "brass</w>": 6748,
      "benevol": 6749,
      "probable</w>": 6750,
      "pictures</w>": 6751,
      "awakened</w>": 6752,
      "scheme</w>": 6753,
      "forthwith</w>": 6754,
      "staircase</w>": 6755,
      "bable</w>": 6756,
      "dun": 6757,
      "prai": 6758,
      "pearl</w>": 6759,
      "rational</w>": 6760,
      "sly</w>": 6761,
      "umi": 6762,
      "refre": 6763,
      "behalf</w>": 6764,
      "ghter</w>": 6765,
      "undoub": 6766,
      "bodily</w>": 6767,
      "larity</w>": 6768,
      "horiz": 6769,
      "northu": 6770,
      "therein</w>": 6771,
      "remedy</w>": 6772,
      "promising</w>": 6773,
      "commands</w>": 6774,
      "amazed</w>": 6775,
      "issued</w>": 6776,
      "newspa": 6777,
      "restrain</w>": 6778,
      "sailor</w>": 6779,
      "razumi": 6780,
      "razumihin</w>": 6781,
      "aja": 6782,
      "akov</w>": 6783,
      "gon</w>": 6784,
      "hint</w>": 6785,
      "sden</w>": 6786,
      "ypres</w>": 6787,
      "erdy": 6788,
      "reland</w>": 6789,
      "buck</w>": 6790,
      "covering</w>": 6791,
      "confli": 6792,
      "ficial</w>": 6793,
      "holes</w>": 6794,
      "dresden</w>": 6795,
      "appe": 6796,
      "smerdy": 6797,
      "spoil</w>": 6798,
      "fools</w>": 6799,
      "thank": 6800,
      "victim</w>": 6801,
      "indifference</w>": 6802,
      "encounter</w>": 6803,
      "external</w>": 6804,
      "marvellous</w>": 6805,
      "ajax</w>": 6806,
      "smerdyakov</w>": 6807,
      "oedi": 6808,
      "sni": 6809,
      "revel": 6810,
      "rig": 6811,
      "process</w>": 6812,
      "gown</w>": 6813,
      "walks</w>": 6814,
      "sonia</w>": 6815,
      "simplicity</w>": 6816,
      "signifi": 6817,
      "pink</w>": 6818,
      "oedipus</w>": 6819,
      "chim": 6820,
      "mers</w>": 6821,
      "nau": 6822,
      "outer</w>": 6823,
      "lean</w>": 6824,
      "homer</w>": 6825,
      "denied</w>": 6826,
      "blew</w>": 6827,
      "expedition</w>": 6828,
      "multitude</w>": 6829,
      "poem</w>": 6830,
      "descending</w>": 6831,
      "downstairs</w>": 6832,
      "maids</w>": 6833,
      "record</w>": 6834,
      "celestial</w>": 6835,
      "inqui": 6836,
      "reign</w>": 6837,
      "timent</w>": 6838,
      "shenka</w>": 6839,
      "verses</w>": 6840,
      "exchanged</w>": 6841,
      "sentiment</w>": 6842,
      "empire</w>": 6843,
      "dropping</w>": 6844,
      "excep": 6845,
      "decent</w>": 6846,
      "malice</w>": 6847,
      "grushenka</w>": 6848,
      "glimpse</w>": 6849,
      "eously</w>": 6850,
      "grecian</w>": 6851,
      "honoured</w>": 6852,
      "dants</w>": 6853,
      "invest": 6854,
      "hinder</w>": 6855,
      "railway</w>": 6856,
      "medicine</w>": 6857,
      "oa": 6858,
      "svi": 6859,
      "elbow</w>": 6860,
      "bet</w>": 6861,
      "tical</w>": 6862,
      "mee</w>": 6863,
      "comte</w>": 6864,
      "engine": 6865,
      "edgar</w>": 6866,
      "drowned</w>": 6867,
      "childish</w>": 6868,
      "relieve</w>": 6869,
      "comprehend</w>": 6870,
      "essential</w>": 6871,
      "accused</w>": 6872,
      "displayed</w>": 6873,
      "ax": 6874,
      "ild</w>": 6875,
      "pup": 6876,
      "aned</w>": 6877,
      "build</w>": 6878,
      "mode": 6879,
      "calmly</w>": 6880,
      "ski</w>": 6881,
      "jesus</w>": 6882,
      "continual</w>": 6883,
      "banks</w>": 6884,
      "noticing</w>": 6885,
      "flowing</w>": 6886,
      "faults</w>": 6887,
      "positive</w>": 6888,
      "assembled</w>": 6889,
      "barricade</w>": 6890,
      "disgust</w>": 6891,
      "obscure</w>": 6892,
      "gat": 6893,
      "induced</w>": 6894,
      "elec": 6895,
      "harb": 6896,
      "intent</w>": 6897,
      "ferring</w>": 6898,
      "polite</w>": 6899,
      "arrange</w>": 6900,
      "coachman</w>": 6901,
      "ólo": 6902,
      "rev": 6903,
      "rope</w>": 6904,
      "roads</w>": 6905,
      "amin</w>": 6906,
      "breathed</w>": 6907,
      "phical</w>": 6908,
      "dency</w>": 6909,
      "favor</w>": 6910,
      "seizing</w>": 6911,
      "fearing</w>": 6912,
      "mayor</w>": 6913,
      "check</w>": 6914,
      "inferior</w>": 6915,
      "scrooge</w>": 6916,
      "capulet</w>": 6917,
      "vau": 6918,
      "activity</w>": 6919,
      "contain</w>": 6920,
      "constru": 6921,
      "waved</w>": 6922,
      "wives</w>": 6923,
      "boy": 6924,
      "papa</w>": 6925,
      "trusted</w>": 6926,
      "tremble</w>": 6927,
      "sends</w>": 6928,
      "danced</w>": 6929,
      "tempted</w>": 6930,
      "griev": 6931,
      "runk</w>": 6932,
      "hurrie": 6933,
      "cheer</w>": 6934,
      "lawful</w>": 6935,
      "grandson</w>": 6936,
      "combat</w>": 6937,
      "hurriedly</w>": 6938,
      "bend</w>": 6939,
      "isi": 6940,
      "pit</w>": 6941,
      "racuse</w>": 6942,
      "deth</w>": 6943,
      "moon": 6944,
      "parish</w>": 6945,
      "dublin</w>": 6946,
      "martin</w>": 6947,
      "nig": 6948,
      "hearty</w>": 6949,
      "helsing</w>": 6950,
      "humili": 6951,
      "disease</w>": 6952,
      "naval</w>": 6953,
      "tremen": 6954,
      "heir</w>": 6955,
      "glasses</w>": 6956,
      "sore</w>": 6957,
      "despite</w>": 6958,
      "syracuse</w>": 6959,
      "declaration</w>": 6960,
      "bullet</w>": 6961,
      "suggest": 6962,
      "messrs</w>": 6963,
      "complain</w>": 6964,
      "drunken</w>": 6965,
      "neglected</w>": 6966,
      "tremend": 6967,
      "astic</w>": 6968,
      "lling</w>": 6969,
      "scep": 6970,
      "moment": 6971,
      "holi": 6972,
      "exten": 6973,
      "mph": 6974,
      "parli": 6975,
      "warn</w>": 6976,
      "curtain</w>": 6977,
      "expressing</w>": 6978,
      "handle</w>": 6979,
      "catching</w>": 6980,
      "examining</w>": 6981,
      "bedroom</w>": 6982,
      "telegra": 6983,
      "overwhelmed</w>": 6984,
      "smart</w>": 6985,
      "challen": 6986,
      "claudio</w>": 6987,
      "plate</w>": 6988,
      "sation</w>": 6989,
      "relate</w>": 6990,
      "endur": 6991,
      "whip</w>": 6992,
      "shri": 6993,
      "shut": 6994,
      "exclam": 6995,
      "wiped</w>": 6996,
      "este": 6997,
      "reads</w>": 6998,
      "hanna": 6999,
      "lordship</w>": 7000,
      "engage</w>": 7001,
      "stretch</w>": 7002,
      "learnt</w>": 7003,
      "doubtful</w>": 7004,
      "arguments</w>": 7005,
      "joyful</w>": 7006,
      "zealand</w>": 7007,
      "hannah</w>": 7008,
      "iter</w>": 7009,
      "aly": 7010,
      "lament": 7011,
      "mach</w>": 7012,
      "marrying</w>": 7013,
      "pedr": 7014,
      "helen</w>": 7015,
      "dismal</w>": 7016,
      "stomach</w>": 7017,
      "color</w>": 7018,
      "bride</w>": 7019,
      "cauti": 7020,
      "angels</w>": 7021,
      "fashionable</w>": 7022,
      "rifles</w>": 7023,
      "haunted</w>": 7024,
      "renewed</w>": 7025,
      "entertainment</w>": 7026,
      "northumberland</w>": 7027,
      "pedro</w>": 7028,
      "ai": 7029,
      "awaiting</w>": 7030,
      "con</w>": 7031,
      "referred</w>": 7032,
      "ena</w>": 7033,
      "lodge</w>": 7034,
      "sack</w>": 7035,
      "macy</w>": 7036,
      "sober</w>": 7037,
      "formid": 7038,
      "tossed</w>": 7039,
      "morti": 7040,
      "league</w>": 7041,
      "maria</w>": 7042,
      "closer</w>": 7043,
      "subtle</w>": 7044,
      "uniform</w>": 7045,
      "highness</w>": 7046,
      "perfection</w>": 7047,
      "recollect</w>": 7048,
      "introduction</w>": 7049,
      "limited</w>": 7050,
      "insult</w>": 7051,
      "kingdome</w>": 7052,
      "district</w>": 7053,
      "formidable</w>": 7054,
      "tnight</w>": 7055,
      "angri": 7056,
      "resent": 7057,
      "unwilling</w>": 7058,
      "fortnight</w>": 7059,
      "procure</w>": 7060,
      "wars</w>": 7061,
      "july</w>": 7062,
      "stand": 7063,
      "wont</w>": 7064,
      "invitation</w>": 7065,
      "offices</w>": 7066,
      "determination</w>": 7067,
      "basket</w>": 7068,
      "naturall</w>": 7069,
      "struggling</w>": 7070,
      "blown</w>": 7071,
      "shoot</w>": 7072,
      "angrily</w>": 7073,
      "sma": 7074,
      "dess</w>": 7075,
      "boats</w>": 7076,
      "surprising</w>": 7077,
      "dispute</w>": 7078,
      "existed</w>": 7079,
      "communicated</w>": 7080,
      "isabella</w>": 7081,
      "crac": 7082,
      "mming</w>": 7083,
      "rob": 7084,
      "betwi": 7085,
      "easiness</w>": 7086,
      "sets</w>": 7087,
      "socrates</w>": 7088,
      "shaken</w>": 7089,
      "niece</w>": 7090,
      "dresses</w>": 7091,
      "corp": 7092,
      "studies</w>": 7093,
      "ville</w>": 7094,
      "sung</w>": 7095,
      "conveyed</w>": 7096,
      "respects</w>": 7097,
      "brook</w>": 7098,
      "betray</w>": 7099,
      "neglect</w>": 7100,
      "purchase</w>": 7101,
      "subsequently</w>": 7102,
      "nikolay</w>": 7103,
      "betwixt</w>": 7104,
      "ffee</w>": 7105,
      "kar": 7106,
      "mni": 7107,
      "zard</w>": 7108,
      "seas</w>": 7109,
      "coffee</w>": 7110,
      "shly</w>": 7111,
      "casu": 7112,
      "deal": 7113,
      "defe": 7114,
      "judges</w>": 7115,
      "flames</w>": 7116,
      "pierced</w>": 7117,
      "employment</w>": 7118,
      "occupation</w>": 7119,
      "wendy</w>": 7120,
      "roaring</w>": 7121,
      "fathom</w>": 7122,
      "hook</w>": 7123,
      "toil</w>": 7124,
      "upset</w>": 7125,
      "arise</w>": 7126,
      "loudly</w>": 7127,
      "published</w>": 7128,
      "hesitated</w>": 7129,
      "constitution</w>": 7130,
      "manifest</w>": 7131,
      "bitterly</w>": 7132,
      "romantic</w>": 7133,
      "surrey</w>": 7134,
      "gab": 7135,
      "archi": 7136,
      "novel</w>": 7137,
      "vicar</w>": 7138,
      "objection</w>": 7139,
      "fleet</w>": 7140,
      "thirst</w>": 7141,
      "images</w>": 7142,
      "assume</w>": 7143,
      "funny</w>": 7144,
      "visits</w>": 7145,
      "impatience</w>": 7146,
      "intelligent</w>": 7147,
      "smallest</w>": 7148,
      "advantages</w>": 7149,
      "forbidden</w>": 7150,
      "asper": 7151,
      "ie</w>": 7152,
      "anus</w>": 7153,
      "lable</w>": 7154,
      "uncertain</w>": 7155,
      "depart</w>": 7156,
      "ofs</w>": 7157,
      "ourhood</w>": 7158,
      "helping</w>": 7159,
      "card</w>": 7160,
      "bastard</w>": 7161,
      "attempts</w>": 7162,
      "contracted</w>": 7163,
      "punished</w>": 7164,
      "pluck</w>": 7165,
      "neighbourhood</w>": 7166,
      "mournful</w>": 7167,
      "treatment</w>": 7168,
      "las</w>": 7169,
      "initi": 7170,
      "incess": 7171,
      "atmo": 7172,
      "elements</w>": 7173,
      "divers</w>": 7174,
      "cacy</w>": 7175,
      "cavalry</w>": 7176,
      "sps</w>": 7177,
      "ssible</w>": 7178,
      "keys</w>": 7179,
      "peaceful</w>": 7180,
      "scribed</w>": 7181,
      "thief</w>": 7182,
      "terribly</w>": 7183,
      "insist</w>": 7184,
      "battery</w>": 7185,
      "aroused</w>": 7186,
      "tragedy</w>": 7187,
      "athan</w>": 7188,
      "dney</w>": 7189,
      "hasty</w>": 7190,
      "beat": 7191,
      "load</w>": 7192,
      "demon": 7193,
      "forbid</w>": 7194,
      "model</w>": 7195,
      "mild</w>": 7196,
      "mical</w>": 7197,
      "selfish</w>": 7198,
      "david</w>": 7199,
      "vial</w>": 7200,
      "serp": 7201,
      "everlasting</w>": 7202,
      "pressure</w>": 7203,
      "minent</w>": 7204,
      "skil": 7205,
      "students</w>": 7206,
      "alia</w>": 7207,
      "excellency</w>": 7208,
      "eleine</w>": 7209,
      "extravag": 7210,
      "footsteps</w>": 7211,
      "critical</w>": 7212,
      "developed</w>": 7213,
      "madeleine</w>": 7214,
      "involved</w>": 7215,
      "bind</w>": 7216,
      "snu": 7217,
      "repul": 7218,
      "diss": 7219,
      "suitors</w>": 7220,
      "unnatural</w>": 7221,
      "dowed</w>": 7222,
      "adm": 7223,
      "perfu": 7224,
      "cies</w>": 7225,
      "begging</w>": 7226,
      "string</w>": 7227,
      "exception</w>": 7228,
      "transp": 7229,
      "yorkshire</w>": 7230,
      "significance</w>": 7231,
      "jest</w>": 7232,
      "mons</w>": 7233,
      "os</w>": 7234,
      "stles</w>": 7235,
      "polon": 7236,
      "concent": 7237,
      "proposal</w>": 7238,
      "chase</w>": 7239,
      "sublime</w>": 7240,
      "trick</w>": 7241,
      "studying</w>": 7242,
      "desirous</w>": 7243,
      "philip</w>": 7244,
      "syl": 7245,
      "salv": 7246,
      "repeating</w>": 7247,
      "professi": 7248,
      "contrast</w>": 7249,
      "nerves</w>": 7250,
      "guilt</w>": 7251,
      "anxiously</w>": 7252,
      "eagerness</w>": 7253,
      "dwelling</w>": 7254,
      "buckingham</w>": 7255,
      "snatched</w>": 7256,
      "econ": 7257,
      "retained</w>": 7258,
      "lovitch</w>": 7259,
      "lovna</w>": 7260,
      "shness</w>": 7261,
      "metri": 7262,
      "chea": 7263,
      "muske": 7264,
      "carol": 7265,
      "ultim": 7266,
      "sorrows</w>": 7267,
      "trousers</w>": 7268,
      "schools</w>": 7269,
      "terrified</w>": 7270,
      "floating</w>": 7271,
      "practised</w>": 7272,
      "dreaded</w>": 7273,
      "acknowledged</w>": 7274,
      "problem</w>": 7275,
      "worldly</w>": 7276,
      "econo": 7277,
      "dólo": 7278,
      "relu": 7279,
      "rochester</w>": 7280,
      "locks</w>": 7281,
      "unworthy</w>": 7282,
      "exagger": 7283,
      "mud</w>": 7284,
      "rubbed</w>": 7285,
      "gather</w>": 7286,
      "roop</w>": 7287,
      "obeyed</w>": 7288,
      "goods</w>": 7289,
      "detail</w>": 7290,
      "sixty</w>": 7291,
      "shooting</w>": 7292,
      "traveller</w>": 7293,
      "dólokhov</w>": 7294,
      "reluct": 7295,
      "lear</w>": 7296,
      "han</w>": 7297,
      "remind</w>": 7298,
      "novel": 7299,
      "theo": 7300,
      "wits</w>": 7301,
      "definite</w>": 7302,
      "entit": 7303,
      "prof": 7304,
      "persecu": 7305,
      "itions</w>": 7306,
      "gravely</w>": 7307,
      "tress</w>": 7308,
      "uttering</w>": 7309,
      "approve</w>": 7310,
      "linde</w>": 7311,
      "pillow</w>": 7312,
      "smaller</w>": 7313,
      "temporary</w>": 7314,
      "ahead</w>": 7315,
      "amidst</w>": 7316,
      "glowing</w>": 7317,
      "vro": 7318,
      "hiding</w>": 7319,
      "retain</w>": 7320,
      "catho": 7321,
      "pot</w>": 7322,
      "abi": 7323,
      "asks</w>": 7324,
      "guppy</w>": 7325,
      "gavro": 7326,
      "bark</w>": 7327,
      "careless</w>": 7328,
      "polit": 7329,
      "confessed</w>": 7330,
      "enterpri": 7331,
      "reverence</w>": 7332,
      "newly</w>": 7333,
      "scotland</w>": 7334,
      "prudent</w>": 7335,
      "cecil</w>": 7336,
      "childhood</w>": 7337,
      "petrovitch</w>": 7338,
      "gavroche</w>": 7339,
      "requires</w>": 7340,
      "sibly</w>": 7341,
      "seth</w>": 7342,
      "uneasiness</w>": 7343,
      "shout</w>": 7344,
      "acle</w>": 7345,
      "vig": 7346,
      "festi": 7347,
      "sinking</w>": 7348,
      "canada</w>": 7349,
      "coriol": 7350,
      "lorry</w>": 7351,
      "hunt</w>": 7352,
      "hee</w>": 7353,
      "tongues</w>": 7354,
      "squad": 7355,
      "fairy</w>": 7356,
      "discharged</w>": 7357,
      "sailors</w>": 7358,
      "abuse</w>": 7359,
      "stolen</w>": 7360,
      "ornam": 7361,
      "glittering</w>": 7362,
      "irresistible</w>": 7363,
      "dried</w>": 7364,
      "text</w>": 7365,
      "wers</w>": 7366,
      "haugh": 7367,
      "orn</w>": 7368,
      "robbed</w>": 7369,
      "laun": 7370,
      "quet</w>": 7371,
      "waving</w>": 7372,
      "eman": 7373,
      "canto</w>": 7374,
      "talent</w>": 7375,
      "hundre": 7376,
      "facing</w>": 7377,
      "flowed</w>": 7378,
      "realized</w>": 7379,
      "thrice</w>": 7380,
      "luxu": 7381,
      "security</w>": 7382,
      "emili": 7383,
      "ians</w>": 7384,
      "mered</w>": 7385,
      "owed</w>": 7386,
      "rector</w>": 7387,
      "ites</w>": 7388,
      "sta</w>": 7389,
      "posted</w>": 7390,
      "agsby</w>": 7391,
      "push</w>": 7392,
      "wart</w>": 7393,
      "autu": 7394,
      "cree": 7395,
      "hereafter</w>": 7396,
      "intently</w>": 7397,
      "virgin</w>": 7398,
      "pulch": 7399,
      "dulc": 7400,
      "backward</w>": 7401,
      "snagsby</w>": 7402,
      "jolly</w>": 7403,
      "doun": 7404,
      "anato": 7405,
      "hired</w>": 7406,
      "haw": 7407,
      "ardent</w>": 7408,
      "stor</w>": 7409,
      "alus</w>": 7410,
      "alled</w>": 7411,
      "ribb": 7412,
      "sively</w>": 7413,
      "fires</w>": 7414,
      "tomb</w>": 7415,
      "gossi": 7416,
      "dame</w>": 7417,
      "openly</w>": 7418,
      "pushing</w>": 7419,
      "marqu": 7420,
      "belly</w>": 7421,
      "directions</w>": 7422,
      "flashed</w>": 7423,
      "ditional</w>": 7424,
      "consciously</w>": 7425,
      "reflections</w>": 7426,
      "confid": 7427,
      "owne</w>": 7428,
      "cecily</w>": 7429,
      "beatrice</w>": 7430,
      "dounia</w>": 7431,
      "ashes</w>": 7432,
      "cell</w>": 7433,
      "don": 7434,
      "gan</w>": 7435,
      "iv": 7436,
      "pitch</w>": 7437,
      "inations</w>": 7438,
      "uncomfortable</w>": 7439,
      "dece": 7440,
      "moses</w>": 7441,
      "exasper": 7442,
      "rubbing</w>": 7443,
      "shield</w>": 7444,
      "contact</w>": 7445,
      "memories</w>": 7446,
      "confession</w>": 7447,
      "amusement</w>": 7448,
      "taneously</w>": 7449,
      "attributed</w>": 7450,
      "vigorous</w>": 7451,
      "fantastic</w>": 7452,
      "inquiries</w>": 7453,
      "atmosphere</w>": 7454,
      "bath</w>": 7455,
      "oil</w>": 7456,
      "zeal</w>": 7457,
      "inf": 7458,
      "ref": 7459,
      "represent</w>": 7460,
      "behave</w>": 7461,
      "raged</w>": 7462,
      "pomp": 7463,
      "boast</w>": 7464,
      "ssively</w>": 7465,
      "mbre</w>": 7466,
      "track</w>": 7467,
      "traces</w>": 7468,
      "create</w>": 7469,
      "passages</w>": 7470,
      "darted</w>": 7471,
      "entific</w>": 7472,
      "appearing</w>": 7473,
      "exciting</w>": 7474,
      "scientific</w>": 7475,
      "refuge</w>": 7476,
      "lucius</w>": 7477,
      "checked</w>": 7478,
      "perpetual</w>": 7479,
      "chelevent</w>": 7480,
      "fauchelevent</w>": 7481,
      "patrick</w>": 7482,
      "fascin": 7483,
      "az": 7484,
      "wert</w>": 7485,
      "real": 7486,
      "lodg": 7487,
      "ghten": 7488,
      "ract</w>": 7489,
      "upright</w>": 7490,
      "gaining</w>": 7491,
      "monarch</w>": 7492,
      "nay</w>": 7493,
      "distressed</w>": 7494,
      "purposes</w>": 7495,
      "healthy</w>": 7496,
      "satisfactory</w>": 7497,
      "convey</w>": 7498,
      "misfortunes</w>": 7499,
      "attractive</w>": 7500,
      "enchanted</w>": 7501,
      "contributed</w>": 7502,
      "apprehension</w>": 7503,
      "results</w>": 7504,
      "failure</w>": 7505,
      "investig": 7506,
      "caroline</w>": 7507,
      "pá": 7508,
      "pack</w>": 7509,
      "inder</w>": 7510,
      "innumer": 7511,
      "ilus</w>": 7512,
      "wasted</w>": 7513,
      "damp</w>": 7514,
      "cio</w>": 7515,
      "treating</w>": 7516,
      "northern</w>": 7517,
      "struc": 7518,
      "troilus</w>": 7519,
      "wealthy</w>": 7520,
      "twilight</w>": 7521,
      "moderate</w>": 7522,
      "sufferings</w>": 7523,
      "illustr": 7524,
      "accounts</w>": 7525,
      "remorse</w>": 7526,
      "undoubtedly</w>": 7527,
      "innumerable</w>": 7528,
      "dated</w>": 7529,
      "feli": 7530,
      "mme</w>": 7531,
      "phol": 7532,
      "un</w>": 7533,
      "depos": 7534,
      "pockets</w>": 7535,
      "sprung</w>": 7536,
      "gathering</w>": 7537,
      "ssie</w>": 7538,
      "hears</w>": 7539,
      "cards</w>": 7540,
      "cressi": 7541,
      "tul": 7542,
      "darya</w>": 7543,
      "greatness</w>": 7544,
      "collection</w>": 7545,
      "succession</w>": 7546,
      "labor</w>": 7547,
      "antiphol": 7548,
      "originally</w>": 7549,
      "spared</w>": 7550,
      "increasing</w>": 7551,
      "eighteen</w>": 7552,
      "arrangement</w>": 7553,
      "polonius</w>": 7554,
      "antipholus</w>": 7555,
      "bond</w>": 7556,
      "bounds</w>": 7557,
      "enable</w>": 7558,
      "sibility</w>": 7559,
      "copy</w>": 7560,
      "mask</w>": 7561,
      "uncommon</w>": 7562,
      "camil": 7563,
      "dumb</w>": 7564,
      "austri": 7565,
      "chanced</w>": 7566,
      "edmun": 7567,
      "barre": 7568,
      "affections</w>": 7569,
      "allowing</w>": 7570,
      "shudder</w>": 7571,
      "farmer</w>": 7572,
      "neighbour</w>": 7573,
      "julia</w>": 7574,
      "tenderly</w>": 7575,
      "assaul": 7576,
      "happier</w>": 7577,
      "edmund</w>": 7578,
      "noted</w>": 7579,
      "lian</w>": 7580,
      "deemed</w>": 7581,
      "waking</w>": 7582,
      "ading</w>": 7583,
      "shared</w>": 7584,
      "withdraw</w>": 7585,
      "cken</w>": 7586,
      "smith</w>": 7587,
      "dardan": 7588,
      "dramatic</w>": 7589,
      "generation</w>": 7590,
      "bursting</w>": 7591,
      "doubled</w>": 7592,
      "arriving</w>": 7593,
      "region</w>": 7594,
      "suspicious</w>": 7595,
      "maiden</w>": 7596,
      "occasioned</w>": 7597,
      "restless</w>": 7598,
      "desdemon": 7599,
      "dardanel": 7600,
      "desdemona</w>": 7601,
      "brac": 7602,
      "sno": 7603,
      "tread</w>": 7604,
      "zo": 7605,
      "inti": 7606,
      "repa": 7607,
      "armour</w>": 7608,
      "tile</w>": 7609,
      "dict": 7610,
      "semy": 7611,
      "leaped</w>": 7612,
      "appar": 7613,
      "lore</w>": 7614,
      "intervals</w>": 7615,
      "hunting</w>": 7616,
      "henceforth</w>": 7617,
      "pretence</w>": 7618,
      "artist</w>": 7619,
      "amusing</w>": 7620,
      "heroic</w>": 7621,
      "enthusiastic</w>": 7622,
      "middlesex</w>": 7623,
      "august</w>": 7624,
      "bewildered</w>": 7625,
      "tragic</w>": 7626,
      "emi": 7627,
      "kate</w>": 7628,
      "andon</w>": 7629,
      "inity</w>": 7630,
      "request": 7631,
      "recent</w>": 7632,
      "ensed</w>": 7633,
      "section</w>": 7634,
      "mas": 7635,
      "rays</w>": 7636,
      "event": 7637,
      "abandon</w>": 7638,
      "job</w>": 7639,
      "cannon</w>": 7640,
      "folks</w>": 7641,
      "distribu": 7642,
      "despair": 7643,
      "necessarily</w>": 7644,
      "measured</w>": 7645,
      "lessness</w>": 7646,
      "awaited</w>": 7647,
      "sharply</w>": 7648,
      "titus</w>": 7649,
      "favorite</w>": 7650,
      "esteemed</w>": 7651,
      "professional</w>": 7652,
      "emilia</w>": 7653,
      "ade": 7654,
      "alar": 7655,
      "ghorn</w>": 7656,
      "shame": 7657,
      "helpless</w>": 7658,
      "disda": 7659,
      "corners</w>": 7660,
      "intercourse</w>": 7661,
      "english": 7662,
      "southern</w>": 7663,
      "captured</w>": 7664,
      "burgh</w>": 7665,
      "intending</w>": 7666,
      "claims</w>": 7667,
      "lyn": 7668,
      "improv": 7669,
      "africa</w>": 7670,
      "clifford</w>": 7671,
      "furnish</w>": 7672,
      "salisbury</w>": 7673,
      "blowing</w>": 7674,
      "ís</w>": 7675,
      "somer": 7676,
      "ouncing</w>": 7677,
      "versed</w>": 7678,
      "worried</w>": 7679,
      "amon</w>": 7680,
      "youngest</w>": 7681,
      "corps</w>": 7682,
      "powder</w>": 7683,
      "borís</w>": 7684,
      "dromio</w>": 7685,
      "doubted</w>": 7686,
      "port": 7687,
      "approved</w>": 7688,
      "awfully</w>": 7689,
      "guarded</w>": 7690,
      "goddess</w>": 7691,
      "hostess</w>": 7692,
      "catholic</w>": 7693,
      "ean</w>": 7694,
      "fling</w>": 7695,
      "pages</w>": 7696,
      "ensu": 7697,
      "local</w>": 7698,
      "copi": 7699,
      "master": 7700,
      "irre": 7701,
      "scoun": 7702,
      "market</w>": 7703,
      "chap</w>": 7704,
      "heaps</w>": 7705,
      "mont": 7706,
      "pile</w>": 7707,
      "rink</w>": 7708,
      "charlo": 7709,
      "senior</w>": 7710,
      "occur</w>": 7711,
      "baron": 7712,
      "secretly</w>": 7713,
      "deepest</w>": 7714,
      "tyrant</w>": 7715,
      "instruments</w>": 7716,
      "bundle</w>": 7717,
      "consult</w>": 7718,
      "development</w>": 7719,
      "damned</w>": 7720,
      "cassio</w>": 7721,
      "inevitable</w>": 7722,
      "diamond</w>": 7723,
      "electri": 7724,
      "infant</w>": 7725,
      "big": 7726,
      "glow</w>": 7727,
      "praised</w>": 7728,
      "tably</w>": 7729,
      "ink</w>": 7730,
      "else": 7731,
      "mur</w>": 7732,
      "plague</w>": 7733,
      "compare</w>": 7734,
      "interval</w>": 7735,
      "breaks</w>": 7736,
      "ski": 7737,
      "seconds</w>": 7738,
      "murmur</w>": 7739,
      "assisted</w>": 7740,
      "compliment</w>": 7741,
      "responsible</w>": 7742,
      "rejoice</w>": 7743,
      "magic</w>": 7744,
      "cabin</w>": 7745,
      "venerable</w>": 7746,
      "fro</w>": 7747,
      "elsewhere</w>": 7748,
      "mand</w>": 7749,
      "wy</w>": 7750,
      "door": 7751,
      "dashed</w>": 7752,
      "femin": 7753,
      "ckled</w>": 7754,
      "surgeon</w>": 7755,
      "clay</w>": 7756,
      "expan": 7757,
      "sorrow": 7758,
      "supplied</w>": 7759,
      "intentions</w>": 7760,
      "circ": 7761,
      "obligation</w>": 7762,
      "instructions</w>": 7763,
      "lawrence</w>": 7764,
      "bachel": 7765,
      "improved</w>": 7766,
      "narrative</w>": 7767,
      "tremendous</w>": 7768,
      "pé": 7769,
      "xture</w>": 7770,
      "lodging</w>": 7771,
      "ghs</w>": 7772,
      "lain</w>": 7773,
      "raging</w>": 7774,
      "worry</w>": 7775,
      "attle</w>": 7776,
      "piano</w>": 7777,
      "suring</w>": 7778,
      "darus</w>": 7779,
      "generosity</w>": 7780,
      "banished</w>": 7781,
      "guided</w>": 7782,
      "endless</w>": 7783,
      "partner</w>": 7784,
      "pétya</w>": 7785,
      "dag": 7786,
      "grin": 7787,
      "mely</w>": 7788,
      "replaced</w>": 7789,
      "diso": 7790,
      "demonstr": 7791,
      "consented</w>": 7792,
      "verted</w>": 7793,
      "pple</w>": 7794,
      "adding</w>": 7795,
      "paradi": 7796,
      "marched</w>": 7797,
      "ffled</w>": 7798,
      "objec": 7799,
      "grasped</w>": 7800,
      "engag": 7801,
      "distru": 7802,
      "porti": 7803,
      "slavery</w>": 7804,
      "demands</w>": 7805,
      "restrained</w>": 7806,
      "gravity</w>": 7807,
      "spectacle</w>": 7808,
      "climbed</w>": 7809,
      "conspicu": 7810,
      "exalted</w>": 7811,
      "paradise</w>": 7812,
      "bby</w>": 7813,
      "cite</w>": 7814,
      "dely</w>": 7815,
      "spen": 7816,
      "thoughtful</w>": 7817,
      "sham</w>": 7818,
      "scrup": 7819,
      "estim": 7820,
      "dreaming</w>": 7821,
      "helena</w>": 7822,
      "shocked</w>": 7823,
      "harder</w>": 7824,
      "commenced</w>": 7825,
      "valour</w>": 7826,
      "indicated</w>": 7827,
      "florence</w>": 7828,
      "bennet</w>": 7829,
      "department</w>": 7830,
      "executed</w>": 7831,
      "america</w>": 7832,
      "campaign</w>": 7833,
      "prejudice</w>": 7834,
      "involuntarily</w>": 7835,
      "axe</w>": 7836,
      "dulcinea</w>": 7837,
      "cen": 7838,
      "mmed</w>": 7839,
      "pond</w>": 7840,
      "sday</w>": 7841,
      "sounding</w>": 7842,
      "elle</w>": 7843,
      "roar</w>": 7844,
      "riel</w>": 7845,
      "unfortunately</w>": 7846,
      "shwood</w>": 7847,
      "neat</w>": 7848,
      "spending</w>": 7849,
      "ades</w>": 7850,
      "heed</w>": 7851,
      "shouts</w>": 7852,
      "convent</w>": 7853,
      "glances</w>": 7854,
      "origin</w>": 7855,
      "statement</w>": 7856,
      "arrangements</w>": 7857,
      "awkward</w>": 7858,
      "wholesome</w>": 7859,
      "coriolanus</w>": 7860,
      "ash": 7861,
      "altar</w>": 7862,
      "attain</w>": 7863,
      "roses</w>": 7864,
      "conj": 7865,
      "earned</w>": 7866,
      "application</w>": 7867,
      "management</w>": 7868,
      "commer": 7869,
      "subdued</w>": 7870,
      "fog</w>": 7871,
      "halted</w>": 7872,
      "regards</w>": 7873,
      "blushed</w>": 7874,
      "resolute</w>": 7875,
      "illustrious</w>": 7876,
      "philosophers</w>": 7877,
      "encountered</w>": 7878,
      "questioned</w>": 7879,
      "faculty</w>": 7880,
      "eminent</w>": 7881,
      "marquis</w>": 7882,
      "dardanelles</w>": 7883,
      "bite</w>": 7884,
      "bred</w>": 7885,
      "dined</w>": 7886,
      "groom</w>": 7887,
      "von</w>": 7888,
      "income</w>": 7889,
      "inburgh</w>": 7890,
      "rejected</w>": 7891,
      "liking</w>": 7892,
      "demo": 7893,
      "dolly</w>": 7894,
      "feit</w>": 7895,
      "scan": 7896,
      "luck": 7897,
      "countr": 7898,
      "lantern</w>": 7899,
      "harsh</w>": 7900,
      "bay</w>": 7901,
      "stain</w>": 7902,
      "draws</w>": 7903,
      "edinburgh</w>": 7904,
      "torted</w>": 7905,
      "attendants</w>": 7906,
      "appropri": 7907,
      "protest</w>": 7908,
      "animated</w>": 7909,
      "depends</w>": 7910,
      "strongest</w>": 7911,
      "sustained</w>": 7912,
      "andrea</w>": 7913,
      "country": 7914,
      "tty</w>": 7915,
      "erect</w>": 7916,
      "orda": 7917,
      "rical</w>": 7918,
      "tically</w>": 7919,
      "raoul</w>": 7920,
      "accommo": 7921,
      "prote": 7922,
      "warned</w>": 7923,
      "chill</w>": 7924,
      "palamon</w>": 7925,
      "sale</w>": 7926,
      "invite</w>": 7927,
      "teacher</w>": 7928,
      "hospit": 7929,
      "exercised</w>": 7930,
      "chiefs</w>": 7931,
      "adored</w>": 7932,
      "tolerably</w>": 7933,
      "bitterness</w>": 7934,
      "gleam</w>": 7935,
      "rescue</w>": 7936,
      "motives</w>": 7937,
      "cruelty</w>": 7938,
      "shuddered</w>": 7939,
      "haughty</w>": 7940,
      "proteus</w>": 7941,
      "cell": 7942,
      "digni": 7943,
      "dilig": 7944,
      "shold</w>": 7945,
      "spur</w>": 7946,
      "mothers</w>": 7947,
      "faded</w>": 7948,
      "token</w>": 7949,
      "vish</w>": 7950,
      "ranean</w>": 7951,
      "puzzled</w>": 7952,
      "joys</w>": 7953,
      "monu": 7954,
      "compet": 7955,
      "small": 7956,
      "community</w>": 7957,
      "interf": 7958,
      "drag</w>": 7959,
      "despised</w>": 7960,
      "solution</w>": 7961,
      "cratic</w>": 7962,
      "resolve</w>": 7963,
      "adventur": 7964,
      "steep</w>": 7965,
      "threatening</w>": 7966,
      "occasional</w>": 7967,
      "candles</w>": 7968,
      "afforded</w>": 7969,
      "hopeless</w>": 7970,
      "grimaud</w>": 7971,
      "horizon</w>": 7972,
      "autumn</w>": 7973,
      "dignified</w>": 7974,
      "emotions</w>": 7975,
      "pec": 7976,
      "invented</w>": 7977,
      "relating</w>": 7978,
      "arm": 7979,
      "arrest</w>": 7980,
      "rob</w>": 7981,
      "mag": 7982,
      "degra": 7983,
      "conquest</w>": 7984,
      "total</w>": 7985,
      "preten": 7986,
      "ciously</w>": 7987,
      "edmond</w>": 7988,
      "borrowed</w>": 7989,
      "blifil</w>": 7990,
      "velvet</w>": 7991,
      "concerns</w>": 7992,
      "procession</w>": 7993,
      "artistic</w>": 7994,
      "russians</w>": 7995,
      "suggest</w>": 7996,
      "boldly</w>": 7997,
      "resembled</w>": 7998,
      "mourning</w>": 7999,
      "methods</w>": 8000,
      "landlady</w>": 8001,
      "conquered</w>": 8002,
      "trifle</w>": 8003,
      "cassius</w>": 8004,
      "privilege</w>": 8005,
      "solemnly</w>": 8006,
      "standard</w>": 8007,
      "charlotte</w>": 8008,
      "bits</w>": 8009,
      "bounded</w>": 8010,
      "dshire</w>": 8011,
      "gna": 8012,
      "pound</w>": 8013,
      "ras</w>": 8014,
      "ée</w>": 8015,
      "ston</w>": 8016,
      "elo</w>": 8017,
      "lov</w>": 8018,
      "saith</w>": 8019,
      "seed</w>": 8020,
      "fordshire</w>": 8021,
      "toby</w>": 8022,
      "adam</w>": 8023,
      "perman": 8024,
      "marsha": 8025,
      "certi": 8026,
      "stained</w>": 8027,
      "delicacy</w>": 8028,
      "strictly</w>": 8029,
      "angelo</w>": 8030,
      "invari": 8031,
      "impressions</w>": 8032,
      "painter</w>": 8033,
      "responded</w>": 8034,
      "mouths</w>": 8035,
      "sherlock</w>": 8036,
      "sincerely</w>": 8037,
      "resentment</w>": 8038,
      "swords</w>": 8039,
      "enius</w>": 8040,
      "armies</w>": 8041,
      "sombre</w>": 8042,
      "abrup": 8043,
      "warmly</w>": 8044,
      "beggar</w>": 8045,
      "tram</w>": 8046,
      "disgui": 8047,
      "larg": 8048,
      "cesses</w>": 8049,
      "menenius</w>": 8050,
      "sym": 8051,
      "complexion</w>": 8052,
      "sixth</w>": 8053,
      "entitled</w>": 8054,
      "dent": 8055,
      "dale</w>": 8056,
      "nin": 8057,
      "smen</w>": 8058,
      "íli</w>": 8059,
      "hate": 8060,
      "enings</w>": 8061,
      "stag": 8062,
      "tio</w>": 8063,
      "saviour</w>": 8064,
      "sire</w>": 8065,
      "whales</w>": 8066,
      "totally</w>": 8067,
      "agent</w>": 8068,
      "swallow</w>": 8069,
      "repent</w>": 8070,
      "desirable</w>": 8071,
      "grow": 8072,
      "tranqu": 8073,
      "sweat</w>": 8074,
      "isle</w>": 8075,
      "dispat": 8076,
      "weed</w>": 8077,
      "preparation</w>": 8078,
      "searching</w>": 8079,
      "vasíli</w>": 8080,
      "bourg</w>": 8081,
      "pavlovitch</w>": 8082,
      "extingu": 8083,
      "reconci": 8084,
      "hateful</w>": 8085,
      "troop</w>": 8086,
      "thra": 8087,
      "into": 8088,
      "outra": 8089,
      "onship</w>": 8090,
      "element</w>": 8091,
      "wheel</w>": 8092,
      "potent</w>": 8093,
      "musc": 8094,
      "minster</w>": 8095,
      "stiff": 8096,
      "corn</w>": 8097,
      "itute</w>": 8098,
      "temptation</w>": 8099,
      "church": 8100,
      "softened</w>": 8101,
      "compliments</w>": 8102,
      "stirring</w>": 8103,
      "convenience</w>": 8104,
      "telemachus</w>": 8105,
      "attentively</w>": 8106,
      "released</w>": 8107,
      "westminster</w>": 8108,
      "eloquence</w>": 8109,
      "inspector</w>": 8110,
      "acade": 8111,
      "odious</w>": 8112,
      "inly</w>": 8113,
      "reno": 8114,
      "onto</w>": 8115,
      "noir": 8116,
      "lect</w>": 8117,
      "cader": 8118,
      "frowning</w>": 8119,
      "peril</w>": 8120,
      "petru": 8121,
      "mono": 8122,
      "chio</w>": 8123,
      "minous</w>": 8124,
      "dismissed</w>": 8125,
      "ousse</w>": 8126,
      "honesty</w>": 8127,
      "bells</w>": 8128,
      "remainder</w>": 8129,
      "ella</w>": 8130,
      "grieve</w>": 8131,
      "display</w>": 8132,
      "planted</w>": 8133,
      "intellect</w>": 8134,
      "pandarus</w>": 8135,
      "fountain</w>": 8136,
      "clergy": 8137,
      "blank</w>": 8138,
      "contrived</w>": 8139,
      "noirtier</w>": 8140,
      "caderousse</w>": 8141,
      "petruchio</w>": 8142,
      "jamin</w>": 8143,
      "nou": 8144,
      "annu": 8145,
      "inches</w>": 8146,
      "ertes</w>": 8147,
      "laertes</w>": 8148,
      "rum": 8149,
      "gious</w>": 8150,
      "impri": 8151,
      "breach</w>": 8152,
      "seeks</w>": 8153,
      "genial</w>": 8154,
      "classes</w>": 8155,
      "crimes</w>": 8156,
      "crimson</w>": 8157,
      "perish</w>": 8158,
      "lett</w>": 8159,
      "benjamin</w>": 8160,
      "faculties</w>": 8161,
      "calculated</w>": 8162,
      "paul</w>": 8163,
      "refrain</w>": 8164,
      "em</w>": 8165,
      "gloves</w>": 8166,
      "plot</w>": 8167,
      "stately</w>": 8168,
      "bee": 8169,
      "mixture</w>": 8170,
      "tavern</w>": 8171,
      "chers</w>": 8172,
      "vio": 8173,
      "bowing</w>": 8174,
      "scent</w>": 8175,
      "minable</w>": 8176,
      "corri": 8177,
      "root</w>": 8178,
      "clasps</w>": 8179,
      "curtains</w>": 8180,
      "foes</w>": 8181,
      "sanio</w>": 8182,
      "promises</w>": 8183,
      "bleeding</w>": 8184,
      "spain</w>": 8185,
      "wonderfully</w>": 8186,
      "production</w>": 8187,
      "fruits</w>": 8188,
      "prof</w>": 8189,
      "hastings</w>": 8190,
      "pavement</w>": 8191,
      "subsequent</w>": 8192,
      "vexed</w>": 8193,
      "ecstasy</w>": 8194,
      "contemplation</w>": 8195,
      "parliament</w>": 8196,
      "aspir": 8197,
      "effi": 8198,
      "gha": 8199,
      "sne": 8200,
      "scare": 8201,
      "vou": 8202,
      "instan": 8203,
      "before": 8204,
      "rival</w>": 8205,
      "decre": 8206,
      "posure</w>": 8207,
      "selected</w>": 8208,
      "ash</w>": 8209,
      "morcer": 8210,
      "prophe": 8211,
      "parent</w>": 8212,
      "therly</w>": 8213,
      "undertook</w>": 8214,
      "solved</w>": 8215,
      "reasoning</w>": 8216,
      "indescri": 8217,
      "identi": 8218,
      "couch</w>": 8219,
      "remarkably</w>": 8220,
      "operation</w>": 8221,
      "delu": 8222,
      "writes</w>": 8223,
      "convince</w>": 8224,
      "football</w>": 8225,
      "indulge</w>": 8226,
      "dwelt</w>": 8227,
      "earliest</w>": 8228,
      "neighborhood</w>": 8229,
      "weighed</w>": 8230,
      "scarecrow</w>": 8231,
      "beforehand</w>": 8232,
      "morcerf</w>": 8233,
      "eh</w>": 8234,
      "flatter</w>": 8235,
      "dimin": 8236,
      "costu": 8237,
      "formal</w>": 8238,
      "spy</w>": 8239,
      "tasted</w>": 8240,
      "mpled</w>": 8241,
      "adap": 8242,
      "damn</w>": 8243,
      "jump</w>": 8244,
      "marcus</w>": 8245,
      "clung</w>": 8246,
      "collar</w>": 8247,
      "bids</w>": 8248,
      "transport</w>": 8249,
      "threshold</w>": 8250,
      "leton</w>": 8251,
      "kinghorn</w>": 8252,
      "justify</w>": 8253,
      "preparations</w>": 8254,
      "ministers</w>": 8255,
      "opportunities</w>": 8256,
      "steadily</w>": 8257,
      "struggled</w>": 8258,
      "adorned</w>": 8259,
      "energe": 8260,
      "indulged</w>": 8261,
      "alogue</w>": 8262,
      "reveal</w>": 8263,
      "tulkinghorn</w>": 8264,
      "kol": 8265,
      "pir": 8266,
      "infinitely</w>": 8267,
      "diff": 8268,
      "rably</w>": 8269,
      "unconsciously</w>": 8270,
      "urge</w>": 8271,
      "earn</w>": 8272,
      "selfe</w>": 8273,
      "project</w>": 8274,
      "composition</w>": 8275,
      "lowed</w>": 8276,
      "tedious</w>": 8277,
      "imitation</w>": 8278,
      "corpor": 8279,
      "offend</w>": 8280,
      "whereupon</w>": 8281,
      "govern</w>": 8282,
      "crazy</w>": 8283,
      "residence</w>": 8284,
      "centu": 8285,
      "converted</w>": 8286,
      "fyodoro": 8287,
      "limits</w>": 8288,
      "gallantly</w>": 8289,
      "qualified</w>": 8290,
      "serene</w>": 8291,
      "gregor</w>": 8292,
      "moonlight</w>": 8293,
      "fence</w>": 8294,
      "ix</w>": 8295,
      "imo": 8296,
      "lur": 8297,
      "hay</w>": 8298,
      "stated</w>": 8299,
      "vow</w>": 8300,
      "navy</w>": 8301,
      "berowne</w>": 8302,
      "winning</w>": 8303,
[...]
