{
  "version": "1.0",
  "truncation": null,
  "padding": null,
  "added_tokens": [],
  "normalizer": null,
  "pre_tokenizer": {
    "type": "Whitespace"
  },
  "post_processor": null,
  "decoder": null,
  "model": {
    "type": "BPE",
    "dropout": null,
    "unk_token": null,
    "continuing_subword_prefix": null,
    "end_of_word_suffix": "</w>",
    "fuse_unk": false,
    "vocab": {
      "!": 0,
      "\"": 1,
      "#": 2,
      "$": 3,
      "%": 4,
      "&": 5,
      "'": 6,
      "(": 7,
      ")": 8,
      "*": 9,
      "+": 10,
      ",": 11,
      "-": 12,
      ".": 13,
      "/": 14,
      "0": 15,
      "1": 16,
      "2": 17,
      "3": 18,
      "4": 19,
      "5": 20,
      "6": 21,
      "7": 22,
      "8": 23,
      "9": 24,
      ":": 25,
      ";": 26,
      "<": 27,
      "=": 28,
      ">": 29,
      "?": 30,
      "A": 31,
      "B": 32,
      "C": 33,
      "D": 34,
      "E": 35,
      "F": 36,
      "G": 37,
      "H": 38,
      "I": 39,
      "J": 40,
      "K": 41,
      "L": 42,
      "M": 43,
      "N": 44,
      "O": 45,
      "P": 46,
      "Q": 47,
      "R": 48,
      "S": 49,
      "T": 50,
      "U": 51,
      "V": 52,
      "W": 53,
      "X": 54,
      "Y": 55,
      "Z": 56,
      "[": 57,
      "]": 58,
      "^": 59,
      "_": 60,
      "`": 61,
      "a": 62,
      "b": 63,
      "c": 64,
      "d": 65,
      "e": 66,
      "f": 67,
      "g": 68,
      "h": 69,
      "i": 70,
      "j": 71,
      "k": 72,
      "l": 73,
      "m": 74,
      "n": 75,
      "o": 76,
      "p": 77,
      "q": 78,
      "r": 79,
      "s": 80,
      "t": 81,
      "u": 82,
      "v": 83,
      "w": 84,
      "x": 85,
      "y": 86,
      "z": 87,
      "{": 88,
      "|": 89,
      "}": 90,
      "~": 91,
      "": 92,
      "": 93,
      "": 94,
      "": 95,
      "": 96,
      "": 97,
      "": 98,
      "": 99,
      "": 100,
      "": 101,
      "": 102,
      "": 103,
      "": 104,
      "": 105,
      "": 106,
      "": 107,
      "": 108,
      "": 109,
      "": 110,
      "": 111,
      "": 112,
      "": 113,
      "": 114,
      "": 115,
      "": 116,
      "": 117,
      "": 118,
      "": 119,
      "": 120,
      "": 121,
      "": 122,
      "¡": 123,
      "¢": 124,
      "£": 125,
      "¤": 126,
      "¥": 127,
      "¦": 128,
      "§": 129,
      "¨": 130,
      "©": 131,
      "ª": 132,
      "«": 133,
      "¬": 134,
      "­": 135,
      "®": 136,
      "¯": 137,
      "°": 138,
      "±": 139,
      "²": 140,
      "³": 141,
      "´": 142,
      "µ": 143,
      "¶": 144,
      "·": 145,
      "¸": 146,
      "¹": 147,
      "º": 148,
      "»": 149,
      "¼": 150,
      "½": 151,
      "¾": 152,
      "¿": 153,
      "Â": 154,
      "Ã": 155,
      "Ä": 156,
      "Å": 157,
      "Ì": 158,
      "Î": 159,
      "Ï": 160,
      "×": 161,
      "á": 162,
      "â": 163,
      "P</w>": 164,
      "s</w>": 165,
      "e</w>": 166,
      "N</w>": 167,
      "â</w>": 168,
      "h</w>": 169,
      "9</w>": 170,
      "n</w>": 171,
      "m</w>": 172,
      "g</w>": 173,
      "_</w>": 174,
      "t</w>": 175,
      "r</w>": 176,
      "l</w>": 177,
      "7</w>": 178,
      "i</w>": 179,
      "y</w>": 180,
      "3</w>": 181,
      "E</w>": 182,
      "a</w>": 183,
      "R</w>": 184,
      "c</w>": 185,
      "4</w>": 186,
      "d</w>": 187,
      "T</w>": 188,
      "A</w>": 189,
      "v</w>": 190,
      "D</w>": 191,
      "S</w>": 192,
      "o</w>": 193,
      "w</w>": 194,
      "p</w>": 195,
      "Ã</w>": 196,
      "1</w>": 197,
      "z</w>": 198,
      "k</w>": 199,
      "6</w>": 200,
      "f</w>": 201,
      "x</w>": 202,
      "Y</w>": 203,
      "L</w>": 204,
      "8</w>": 205,
      "K</w>": 206,
      "I</w>": 207,
      "X</w>": 208,
      "2</w>": 209,
      "0</w>": 210,
      "V</w>": 211,
      "u</w>": 212,
      "G</w>": 213,
      "*</w>": 214,
      "</w>": 215,
      "º</w>": 216,
      "F</w>": 217,
      "5</w>": 218,
      ":</w>": 219,
      ";</w>": 220,
      "C</w>": 221,
      "U</w>": 222,
      "O</w>": 223,
      "H</w>": 224,
      ".</w>": 225,
      "-</w>": 226,
      "?</w>": 227,
      "M</w>": 228,
      "\"</w>": 229,
      "b</w>": 230,
      "'</w>": 231,
      "]</w>": 232,
      ")</w>": 233,
      "</w>": 234,
      "W</w>": 235,
      "</w>": 236,
      "Z</w>": 237,
      ",</w>": 238,
      "B</w>": 239,
      "Ï</w>": 240,
      "Â</w>": 241,
      "Î</w>": 242,
      "$</w>": 243,
      "&</w>": 244,
      "q</w>": 245,
      "%</w>": 246,
      "»</w>": 247,
      "°</w>": 248,
      "Ä</w>": 249,
      "#</w>": 250,
      "Å</w>": 251,
      "</w>": 252,
      "/</w>": 253,
      "·</w>": 254,
      "(</w>": 255,
      "[</w>": 256,
      "</w>": 257,
      "</w>": 258,
      "}</w>": 259,
      "ª</w>": 260,
      "+</w>": 261,
      "!</w>": 262,
      "=</w>": 263,
      "±</w>": 264,
      "~</w>": 265,
      "J</w>": 266,
      "</w>": 267,
      "</w>": 268,
      "¥</w>": 269,
      "®</w>": 270,
      "</w>": 271,
      "|</w>": 272,
      "¼</w>": 273,
      "µ</w>": 274,
      "<</w>": 275,
      "</w>": 276,
      "</w>": 277,
      "¦</w>": 278,
      "¸</w>": 279,
      "</w>": 280,
      "¤</w>": 281,
      "</w>": 282,
      "¬</w>": 283,
      "</w>": 284,
      "</w>": 285,
      "</w>": 286,
      "²</w>": 287,
      "</w>": 288,
      "¢</w>": 289,
      "</w>": 290,
      "¡</w>": 291,
      "j</w>": 292,
      "{</w>": 293,
      "³</w>": 294,
      "§</w>": 295,
      "Ì</w>": 296,
      "</w>": 297,
      "</w>": 298,
      "</w>": 299,
      "¿</w>": 300,
      "á</w>": 301,
      "`</w>": 302,
      "©</w>": 303,
      "´</w>": 304,
      "¶</w>": 305,
      "</w>": 306,
      "</w>": 307,
      "«</w>": 308,
      "></w>": 309,
      "£</w>": 310,
      "¹</w>": 311,
      "</w>": 312,
      "</w>": 313,
      "</w>": 314,
      "¯</w>": 315,
      "</w>": 316,
      "</w>": 317,
      "</w>": 318,
      "½</w>": 319,
      "</w>": 320,
      "­</w>": 321,
      "¨</w>": 322,
      "¾</w>": 323,
      "</w>": 324,
      "Q</w>": 325,
      "th": 326,
      "an": 327,
      "in": 328,
      "the</w>": 329,
      "ed</w>": 330,
      "er": 331,
      "ou": 332,
      "and</w>": 333,
      "er</w>": 334,
      "of</w>": 335,
      "re": 336,
      "to</w>": 337,
      "hi": 338,
      "ar": 339,
      "en": 340,
      "on": 341,
      "ing</w>": 342,
      "ha": 343,
      "or": 344,
      "it": 345,
      "in</w>": 346,
      "at</w>": 347,
      "he</w>": 348,
      "on</w>": 349,
      "st": 350,
      "as</w>": 351,
      "at": 352,
      "al": 353,
      "el": 354,
      "en</w>": 355,
      "or</w>": 356,
      "es</w>": 357,
      "ro": 358,
      "me</w>": 359,
      "no": 360,
      "is</w>": 361,
      "st</w>": 362,
      "ea": 363,
      "that</w>": 364,
      "ly</w>": 365,
      "</w>": 366,
      "was</w>": 367,
      "</w>": 368,
      "ri": 369,
      "his</w>": 370,
      "ve</w>": 371,
      "an</w>": 372,
      "</w>": 373,
      "it</w>": 374,
      "ch</w>": 375,
      "il": 376,
      "the": 377,
      "ce</w>": 378,
      "be": 379,
      "se</w>": 380,
      "li": 381,
      "le</w>": 382,
      "ou</w>": 383,
      "ti": 384,
      "lo": 385,
      "ur": 386,
      "ld</w>": 387,
      "ith</w>": 388,
      "sa": 389,
      "wh": 390,
      "si": 391,
      "di": 392,
      "ere</w>": 393,
      "gh": 394,
      "with</w>": 395,
      "la": 396,
      "le": 397,
      "co": 398,
      "un": 399,
      "ut</w>": 400,
      "you</w>": 401,
      "se": 402,
      "ra": 403,
      "for</w>": 404,
      "not</w>": 405,
      "had</w>": 406,
      "her</w>": 407,
      "ev": 408,
      "ma": 409,
      "sh": 410,
      "my</w>": 411,
      "ent</w>": 412,
      "whi": 413,
      "de": 414,
      "ch": 415,
      "su": 416,
      "be</w>": 417,
      "ss</w>": 418,
      "ould</w>": 419,
      "oo": 420,
      "ght</w>": 421,
      "po": 422,
      "ther</w>": 423,
      "all</w>": 424,
      "so": 425,
      "ac": 426,
      "him</w>": 427,
      "oun": 428,
      "con": 429,
      "our</w>": 430,
      "ca": 431,
      "ir": 432,
      "one</w>": 433,
      "ne": 434,
      "by</w>": 435,
      "for": 436,
      "ab": 437,
      "sp": 438,
      "have</w>": 439,
      "ke</w>": 440,
      "out</w>": 441,
      "id</w>": 442,
      "which</w>": 443,
      "th</w>": 444,
      "ow": 445,
      "ati": 446,
      "but</w>": 447,
      "ver": 448,
      "ill</w>": 449,
      "mp": 450,
      "ta": 451,
      "mo": 452,
      "hat</w>": 453,
      "so</w>": 454,
      "The</w>": 455,
      "ent": 456,
      "she</w>": 457,
      "ds</w>": 458,
      "wa": 459,
      "fa": 460,
      "qu": 461,
      "ir</w>": 462,
      "me": 463,
      "this</w>": 464,
      "rom</w>": 465,
      "ter</w>": 466,
      "ear": 467,
      "sel": 468,
      "are</w>": 469,
      "de</w>": 470,
      "ex": 471,
      "ag": 472,
      "from</w>": 473,
      "as": 474,
      "Th": 475,
      "is": 476,
      "</w>": 477,
      "pp": 478,
      "al</w>": 479,
      "et</w>": 480,
      "ec": 481,
      "ted</w>": 482,
      "said</w>": 483,
      "ru": 484,
      "ic": 485,
      "ho": 486,
      "ers</w>": 487,
      "ad": 488,
      "man</w>": 489,
      "An": 490,
      "mu": 491,
      "they</w>": 492,
      "ing": 493,
      "now</w>": 494,
      "mor": 495,
      "wor": 496,
      "ll</w>": 497,
      "were</w>": 498,
      "ell</w>": 499,
      "He</w>": 500,
      "wi": 501,
      "da": 502,
      "fu": 503,
      "gh</w>": 504,
      "ce": 505,
      "to": 506,
      "do": 507,
      "ts</w>": 508,
      "self</w>": 509,
      "pre": 510,
      "ff": 511,
      "ge</w>": 512,
      "pro": 513,
      "who</w>": 514,
      "ation</w>": 515,
      "ter": 516,
      "thing</w>": 517,
      "ol": 518,
      "sed</w>": 519,
      "per": 520,
      "And</w>": 521,
      "would</w>": 522,
      "them</w>": 523,
      "ear</w>": 524,
      "us</w>": 525,
      "will</w>": 526,
      "bo": 527,
      "ood</w>": 528,
      "ever</w>": 529,
      "mi": 530,
      "no</w>": 531,
      "own</w>": 532,
      "ate</w>": 533,
      "ous</w>": 534,
      "tion</w>": 535,
      "our": 536,
      "any</w>": 537,
      "we</w>": 538,
      "ran": 539,
      "what</w>": 540,
      "their</w>": 541,
      "ure</w>": 542,
      "when</w>": 543,
      "ough</w>": 544,
      "king</w>": 545,
      "your</w>": 546,
      "there</w>": 547,
      "ons</w>": 548,
      "ked</w>": 549,
      "loo": 550,
      "led</w>": 551,
      "if</w>": 552,
      "been</w>": 553,
      "op": 554,
      "ded</w>": 555,
      "ity</w>": 556,
      "up</w>": 557,
      "ty</w>": 558,
      "ci": 559,
      "der</w>": 560,
      "mb": 561,
      "lea": 562,
      "ence</w>": 563,
      "go": 564,
      "vi": 565,
      "min": 566,
      "gre": 567,
      "fe": 568,
      "par": 569,
      "ment</w>": 570,
      "fi": 571,
      "more</w>": 572,
      "do</w>": 573,
      "other</w>": 574,
      "der": 575,
      "com": 576,
      "rea": 577,
      "ved</w>": 578,
      "gi": 579,
      "ong</w>": 580,
      "tw": 581,
      "ound</w>": 582,
      "ant</w>": 583,
      "sha": 584,
      "te": 585,
      "lu": 586,
      "very</w>": 587,
      "te</w>": 588,
      "way</w>": 589,
      "du": 590,
      "But</w>": 591,
      "ni": 592,
      "ry</w>": 593,
      "up": 594,
      "ver</w>": 595,
      "some</w>": 596,
      "itt": 597,
      "af": 598,
      "ys</w>": 599,
      "could</w>": 600,
      "ser": 601,
      "pa": 602,
      "sc": 603,
      "ding</w>": 604,
      "into</w>": 605,
      "able</w>": 606,
      "est": 607,
      "gu": 608,
      "ble</w>": 609,
      "ss": 610,
      "then</w>": 611,
      "fe</w>": 612,
      "fore</w>": 613,
      "time</w>": 614,
      "ck</w>": 615,
      "ard</w>": 616,
      "like</w>": 617,
      "pla": 618,
      "did</w>": 619,
      "tur": 620,
      "ance</w>": 621,
      "fir": 622,
      "ought</w>": 623,
      "19": 624,
      "ely</w>": 625,
      "ul": 626,
      "ee": 627,
      "med</w>": 628,
      "ga": 629,
      "iti": 630,
      "Wh": 631,
      "hea": 632,
      "hear": 633,
      "than</w>": 634,
      "ine</w>": 635,
      "who": 636,
      "man": 637,
      "am</w>": 638,
      "It</w>": 639,
      "aga": 640,
      "men</w>": 641,
      "ving</w>": 642,
      "ten": 643,
      "only</w>": 644,
      "about</w>": 645,
      "come</w>": 646,
      "ting</w>": 647,
      "ks</w>": 648,
      "ju": 649,
      "ings</w>": 650,
      "know</w>": 651,
      "dy</w>": 652,
      "ever": 653,
      "ful</w>": 654,
      "good</w>": 655,
      "ally</w>": 656,
      "ind</w>": 657,
      "ssi": 658,
      "ittle</w>": 659,
      "most</w>": 660,
      "see": 661,
      "has</w>": 662,
      "such</w>": 663,
      "pe": 664,
      "ey": 665,
      "day</w>": 666,
      "little</w>": 667,
      "app": 668,
      "end</w>": 669,
      "its</w>": 670,
      "with": 671,
      "see</w>": 672,
      "should</w>": 673,
      "low": 674,
      "upon</w>": 675,
      "mon": 676,
      "re</w>": 677,
      "est</w>": 678,
      "ey</w>": 679,
      "ary</w>": 680,
      "dre": 681,
      "him": 682,
      "comp": 683,
      "pri": 684,
      "sw": 685,
      "use</w>": 686,
      "ther": 687,
      "ned</w>": 688,
      "ning</w>": 689,
      "chi": 690,
      "made</w>": 691,
      "ves</w>": 692,
      "well</w>": 693,
      "ated</w>": 694,
      "ren": 695,
      "ie": 696,
      "ness</w>": 697,
      "of": 698,
      "tho": 699,
      "before</w>": 700,
      "ow</w>": 701,
      "ling</w>": 702,
      "ite</w>": 703,
      "ying</w>": 704,
      "came</w>": 705,
      "Mr</w>": 706,
      "can</w>": 707,
      "over</w>": 708,
      "must</w>": 709,
      "much</w>": 710,
      "ms</w>": 711,
      "bu": 712,
      "eâ</w>": 713,
      "fri": 714,
      "ered</w>": 715,
      "pt</w>": 716,
      "himself</w>": 717,
      "tra": 718,
      "say</w>": 719,
      "two</w>": 720,
      "191": 721,
      "ried</w>": 722,
      "old</w>": 723,
      "where</w>": 724,
      "ook</w>": 725,
      "coun": 726,
      "ined</w>": 727,
      "les</w>": 728,
      "shall</w>": 729,
      "--</w>": 730,
      "na": 731,
      "ge": 732,
      "mar": 733,
      "go</w>": 734,
      "ous": 735,
      "son</w>": 736,
      "may</w>": 737,
      "thin": 738,
      "down</w>": 739,
      "shi": 740,
      "She</w>": 741,
      "ob": 742,
      "ps</w>": 743,
      "red</w>": 744,
      "never</w>": 745,
      "first</w>": 746,
      "great</w>": 747,
      "You</w>": 748,
      "dis": 749,
      "ess</w>": 750,
      "lan": 751,
      "how</w>": 752,
      "went</w>": 753,
      "roo": 754,
      "after</w>": 755,
      "onâ</w>": 756,
      "low</w>": 757,
      "mil": 758,
      "att": 759,
      "ect</w>": 760,
      "rin": 761,
      "cu": 762,
      "han": 763,
      "ced</w>": 764,
      "tly</w>": 765,
      "What</w>": 766,
      "some": 767,
      "these</w>": 768,
      "tre": 769,
      "In</w>": 770,
      "again</w>": 771,
      ".,</w>": 772,
      "ft</w>": 773,
      "being</w>": 774,
      "shed</w>": 775,
      "tru": 776,
      "ack</w>": 777,
      "ath</w>": 778,
      "though</w>": 779,
      "..": 780,
      "kno": 781,
      "mes</w>": 782,
      "bel": 783,
      "too</w>": 784,
      "hu": 785,
      "18": 786,
      "thy</w>": 787,
      "row": 788,
      "ck": 789,
      "beg": 790,
      "im": 791,
      "ster</w>": 792,
      "without</w>": 793,
      "ged</w>": 794,
      "here</w>": 795,
      "jo": 796,
      "ice</w>": 797,
      "Iâ</w>": 798,
      "ouse</w>": 799,
      "sh</w>": 800,
      "ears</w>": 801,
      "ven</w>": 802,
      "life</w>": 803,
      "make</w>": 804,
      "those</w>": 805,
      "tter</w>": 806,
      "new</w>": 807,
      "can": 808,
      "pres": 809,
      "gra": 810,
      "</w>": 811,
      "her": 812,
      "tu": 813,
      "Co": 814,
      "wo": 815,
      "ree</w>": 816,
      "sion</w>": 817,
      "thought</w>": 818,
      "age</w>": 819,
      "cer": 820,
      "long</w>": 821,
      "ger</w>": 822,
      "fel": 823,
      "imp": 824,
      "cal": 825,
      "dly</w>": 826,
      "pos": 827,
      "ls</w>": 828,
      "Ma": 829,
      "know": 830,
      "hand</w>": 831,
      "less</w>": 832,
      "eyes</w>": 833,
      "str": 834,
      "Ro": 835,
      "thr": 836,
      "et": 837,
      "el</w>": 838,
      "might</w>": 839,
      "sin": 840,
      "think</w>": 841,
      "head</w>": 842,
      "pu": 843,
      "off": 844,
      "ents</w>": 845,
      "even</w>": 846,
      "cre": 847,
      "clo": 848,
      "happ": 849,
      "my": 850,
      "side</w>": 851,
      "war": 852,
      "Mar": 853,
      "No</w>": 854,
      "dd": 855,
      "),</w>": 856,
      "car": 857,
      "vo": 858,
      "away</w>": 859,
      "thou</w>": 860,
      "mis": 861,
      "mer": 862,
      "Ca": 863,
      "sta": 864,
      "same</w>": 865,
      "cor": 866,
      "To</w>": 867,
      "il</w>": 868,
      "let</w>": 869,
      "br": 870,
      "ish</w>": 871,
      "bro": 872,
      "night</w>": 873,
      "off</w>": 874,
      "cause</w>": 875,
      "gn": 876,
      "cont": 877,
      "take</w>": 878,
      "pas": 879,
      "back</w>": 880,
      "hel": 881,
      "tâ</w>": 882,
      "still</w>": 883,
      "read": 884,
      "ces</w>": 885,
      "every</w>": 886,
      "while</w>": 887,
      "ort</w>": 888,
      "ched</w>": 889,
      "nâ</w>": 890,
      "love</w>": 891,
      "nothing</w>": 892,
      "cha": 893,
      "sur": 894,
      "sâ</w>": 895,
      "That</w>": 896,
      "Go": 897,
      "res</w>": 898,
      "This</w>": 899,
      "house</w>": 900,
      "last</w>": 901,
      "pe</w>": 902,
      "youn": 903,
      "right</w>": 904,
      "ei": 905,
      "through</w>": 906,
      "tain</w>": 907,
      "tal": 908,
      "just</w>": 909,
      "cei": 910,
      "fol": 911,
      "ything</w>": 912,
      "Ch": 913,
      "ken</w>": 914,
      "cl": 915,
      "ct</w>": 916,
      "plea": 917,
      "took</w>": 918,
      "face</w>": 919,
      "yet</w>": 920,
      "ion</w>": 921,
      "ner</w>": 922,
      "inter": 923,
      "ways</w>": 924,
      "room</w>": 925,
      "oc": 926,
      "under": 927,
      "ad</w>": 928,
      "wr": 929,
      "many</w>": 930,
      "give</w>": 931,
      "dea": 932,
      "ened</w>": 933,
      "char": 934,
      "del": 935,
      "once</w>": 936,
      "round</w>": 937,
      "brea": 938,
      "Se": 939,
      "stan": 940,
      "rep": 941,
      "No": 942,
      "They</w>": 943,
      "sk": 944,
      "sure</w>": 945,
      "turned</w>": 946,
      "young</w>": 947,
      "comm": 948,
      "au": 949,
      "cy</w>": 950,
      "ne</w>": 951,
      "saw</w>": 952,
      "For</w>": 953,
      "cour": 954,
      "another</w>": 955,
      "get</w>": 956,
      "left</w>": 957,
      "dist": 958,
      "lor": 959,
      "ition</w>": 960,
      "En": 961,
      "am": 962,
      "found</w>": 963,
      "een</w>": 964,
      "tell</w>": 965,
      "sen": 966,
      "under</w>": 967,
      "sto": 968,
      "ses</w>": 969,
      "Then</w>": 970,
      "nat": 971,
      "As</w>": 972,
      "place</w>": 973,
      "If</w>": 974,
      "fac": 975,
      "AR": 976,
      "hor": 977,
      "ious</w>": 978,
      "answ": 979,
      "stor": 980,
      "His</w>": 981,
      "gen": 982,
      "yâ</w>": 983,
      "heart</w>": 984,
      "spec": 985,
      "ins</w>": 986,
      "gent": 987,
      "dâ</w>": 988,
      "tt": 989,
      "wat": 990,
      "ople</w>": 991,
      "Jo": 992,
      "ugh": 993,
      "land</w>": 994,
      "There</w>": 995,
      "Al": 996,
      "When</w>": 997,
      "things</w>": 998,
      "ven": 999,
      "cla": 1000,
      "myself</w>": 1001,
      "always</w>": 1002,
      "put</w>": 1003,
      "es": 1004,
      "lat": 1005,
      "sing</w>": 1006,
      "spea": 1007,
      "We</w>": 1008,
      "ations</w>": 1009,
      "My</w>": 1010,
      "sti": 1011,
      "whom</w>": 1012,
      "poin": 1013,
      "pi": 1014,
      "sub": 1015,
      "got</w>": 1016,
      "looked</w>": 1017,
      "part</w>": 1018,
      "light</w>": 1019,
      "mat": 1020,
      "fo": 1021,
      "rs</w>": 1022,
      "dge</w>": 1023,
      "ep</w>": 1024,
      "heard</w>": 1025,
      "seemed</w>": 1026,
      "people</w>": 1027,
      "dra": 1028,
      "mber</w>": 1029,
      "look</w>": 1030,
      "wife</w>": 1031,
      "tor": 1032,
      "Mi": 1033,
      "father</w>": 1034,
      "mind</w>": 1035,
      "three</w>": 1036,
      "tun": 1037,
      "row</w>": 1038,
      "van": 1039,
      "fin": 1040,
      "1914</w>": 1041,
      "cur": 1042,
      "sil": 1043,
      "thee</w>": 1044,
      "ean</w>": 1045,
      "ans</w>": 1046,
      "inst</w>": 1047,
      "going</w>": 1048,
      "chan": 1049,
      "tri": 1050,
      "exp": 1051,
      "bed</w>": 1052,
      "Ar": 1053,
      "bur": 1054,
      "God</w>": 1055,
      "cal</w>": 1056,
      "sted</w>": 1057,
      "TH": 1058,
      "AN": 1059,
      "ready</w>": 1060,
      "rou": 1061,
      "ful": 1062,
      "bea": 1063,
      "Re": 1064,
      "donâ</w>": 1065,
      "Be": 1066,
      "Mrs</w>": 1067,
      "hon": 1068,
      "because</w>": 1069,
      "asked</w>": 1070,
      "ently</w>": 1071,
      "din": 1072,
      "something</w>": 1073,
      "ph": 1074,
      "men": 1075,
      "also</w>": 1076,
      "ut": 1077,
      "world</w>": 1078,
      "hal": 1079,
      "try</w>": 1080,
      "diff": 1081,
      "action</w>": 1082,
      "began</w>": 1083,
      "done</w>": 1084,
      "told</w>": 1085,
      "times</w>": 1086,
      "sol": 1087,
      "ssed</w>": 1088,
      "EN": 1089,
      "dar": 1090,
      "against</w>": 1091,
      "both</w>": 1092,
      "ments</w>": 1093,
      "door</w>": 1094,
      "don</w>": 1095,
      "having</w>": 1096,
      "lar": 1097,
      "har": 1098,
      "nor</w>": 1099,
      "temp": 1100,
      "ER": 1101,
      "itu": 1102,
      "ber": 1103,
      "=,</w>": 1104,
      "In": 1105,
      "word</w>": 1106,
      "wal": 1107,
      "IN": 1108,
      "lost</w>": 1109,
      "body</w>": 1110,
      "ards</w>": 1111,
      "ction</w>": 1112,
      "inst": 1113,
      "oul": 1114,
      "ten</w>": 1115,
      "ward</w>": 1116,
      "whole</w>": 1117,
      "pra": 1118,
      "spo": 1119,
      "felt</w>": 1120,
      "illed</w>": 1121,
      "col": 1122,
      "Yes</w>": 1123,
      "win": 1124,
      "dear</w>": 1125,
      "seen</w>": 1126,
      "set</w>": 1127,
      "id": 1128,
      "So</w>": 1129,
      "sm": 1130,
      "turn</w>": 1131,
      "words</w>": 1132,
      "better</w>": 1133,
      "ke": 1134,
      "name</w>": 1135,
      "tow": 1136,
      "hands</w>": 1137,
      "ening</w>": 1138,
      "tions</w>": 1139,
      "pow": 1140,
      "ig": 1141,
      "sir</w>": 1142,
      "ali": 1143,
      "work</w>": 1144,
      "pur": 1145,
      "rest</w>": 1146,
      "each</w>": 1147,
      "kee": 1148,
      "stand</w>": 1149,
      "stre": 1150,
      "len": 1151,
      "lied</w>": 1152,
      "outh</w>": 1153,
      "ies</w>": 1154,
      "ship</w>": 1155,
      "Well</w>": 1156,
      "ba": 1157,
      "cap": 1158,
      "eal": 1159,
      "At</w>": 1160,
      "hun": 1161,
      "soon</w>": 1162,
      "called</w>": 1163,
      "ours</w>": 1164,
      "des</w>": 1165,
      "thers</w>": 1166,
      "quite</w>": 1167,
      "ssion</w>": 1168,
      "knew</w>": 1169,
      "woman</w>": 1170,
      "deed</w>": 1171,
      "dou": 1172,
      "years</w>": 1173,
      "mother</w>": 1174,
      "stood</w>": 1175,
      "ool</w>": 1176,
      "consi": 1177,
      "desi": 1178,
      "int": 1179,
      "bor": 1180,
      "ene": 1181,
      "moment</w>": 1182,
      "possi": 1183,
      "gave</w>": 1184,
      "death</w>": 1185,
      "pose</w>": 1186,
      "ang": 1187,
      "How</w>": 1188,
      "find</w>": 1189,
      "friend</w>": 1190,
      "far</w>": 1191,
      "ron": 1192,
      "Ha": 1193,
      "home</w>": 1194,
      "follow": 1195,
      "yed</w>": 1196,
      "Why</w>": 1197,
      "frien": 1198,
      "bla": 1199,
      "Qu": 1200,
      "pped</w>": 1201,
      "gener": 1202,
      "ture</w>": 1203,
      "igh": 1204,
      "tor</w>": 1205,
      "selves</w>": 1206,
      "ited</w>": 1207,
      "reas": 1208,
      "recei": 1209,
      "Oh</w>": 1210,
      "ery</w>": 1211,
      "gir": 1212,
      "fre": 1213,
      "mm": 1214,
      "Ex": 1215,
      "smil": 1216,
      "read</w>": 1217,
      "chil": 1218,
      "tween</w>": 1219,
      "bri": 1220,
      "lon": 1221,
      "ur</w>": 1222,
      "ER</w>": 1223,
      "till</w>": 1224,
      "Fran": 1225,
      "poor</w>": 1226,
      "owever</w>": 1227,
      "_b</w>": 1228,
      "ef</w>": 1229,
      "dered</w>": 1230,
      "190": 1231,
      "sou": 1232,
      "OR": 1233,
      "per</w>": 1234,
      "ve": 1235,
      "half</w>": 1236,
      "fully</w>": 1237,
      "ell": 1238,
      "Su": 1239,
      "ick</w>": 1240,
      "cri": 1241,
      "sho": 1242,
      "table</w>": 1243,
      "there": 1244,
      "ously</w>": 1245,
      "gentle": 1246,
      "kes</w>": 1247,
      "Au": 1248,
      "De": 1249,
      "voice</w>": 1250,
      "stra": 1251,
      "air</w>": 1252,
      "kind</w>": 1253,
      "herself</w>": 1254,
      "wil": 1255,
      "wan": 1256,
      "between</w>": 1257,
      "So": 1258,
      "suff": 1259,
      "den</w>": 1260,
      "late</w>": 1261,
      "sle": 1262,
      "ors</w>": 1263,
      "star": 1264,
      "Mon": 1265,
      "cried</w>": 1266,
      "gar": 1267,
      "ating</w>": 1268,
      "ches</w>": 1269,
      "ar</w>": 1270,
      "tain": 1271,
      "lear": 1272,
      "gether</w>": 1273,
      "stu": 1274,
      "haps</w>": 1275,
      "served</w>": 1276,
      "ton</w>": 1277,
      "looking</w>": 1278,
      "prin": 1279,
      "course</w>": 1280,
      "exc": 1281,
      "together</w>": 1282,
      "LE": 1283,
      "lar</w>": 1284,
      "Batt": 1285,
      "gg": 1286,
      "anything</w>": 1287,
      "want</w>": 1288,
      "quest": 1289,
      "stran": 1290,
      "Of</w>": 1291,
      "dnâ</w>": 1292,
      "sor": 1293,
      "The": 1294,
      "cannot</w>": 1295,
      "Now</w>": 1296,
      "doub": 1297,
      "emp": 1298,
      "speak</w>": 1299,
      "cess": 1300,
      "near</w>": 1301,
      "fal": 1302,
      "ough": 1303,
      "gr": 1304,
      "ew</w>": 1305,
      "Ju": 1306,
      "Miss</w>": 1307,
      "true</w>": 1308,
      "whose</w>": 1309,
      "Par": 1310,
      "reme": 1311,
      "tting</w>": 1312,
      "stru": 1313,
      "ders</w>": 1314,
      "morning</w>": 1315,
      "belie": 1316,
      "appear": 1317,
      "rema": 1318,
      "best</w>": 1319,
      "gla": 1320,
      "ise</w>": 1321,
      "ight</w>": 1322,
      "dev": 1323,
      "dro": 1324,
      "few</w>": 1325,
      "va": 1326,
      "almost</w>": 1327,
      "ster": 1328,
      "vice</w>": 1329,
      "val": 1330,
      "ws</w>": 1331,
      "vil": 1332,
      "full</w>": 1333,
      "Eng": 1334,
      "sent</w>": 1335,
      "days</w>": 1336,
      "cted</w>": 1337,
      "On</w>": 1338,
      "used</w>": 1339,
      "rather</w>": 1340,
      "quir": 1341,
      "sudd": 1342,
      "fle": 1343,
      "says</w>": 1344,
      "hear</w>": 1345,
      "ima": 1346,
      "ching</w>": 1347,
      "brought</w>": 1348,
      "fortun": 1349,
      "zed</w>": 1350,
      "enough</w>": 1351,
      "stri": 1352,
      "taken</w>": 1353,
      "replied</w>": 1354,
      "aff": 1355,
      "son": 1356,
      "foo": 1357,
      "...</w>": 1358,
      "bar": 1359,
      "ject</w>": 1360,
      "bra": 1361,
      "thus</w>": 1362,
      "ately</w>": 1363,
      "US</w>": 1364,
      "count</w>": 1365,
      "beau": 1366,
      "lay</w>": 1367,
      "them": 1368,
      "contin": 1369,
      "sy</w>": 1370,
      "fer": 1371,
      "ste": 1372,
      "offic": 1373,
      "leave</w>": 1374,
      "however</w>": 1375,
      "lin": 1376,
      "mine</w>": 1377,
      "ones</w>": 1378,
      "atten": 1379,
      "since</w>": 1380,
      "AL": 1381,
      "feel": 1382,
      "gs</w>": 1383,
      "killed</w>": 1384,
      "possible</w>": 1385,
      "whe": 1386,
      "present</w>": 1387,
      "suc": 1388,
      "sci": 1389,
      "ere": 1390,
      "alone</w>": 1391,
      "edu": 1392,
      "ze</w>": 1393,
      "oned</w>": 1394,
      "indeed</w>": 1395,
      "With</w>": 1396,
      "Whi": 1397,
      "Battn</w>": 1398,
      "ed": 1399,
      "dow</w>": 1400,
      "Joh": 1401,
      "great": 1402,
      "ming</w>": 1403,
      "continu": 1404,
      "All</w>": 1405,
      "CH": 1406,
      "gone</w>": 1407,
      "1915</w>": 1408,
      "out": 1409,
      "does</w>": 1410,
      "ished</w>": 1411,
      "fur": 1412,
      "xt</w>": 1413,
      "enly</w>": 1414,
      "Li": 1415,
      "cho": 1416,
      "ging</w>": 1417,
      "vis": 1418,
      "itch</w>": 1419,
      "known</w>": 1420,
      "ected</w>": 1421,
      "lady</w>": 1422,
      "hath</w>": 1423,
      "pea": 1424,
      "medi": 1425,
      "fore": 1426,
      "vol": 1427,
      "cover": 1428,
      "nu": 1429,
      "among</w>": 1430,
      "matter</w>": 1431,
      "over": 1432,
      "believe</w>": 1433,
      "cul": 1434,
      "won": 1435,
      "vel": 1436,
      "Lie": 1437,
      "given</w>": 1438,
      "ial</w>": 1439,
      "bloo": 1440,
      "others</w>": 1441,
      "Wil": 1442,
      "ST": 1443,
      "happy</w>": 1444,
      "iting</w>": 1445,
      "ouâ</w>": 1446,
      "peri": 1447,
      "irs</w>": 1448,
      "bli": 1449,
      "soul</w>": 1450,
      "Gre": 1451,
      "sb": 1452,
      "order</w>": 1453,
      "LI": 1454,
      "_s</w>": 1455,
      "ering</w>": 1456,
      "war</w>": 1457,
      "sts</w>": 1458,
      "already</w>": 1459,
      "ounded</w>": 1460,
      "gt</w>": 1461,
      "ale</w>": 1462,
      "clu": 1463,
      "coming</w>": 1464,
      "tran": 1465,
      "differ": 1466,
      "passed</w>": 1467,
      "pen": 1468,
      "answered</w>": 1469,
      "power</w>": 1470,
      "perhaps</w>": 1471,
      "ide": 1472,
      "unt</w>": 1473,
      "hold</w>": 1474,
      "why</w>": 1475,
      "fire</w>": 1476,
      "enti": 1477,
      "wha": 1478,
      "ap": 1479,
      "parti": 1480,
      "ping</w>": 1481,
      "themselves</w>": 1482,
      "ring</w>": 1483,
      "brother</w>": 1484,
      "story</w>": 1485,
      "Lieut</w>": 1486,
      "Nor": 1487,
      "child</w>": 1488,
      "hind</w>": 1489,
      "vely</w>": 1490,
      "Mo": 1491,
      "ented</w>": 1492,
      "certain</w>": 1493,
      "next</w>": 1494,
      "Lor": 1495,
      "dead</w>": 1496,
      "held</w>": 1497,
      "therefore</w>": 1498,
      "eld</w>": 1499,
      "tr": 1500,
      "ON": 1501,
      "dire": 1502,
      "everything</w>": 1503,
      "abo": 1504,
      "laugh": 1505,
      "John</w>": 1506,
      "che": 1507,
      "uring</w>": 1508,
      "bi": 1509,
      "posed</w>": 1510,
      "nd</w>": 1511,
      "art</w>": 1512,
      "call</w>": 1513,
      "position</w>": 1514,
      "ligh": 1515,
      "Me": 1516,
      "Col": 1517,
      "2nd</w>": 1518,
      "keep</w>": 1519,
      "lord</w>": 1520,
      "he": 1521,
      "money</w>": 1522,
      "desc": 1523,
      "189": 1524,
      "rown</w>": 1525,
      "Lon": 1526,
      "nature</w>": 1527,
      "La": 1528,
      "case</w>": 1529,
      "arms</w>": 1530,
      "gue</w>": 1531,
      "sat</w>": 1532,
      "exce": 1533,
      "husb": 1534,
      "fic": 1535,
      "ised</w>": 1536,
      "ges</w>": 1537,
      "ker</w>": 1538,
      "master</w>": 1539,
      "ill": 1540,
      "understand</w>": 1541,
      "na</w>": 1542,
      "unti": 1543,
      "dau</w>": 1544,
      "ths</w>": 1545,
      "Sept</w>": 1546,
      "sses</w>": 1547,
      "fied</w>": 1548,
      "fair</w>": 1549,
      "towards</w>": 1550,
      "often</w>": 1551,
      "live</w>": 1552,
      "either</w>": 1553,
      "hope</w>": 1554,
      "friends</w>": 1555,
      "arri": 1556,
      "ns</w>": 1557,
      "sup": 1558,
      "dan": 1559,
      "als</w>": 1560,
      "ond</w>": 1561,
      "fell</w>": 1562,
      "whether</w>": 1563,
      "itâ</w>": 1564,
      "tered</w>": 1565,
      "behind</w>": 1566,
      "chool</w>": 1567,
      "Ri": 1568,
      "open</w>": 1569,
      "Po": 1570,
      "por": 1571,
      "received</w>": 1572,
      "wish</w>": 1573,
      "Sir</w>": 1574,
      "childre": 1575,
      "den": 1576,
      "expre": 1577,
      "arm</w>": 1578,
      "after": 1579,
      "Sa": 1580,
      "help</w>": 1581,
      "For": 1582,
      "mur": 1583,
      "oâ</w>": 1584,
      "white</w>": 1585,
      "Prin": 1586,
      "four</w>": 1587,
      "fan": 1588,
      "country</w>": 1589,
      "returned</w>": 1590,
      "ON</w>": 1591,
      "mily</w>": 1592,
      "hur": 1593,
      "Fa": 1594,
      "ably</w>": 1595,
      "really</w>": 1596,
      "died</w>": 1597,
      "form": 1598,
      "cir": 1599,
      "reason</w>": 1600,
      "qui": 1601,
      "int</w>": 1602,
      "One</w>": 1603,
      "natur": 1604,
      "secon": 1605,
      "wee": 1606,
      "run": 1607,
      "dow": 1608,
      "became</w>": 1609,
      "sever": 1610,
      "Con": 1611,
      "standing</w>": 1612,
      "water</w>": 1613,
      "person</w>": 1614,
      "least</w>": 1615,
      "Ru": 1616,
      "serv": 1617,
      "gri": 1618,
      "disc": 1619,
      "Il": 1620,
      "France</w>": 1621,
      "form</w>": 1622,
      "ssing</w>": 1623,
      "children</w>": 1624,
      "shing</w>": 1625,
      "dent</w>": 1626,
      "ross</w>": 1627,
      "supp": 1628,
      "hour</w>": 1629,
      "dri": 1630,
      "wards</w>": 1631,
      "manner</w>": 1632,
      "your": 1633,
      "lex": 1634,
      "gni": 1635,
      "inten": 1636,
      "high</w>": 1637,
      "fear</w>": 1638,
      "vers": 1639,
      "Is</w>": 1640,
      "letter</w>": 1641,
      "until</w>": 1642,
      "daugh": 1643,
      "dness</w>": 1644,
      "therâ</w>": 1645,
      "ingly</w>": 1646,
      "boy</w>": 1647,
      "cle</w>": 1648,
      "small</w>": 1649,
      "ities</w>": 1650,
      "cti": 1651,
      "London</w>": 1652,
      "gth</w>": 1653,
      "point</w>": 1654,
      "wea": 1655,
      "ates</w>": 1656,
      "girl</w>": 1657,
      "kin": 1658,
      "ton": 1659,
      "spir": 1660,
      "rely</w>": 1661,
      "cess</w>": 1662,
      "suddenly</w>": 1663,
      "ya</w>": 1664,
      "along</w>": 1665,
      "ye</w>": 1666,
      "sort</w>": 1667,
      "lustr": 1668,
      "eff": 1669,
      "By</w>": 1670,
      "mean</w>": 1671,
      "san": 1672,
      "simp": 1673,
      "drew</w>": 1674,
      "saying</w>": 1675,
      "ick": 1676,
      "fort</w>": 1677,
      "ble": 1678,
      "lish</w>": 1679,
      "sati": 1680,
      "necess": 1681,
      "desp": 1682,
      "Do</w>": 1683,
      "cou": 1684,
      "fellow</w>": 1685,
      "ban": 1686,
      "ounds</w>": 1687,
      "evening</w>": 1688,
      "RO": 1689,
      "thir": 1690,
      "dies</w>": 1691,
      "Val": 1692,
      "feel</w>": 1693,
      "truth</w>": 1694,
      "vate</w>": 1695,
      "thous": 1696,
      "fter</w>": 1697,
      "ore</w>": 1698,
      "May</w>": 1699,
      "St": 1700,
      "ily</w>": 1701,
      "ley</w>": 1702,
      "Don</w>": 1703,
      "Cor": 1704,
      "sing": 1705,
      "siness</w>": 1706,
      "dom</w>": 1707,
      "else</w>": 1708,
      "rench</w>": 1709,
      "cing</w>": 1710,
      "mp</w>": 1711,
      "arly</w>": 1712,
      "itself</w>": 1713,
      "RE": 1714,
      "ature</w>": 1715,
      "family</w>": 1716,
      "yal</w>": 1717,
      "appro": 1718,
      "answer</w>": 1719,
      "draw": 1720,
      "ele": 1721,
      "short</w>": 1722,
      "within</w>": 1723,
      "list": 1724,
      "five</w>": 1725,
      "care</w>": 1726,
      ".--</w>": 1727,
      "ground</w>": 1728,
      "ask</w>": 1729,
      "ast</w>": 1730,
      "sy": 1731,
      "Lord</w>": 1732,
      "Let</w>": 1733,
      "IL": 1734,
      "covered</w>": 1735,
      "THE</w>": 1736,
      "Not</w>": 1737,
      "ining</w>": 1738,
      "s_</w>": 1739,
      "cip": 1740,
      "perf": 1741,
      "earth</w>": 1742,
      "educ</w>": 1743,
      "soci": 1744,
      "erâ</w>": 1745,
      "comes</w>": 1746,
      "fav": 1747,
      "Good</w>": 1748,
      "Pi": 1749,
      "stro": 1750,
      "conv": 1751,
      "Illustr": 1752,
      "ia</w>": 1753,
      "rote</w>": 1754,
      "sides</w>": 1755,
      "consci": 1756,
      "husband</w>": 1757,
      "Ho": 1758,
      "rit</w>": 1759,
      "publi": 1760,
      "ped</w>": 1761,
      "occa": 1762,
      "tal</w>": 1763,
      "return</w>": 1764,
      "Thou</w>": 1765,
      "iled</w>": 1766,
      "ian</w>": 1767,
      "imag": 1768,
      "jec": 1769,
      "gentleman</w>": 1770,
      "serve</w>": 1771,
      "means</w>": 1772,
      "adm": 1773,
      "tou": 1774,
      "riage</w>": 1775,
      "fla": 1776,
      "reli": 1777,
      "Here</w>": 1778,
      "Bo": 1779,
      "sight</w>": 1780,
      "large</w>": 1781,
      "longer</w>": 1782,
      "vent": 1783,
      "wrote</w>": 1784,
      "black</w>": 1785,
      "...": 1786,
      "sul": 1787,
      "disa": 1788,
      "gran": 1789,
      "sense</w>": 1790,
      "taking</w>": 1791,
      "Illustration</w>": 1792,
      "cra": 1793,
      "To": 1794,
      "iness</w>": 1795,
      "above</w>": 1796,
      "sting</w>": 1797,
      "show": 1798,
      "pret": 1799,
      "Who</w>": 1800,
      "high": 1801,
      "wise</w>": 1802,
      "second</w>": 1803,
      "ither</w>": 1804,
      "making</w>": 1805,
      "trou": 1806,
      "cau": 1807,
      "satis": 1808,
      "pol": 1809,
      "Come</w>": 1810,
      "Na": 1811,
      "question</w>": 1812,
      "San": 1813,
      "blood</w>": 1814,
      "all": 1815,
      "Pri": 1816,
      "dred</w>": 1817,
      "ality</w>": 1818,
      "resp": 1819,
      "ended</w>": 1820,
      "Mad": 1821,
      "yourself</w>": 1822,
      "bre": 1823,
      "spi": 1824,
      "vy</w>": 1825,
      "ste</w>": 1826,
      "company</w>": 1827,
      "Chri": 1828,
      "sea</w>": 1829,
      "noti": 1830,
      "qua": 1831,
      "....</w>": 1832,
      "Di": 1833,
      "Pro": 1834,
      "thre": 1835,
      "care": 1836,
      "sla": 1837,
      "state</w>": 1838,
      "become</w>": 1839,
      "thousand</w>": 1840,
      "swe": 1841,
      ".\"</w>": 1842,
      "youâ</w>": 1843,
      "bb": 1844,
      "charac": 1845,
      "break</w>": 1846,
      "clai": 1847,
      "joy</w>": 1848,
      "fact</w>": 1849,
      "MA": 1850,
      "hol": 1851,
      "ef": 1852,
      "cep": 1853,
      "surpri": 1854,
      "feeling</w>": 1855,
      "itting</w>": 1856,
      "--": 1857,
      "during</w>": 1858,
      "immedi": 1859,
      "business</w>": 1860,
      "kept</w>": 1861,
      "eng": 1862,
      "itted</w>": 1863,
      "town</w>": 1864,
      "eye</w>": 1865,
      "enty</w>": 1866,
      "Pe": 1867,
      "rit": 1868,
      "though": 1869,
      "solu": 1870,
      "var": 1871,
      "EL": 1872,
      "ney</w>": 1873,
      "rel": 1874,
      "service</w>": 1875,
      "boo": 1876,
      "phi": 1877,
      "feet</w>": 1878,
      "appeared</w>": 1879,
      "Lu": 1880,
      "year</w>": 1881,
      "exa": 1882,
      "Ge": 1883,
      "posse": 1884,
      "Char": 1885,
      "ils</w>": 1886,
      "road</w>": 1887,
      "ions</w>": 1888,
      "doubt</w>": 1889,
      "thor": 1890,
      "than": 1891,
      "urch</w>": 1892,
      "Jo</w>": 1893,
      "entered</w>": 1894,
      "opin": 1895,
      ",\"</w>": 1896,
      "ff</w>": 1897,
      "vir": 1898,
      "Ah</w>": 1899,
      "law</w>": 1900,
      "met</w>": 1901,
      "From</w>": 1902,
      "ats</w>": 1903,
      "usu": 1904,
      "aw": 1905,
      "ets</w>": 1906,
      "ov": 1907,
      "1st</w>": 1908,
      "secre": 1909,
      "hand": 1910,
      "strange</w>": 1911,
      "disp": 1912,
      "hair</w>": 1913,
      "hard</w>": 1914,
      "atâ</w>": 1915,
      "pl": 1916,
      "cks</w>": 1917,
      "ative</w>": 1918,
      "talk</w>": 1919,
      "dg": 1920,
      "King</w>": 1921,
      "cru": 1922,
      "OL": 1923,
      "daughter</w>": 1924,
      "hundred</w>": 1925,
      "joined</w>": 1926,
      "ingâ</w>": 1927,
      "fine</w>": 1928,
      "ility</w>": 1929,
      "RI": 1930,
      "ford</w>": 1931,
      "Un": 1932,
      "flu": 1933,
      "bir": 1934,
      "Bar": 1935,
      "After</w>": 1936,
      "ead</w>": 1937,
      "bly</w>": 1938,
      "assi": 1939,
      "knowle": 1940,
      "idea</w>": 1941,
      "dence</w>": 1942,
      "shes</w>": 1943,
      "doc": 1944,
      "general</w>": 1945,
      "gover": 1946,
      "moun": 1947,
      "17": 1948,
      "sister</w>": 1949,
      "Tha": 1950,
      "dark</w>": 1951,
      "Alex": 1952,
      "sky</w>": 1953,
      "drea": 1954,
      "lou": 1955,
      "advan": 1956,
      "turning</w>": 1957,
      "pleasure</w>": 1958,
      "emb": 1959,
      "pic": 1960,
      "act</w>": 1961,
      "Aug</w>": 1962,
      "eal</w>": 1963,
      "women</w>": 1964,
      "sha</w>": 1965,
      "Le": 1966,
      "tainly</w>": 1967,
      "ement</w>": 1968,
      "bring</w>": 1969,
      "spoke</w>": 1970,
      "tained</w>": 1971,
      "quar": 1972,
      "Mor": 1973,
      "Ja": 1974,
      "sions</w>": 1975,
      "Nov</w>": 1976,
      "Coun": 1977,
      "yo": 1978,
      "any": 1979,
      "window</w>": 1980,
      "manâ</w>": 1981,
      "indi": 1982,
      "show</w>": 1983,
      "bear</w>": 1984,
      "flo": 1985,
      "sk</w>": 1986,
      "compan": 1987,
      "shoul": 1988,
      "icul": 1989,
      "smile</w>": 1990,
      "soldi": 1991,
      "Bu": 1992,
      "ror</w>": 1993,
      "ters</w>": 1994,
      "fortune</w>": 1995,
      "ran</w>": 1996,
      "bad</w>": 1997,
      "lic": 1998,
      "concer": 1999,
      "sons</w>": 2000,
      "ront</w>": 2001,
      "flow": 2002,
      "AM": 2003,
      "II</w>": 2004,
      "remember</w>": 2005,
      "fall</w>": 2006,
      "different</w>": 2007,
      "Per": 2008,
      "repe": 2009,
      "uni": 2010,
      "wel": 2011,
      "Du": 2012,
      "lies</w>": 2013,
      "French</w>": 2014,
      "chief</w>": 2015,
      "forth</w>": 2016,
      "sometimes</w>": 2017,
      "itude</w>": 2018,
      "sequ": 2019,
      "several</w>": 2020,
      "Ser": 2021,
      "human</w>": 2022,
      "TI": 2023,
      "seeing</w>": 2024,
      "Her</w>": 2025,
      "doing</w>": 2026,
      "cee": 2027,
      "batt": 2028,
      "tears</w>": 2029,
      "ealth</w>": 2030,
      "formed</w>": 2031,
      "co</w>": 2032,
      "sie": 2033,
      "field</w>": 2034,
      "ared</w>": 2035,
      "Oct</w>": 2036,
      "difficul": 2037,
      "Ed": 2038,
      "def": 2039,
      "close</w>": 2040,
      "wanted</w>": 2041,
      "beauti": 2042,
      "ist": 2043,
      "past</w>": 2044,
      "Geor": 2045,
      "inv": 2046,
      "cket</w>": 2047,
      "tive</w>": 2048,
      "opened</w>": 2049,
      "desire</w>": 2050,
      "ute</w>": 2051,
      "ign": 2052,
      "cold</w>": 2053,
      "terri": 2054,
      "Your</w>": 2055,
      "ius</w>": 2056,
      "sleep</w>": 2057,
      "ix": 2058,
      "North</w>": 2059,
      "Car": 2060,
      "Enter</w>": 2061,
      "following</w>": 2062,
      "ast": 2063,
      "heâ</w>": 2064,
      "sound</w>": 2065,
      "mean": 2066,
      "blu": 2067,
      "_The</w>": 2068,
      "dee": 2069,
      "ach</w>": 2070,
      "thatâ</w>": 2071,
      "plain</w>": 2072,
      "resi": 2073,
      "immediately</w>": 2074,
      "account</w>": 2075,
      "Gu": 2076,
      "added</w>": 2077,
      "just": 2078,
      "continued</w>": 2079,
      "strong</w>": 2080,
      "change</w>": 2081,
      "=]</w>": 2082,
      "St</w>": 2083,
      ".=]</w>": 2084,
      "ham</w>": 2085,
      "evid": 2086,
      "honour</w>": 2087,
      "March</w>": 2088,
      "inâ</w>": 2089,
      "subject</w>": 2090,
      "cked</w>": 2091,
      "heaven</w>": 2092,
      "followed</w>": 2093,
      "Ger": 2094,
      "ety</w>": 2095,
      "dst</w>": 2096,
      "dress</w>": 2097,
      "Where</w>": 2098,
      "eight</w>": 2099,
      "equ": 2100,
      "Itâ</w>": 2101,
      "tic</w>": 2102,
      "fra": 2103,
      "remar": 2104,
      "rose</w>": 2105,
      "lau": 2106,
      "reco": 2107,
      "Royal</w>": 2108,
      "gn</w>": 2109,
      ".)</w>": 2110,
      "every": 2111,
      "ret": 2112,
      "sible</w>": 2113,
      "need</w>": 2114,
      "mouth</w>": 2115,
      "ES</w>": 2116,
      "ene</w>": 2117,
      "sun</w>": 2118,
      "comple": 2119,
      "Regt</w>": 2120,
      "dition</w>": 2121,
      "lips</w>": 2122,
      "decl": 2123,
      "ort": 2124,
      "ures</w>": 2125,
      "val</w>": 2126,
      "Can": 2127,
      "ote</w>": 2128,
      "ens</w>": 2129,
      "free</w>": 2130,
      "sun": 2131,
      "Hea": 2132,
      "afterwards</w>": 2133,
      "ire</w>": 2134,
      "moved</w>": 2135,
      "around</w>": 2136,
      "die</w>": 2137,
      "diti": 2138,
      "speci": 2139,
      "duced</w>": 2140,
      "ov</w>": 2141,
      "rage</w>": 2142,
      "lying</w>": 2143,
      "22</w>": 2144,
      "colle": 2145,
      "_un": 2146,
      "Dor": 2147,
      "bit": 2148,
      "canâ</w>": 2149,
      "virtu": 2150,
      "neither</w>": 2151,
      "ection</w>": 2152,
      "Prince</w>": 2153,
      "Hi": 2154,
      "ecu": 2155,
      "tion": 2156,
      "book</w>": 2157,
      "ied</w>": 2158,
      "circu": 2159,
      "rup": 2160,
      "_unm</w>": 2161,
      "spirit</w>": 2162,
      "view</w>": 2163,
      "happened</w>": 2164,
      "sal": 2165,
      "Hu": 2166,
      "sweet</w>": 2167,
      "Mary</w>": 2168,
      "opinion</w>": 2169,
      "officer</w>": 2170,
      "deci": 2171,
      "fast</w>": 2172,
      "remained</w>": 2173,
      "Hen": 2174,
      "consider": 2175,
      "mel": 2176,
      "race</w>": 2177,
      "rying</w>": 2178,
      "188": 2179,
      "tried</w>": 2180,
      "cho</w>": 2181,
      "Lo": 2182,
      "crow": 2183,
      "horse</w>": 2184,
      "thoughts</w>": 2185,
      "raid</w>": 2186,
      "seems</w>": 2187,
      "fit</w>": 2188,
      "bene": 2189,
      "len</w>": 2190,
      "ouldnâ</w>": 2191,
      "dest</w>": 2192,
      "trans": 2193,
      "Tho": 2194,
      "lie</w>": 2195,
      "eth</w>": 2196,
      "bit</w>": 2197,
      "pretty</w>": 2198,
      "obli": 2199,
      "opp": 2200,
      "tro": 2201,
      "knowledge</w>": 2202,
      "fing": 2203,
      "ue</w>": 2204,
      "allow": 2205,
      "School</w>": 2206,
      "afraid</w>": 2207,
      "pass</w>": 2208,
      "Quix": 2209,
      "where": 2210,
      "worthy</w>": 2211,
      "twenty</w>": 2212,
      "common</w>": 2213,
      "laid</w>": 2214,
      "pointed</w>": 2215,
      "far": 2216,
      "ile</w>": 2217,
      "accor": 2218,
      "drin": 2219,
      "run</w>": 2220,
      "hall</w>": 2221,
      "acqua": 2222,
      "deli": 2223,
      "hil": 2224,
      "convers": 2225,
      "sieur</w>": 2226,
      "ly": 2227,
      "ING</w>": 2228,
      "none</w>": 2229,
      "thu": 2230,
      "wood</w>": 2231,
      "_Ex": 2232,
      "ars</w>": 2233,
      "carried</w>": 2234,
      "necessary</w>": 2235,
      "ties</w>": 2236,
      "Capt</w>": 2237,
      "Willi": 2238,
      "sant</w>": 2239,
      "ici": 2240,
      "suppose</w>": 2241,
      "villa": 2242,
      "squ": 2243,
      "comman": 2244,
      "Sea</w>": 2245,
      "16": 2246,
      "musi": 2247,
      "aged</w>": 2248,
      "thâ</w>": 2249,
      "Ra": 2250,
      "tation</w>": 2251,
      "force</w>": 2252,
      "ES": 2253,
      "deep</w>": 2254,
      "natural</w>": 2255,
      "ordin": 2256,
      "Har": 2257,
      "bl": 2258,
      "beautiful</w>": 2259,
      "living</w>": 2260,
      "Pier": 2261,
      "glad</w>": 2262,
      "nar": 2263,
      "ddle</w>": 2264,
      "meet</w>": 2265,
      "pul": 2266,
      "deal</w>": 2267,
      "loved</w>": 2268,
      "neigh": 2269,
      "unto</w>": 2270,
      "stren": 2271,
      "easy</w>": 2272,
      "sage</w>": 2273,
      "foot</w>": 2274,
      "circum": 2275,
      "vic": 2276,
      "ty": 2277,
      "getting</w>": 2278,
      "descri": 2279,
      "public</w>": 2280,
      "refu": 2281,
      "scar": 2282,
      "struck</w>": 2283,
      "Or</w>": 2284,
      "tin": 2285,
      "six</w>": 2286,
      "line</w>": 2287,
      "tful</w>": 2288,
      "kne": 2289,
      "These</w>": 2290,
      "morrow</w>": 2291,
      "oured</w>": 2292,
      "shire</w>": 2293,
      "pat": 2294,
      "seem</w>": 2295,
      "ctions</w>": 2296,
      "thinking</w>": 2297,
      "Sancho</w>": 2298,
      "ack": 2299,
      "um</w>": 2300,
      "prob": 2301,
      "specially</w>": 2302,
      "experi": 2303,
      "silence</w>": 2304,
      "George</w>": 2305,
      "Da": 2306,
      "ady</w>": 2307,
      "eved</w>": 2308,
      "cup": 2309,
      "character</w>": 2310,
      "cro": 2311,
      "front</w>": 2312,
      "hours</w>": 2313,
      "usual</w>": 2314,
      "ign</w>": 2315,
      "chair</w>": 2316,
      "didnâ</w>": 2317,
      "certainly</w>": 2318,
      "xed</w>": 2319,
      "Apri": 2320,
      "ith": 2321,
      "spa": 2322,
      "later</w>": 2323,
      "less": 2324,
      "sett": 2325,
      "April</w>": 2326,
      "Quixote</w>": 2327,
      "further</w>": 2328,
      "Ne": 2329,
      "Private</w>": 2330,
      "clock</w>": 2331,
      "worth</w>": 2332,
      "stic</w>": 2333,
      "forward</w>": 2334,
      "loso": 2335,
      "test</w>": 2336,
      "ester": 2337,
      "une</w>": 2338,
      "condu": 2339,
      "cut</w>": 2340,
      "interest": 2341,
      "makes</w>": 2342,
      "knows</w>": 2343,
      "choo": 2344,
      "Bri": 2345,
      "lived</w>": 2346,
      "Ly": 2347,
      "conversation</w>": 2348,
      "viol": 2349,
      "justice</w>": 2350,
      "hardly</w>": 2351,
      "pping</w>": 2352,
      "stay</w>": 2353,
      "street</w>": 2354,
      "SI": 2355,
      "LA": 2356,
      "stance</w>": 2357,
      "els</w>": 2358,
      "bert</w>": 2359,
      "arti": 2360,
      "William</w>": 2361,
      "ine": 2362,
      "gl": 2363,
      "Paris</w>": 2364,
      "England</w>": 2365,
      "dinner</w>": 2366,
      "Her": 2367,
      "end": 2368,
      "please</w>": 2369,
      "cli": 2370,
      "quire</w>": 2371,
      "Will</w>": 2372,
      "tes</w>": 2373,
      "happiness</w>": 2374,
      "play</w>": 2375,
      "susp": 2376,
      "cent</w>": 2377,
      "married</w>": 2378,
      "yes</w>": 2379,
      "Fe": 2380,
      "agre": 2381,
      "tea": 2382,
      "semb": 2383,
      "bow": 2384,
      "interest</w>": 2385,
      "walked</w>": 2386,
      "wounded</w>": 2387,
      "memor": 2388,
      "duty</w>": 2389,
      "pan": 2390,
      "awa": 2391,
      "nal</w>": 2392,
      "purpose</w>": 2393,
      "rememb": 2394,
      "mea": 2395,
      "beauty</w>": 2396,
      "Sco": 2397,
      "dian</w>": 2398,
      "sei": 2399,
      "la</w>": 2400,
      "zing</w>": 2401,
      "doth</w>": 2402,
      "ester</w>": 2403,
      "Dar": 2404,
      "Cha": 2405,
      "rich</w>": 2406,
      "sitting</w>": 2407,
      "Which</w>": 2408,
      "tment</w>": 2409,
      "utes</w>": 2410,
      "expression</w>": 2411,
      "real</w>": 2412,
      "claimed</w>": 2413,
      "percei": 2414,
      "bal": 2415,
      "wonâ</w>": 2416,
      "ic</w>": 2417,
      "thos</w>": 2418,
      "pie": 2419,
      "OF</w>": 2420,
      "yer</w>": 2421,
      "mb</w>": 2422,
      "Do": 2423,
      "dressed</w>": 2424,
      "ital</w>": 2425,
      "fif": 2426,
      "English</w>": 2427,
      "ope</w>": 2428,
      "itten</w>": 2429,
      "ame</w>": 2430,
      "wind</w>": 2431,
      "noble</w>": 2432,
      "what": 2433,
      "mission</w>": 2434,
      "cea": 2435,
      "curi": 2436,
      "Pa": 2437,
      "easi": 2438,
      "pressed</w>": 2439,
      "Thy</w>": 2440,
      "ARD</w>": 2441,
      "tely</w>": 2442,
      "Madame</w>": 2443,
      "stopped</w>": 2444,
      "refle": 2445,
      "peace</w>": 2446,
      "cent": 2447,
      "hood</w>": 2448,
      "court</w>": 2449,
      "steps</w>": 2450,
      "ago</w>": 2451,
      "placed</w>": 2452,
      "cle": 2453,
      "custo": 2454,
      "Dâ</w>": 2455,
      "youth</w>": 2456,
      "15</w>": 2457,
      "sel</w>": 2458,
      "inning</w>": 2459,
      "import": 2460,
      "Alexan": 2461,
      "evil</w>": 2462,
      "inted</w>": 2463,
      "early</w>": 2464,
      "expected</w>": 2465,
      "ny</w>": 2466,
      "stone</w>": 2467,
      "mâ</w>": 2468,
      "tired</w>": 2469,
      "spee": 2470,
      "stle</w>": 2471,
      "pay</w>": 2472,
      "AM</w>": 2473,
      "clear</w>": 2474,
      "reg": 2475,
      "Pierre</w>": 2476,
      "Lev": 2477,
      "shment</w>": 2478,
      "practi": 2479,
      "anx": 2480,
      "LO": 2481,
      "dy": 2482,
      "beli": 2483,
      "tage</w>": 2484,
      "quick": 2485,
      "mas</w>": 2486,
      "raised</w>": 2487,
      "attention</w>": 2488,
      "gro": 2489,
      "tel": 2490,
      "onel</w>": 2491,
      "quired</w>": 2492,
      "kness</w>": 2493,
      "Thus</w>": 2494,
      "trouble</w>": 2495,
      "On": 2496,
      "glor": 2497,
      "ener": 2498,
      "ED": 2499,
      "cry</w>": 2500,
      "confi": 2501,
      "ory</w>": 2502,
      "chance</w>": 2503,
      "deter": 2504,
      "nigh": 2505,
      "wall</w>": 2506,
      "grat": 2507,
      "Ad": 2508,
      "woo": 2509,
      "prepar": 2510,
      "gold</w>": 2511,
      "speaking</w>": 2512,
      "Jones</w>": 2513,
      "dle</w>": 2514,
      "sely</w>": 2515,
      "fear": 2516,
      "ler</w>": 2517,
      "mer</w>": 2518,
      "city</w>": 2519,
      "emplo": 2520,
      "Ta": 2521,
      "pes</w>": 2522,
      "occasion</w>": 2523,
      "reached</w>": 2524,
      "consequ": 2525,
      "Ste": 2526,
      "obe": 2527,
      "goo": 2528,
      "doctor</w>": 2529,
      "rel</w>": 2530,
      ").</w>": 2531,
      "heavy</w>": 2532,
      "ences</w>": 2533,
      "gentlemen</w>": 2534,
      "wrong</w>": 2535,
      "Force</w>": 2536,
      "Thatâ</w>": 2537,
      "mista": 2538,
      "confe": 2539,
      "tioned</w>": 2540,
      "plan": 2541,
      "strength</w>": 2542,
      "Lau": 2543,
      "sive</w>": 2544,
      "sli": 2545,
      "Henry</w>": 2546,
      "piece</w>": 2547,
      "ant": 2548,
      ".]</w>": 2549,
      "especially</w>": 2550,
      "impossible</w>": 2551,
      "pal": 2552,
      "ceeded</w>": 2553,
      "za": 2554,
      "coat</w>": 2555,
      "giving</w>": 2556,
      "terrible</w>": 2557,
      "respec": 2558,
      "jour": 2559,
      "ment": 2560,
      "pain</w>": 2561,
      "impre": 2562,
      "ages</w>": 2563,
      "delic": 2564,
      "Yet</w>": 2565,
      "ist</w>": 2566,
      "sters</w>": 2567,
      "servant</w>": 2568,
      "effect</w>": 2569,
      "except</w>": 2570,
      "enemy</w>": 2571,
      "Sto": 2572,
      "wit": 2573,
      "whisp": 2574,
      "stairs</w>": 2575,
      "tters</w>": 2576,
      "intel": 2577,
      "pale</w>": 2578,
      "ris": 2579,
      "wished</w>": 2580,
      "silent</w>": 2581,
      "across</w>": 2582,
      "rows</w>": 2583,
      "charge</w>": 2584,
      "observed</w>": 2585,
      "fl": 2586,
      "garden</w>": 2587,
      "deligh": 2588,
      "secret</w>": 2589,
      "cat": 2590,
      "rent</w>": 2591,
      "AP": 2592,
      "vel</w>": 2593,
      "yond</w>": 2594,
      "walk</w>": 2595,
      "we": 2596,
      "Lady</w>": 2597,
      "Monsieur</w>": 2598,
      "philoso": 2599,
      "talking</w>": 2600,
      "ination</w>": 2601,
      "twi": 2602,
      "summ": 2603,
      "nee": 2604,
      "pursu": 2605,
      "IC": 2606,
      "although</w>": 2607,
      "sit</w>": 2608,
      "promis": 2609,
      "tremb": 2610,
      "Eli": 2611,
      "mise</w>": 2612,
      "shot</w>": 2613,
      "mul": 2614,
      "Ab": 2615,
      "paper</w>": 2616,
      "liber": 2617,
      "ordinary</w>": 2618,
      "TER</w>": 2619,
      "corner</w>": 2620,
      "minutes</w>": 2621,
      "Have</w>": 2622,
      "teen</w>": 2623,
      "Cla": 2624,
      "lâ</w>": 2625,
      "beyond</w>": 2626,
      "June</w>": 2627,
      "iter": 2628,
      "Ba": 2629,
      "contemp": 2630,
      "understood</w>": 2631,
      "IR": 2632,
      "filled</w>": 2633,
      "itary</w>": 2634,
      "object</w>": 2635,
      "glass</w>": 2636,
      "tagn": 2637,
      "minute</w>": 2638,
      "volun": 2639,
      "sof": 2640,
      "length</w>": 2641,
      "tone</w>": 2642,
      "tte</w>": 2643,
      ").--</w>": 2644,
      "mined</w>": 2645,
      "arrived</w>": 2646,
      "Artagn": 2647,
      "written</w>": 2648,
      "fran": 2649,
      "mous</w>": 2650,
      "ingu": 2651,
      "beginning</w>": 2652,
      "res": 2653,
      "Colle": 2654,
      "cs</w>": 2655,
      "ortun": 2656,
      "sty</w>": 2657,
      "ane</w>": 2658,
      "": 2659,
      "buried</w>": 2660,
      "ina</w>": 2661,
      "buil": 2662,
      "princip": 2663,
      "society</w>": 2664,
      "latter</w>": 2665,
      "exclaimed</w>": 2666,
      "pati": 2667,
      "arran": 2668,
      "oper": 2669,
      "tened</w>": 2670,
      "conclu": 2671,
      "eigh": 2672,
      "itation</w>": 2673,
      "captain</w>": 2674,
      "born</w>": 2675,
      "big</w>": 2676,
      "onal</w>": 2677,
      "Maj": 2678,
      "ger": 2679,
      "fig": 2680,
      "third</w>": 2681,
      "ctly</w>": 2682,
      "sake</w>": 2683,
      "former</w>": 2684,
      "AT": 2685,
      "tto": 2686,
      "attemp": 2687,
      "nment</w>": 2688,
      "Artagnan</w>": 2689,
      "Nat": 2690,
      "JO": 2691,
      "cular</w>": 2692,
      "occup": 2693,
      "sco": 2694,
      "spite</w>": 2695,
      "gun</w>": 2696,
      "Our</w>": 2697,
      "greater</w>": 2698,
      "erable</w>": 2699,
      "extre": 2700,
      "pleased</w>": 2701,
      "BER": 2702,
      "Some</w>": 2703,
      "outbreak</w>": 2704,
      "mentioned</w>": 2705,
      "army</w>": 2706,
      "law": 2707,
      "reh": 2708,
      "appearance</w>": 2709,
      "EN</w>": 2710,
      "Go</w>": 2711,
      "enjo": 2712,
      "quiet</w>": 2713,
      "enâ</w>": 2714,
      "carriage</w>": 2715,
      "chee": 2716,
      "send</w>": 2717,
      "wret": 2718,
      "bound</w>": 2719,
      "UR": 2720,
      "smo": 2721,
      "cious</w>": 2722,
      "presence</w>": 2723,
      "langu": 2724,
      "stances</w>": 2725,
      "prison": 2726,
      "WIL": 2727,
      "wait</w>": 2728,
      "dows</w>": 2729,
      "dem": 2730,
      "number</w>": 2731,
      "Tom</w>": 2732,
      "wild</w>": 2733,
      "meant</w>": 2734,
      "onary</w>": 2735,
      "looks</w>": 2736,
      "follow</w>": 2737,
      "lik": 2738,
      "laugh</w>": 2739,
      "Por": 2740,
      "eat</w>": 2741,
      "ries</w>": 2742,
      "div": 2743,
      "broken</w>": 2744,
      "Are</w>": 2745,
      "broke</w>": 2746,
      "quickly</w>": 2747,
      "ners</w>": 2748,
      "inging</w>": 2749,
      "leaving</w>": 2750,
      "lif": 2751,
      "waiting</w>": 2752,
      "profe": 2753,
      "strea": 2754,
      "lows</w>": 2755,
      "lice</w>": 2756,
      "extra": 2757,
      "horses</w>": 2758,
      "zz": 2759,
      "instant</w>": 2760,
      "bour": 2761,
      "girls</w>": 2762,
      "KING</w>": 2763,
      "ending</w>": 2764,
      "news</w>": 2765,
      "instru": 2766,
      "Jan</w>": 2767,
      "changed</w>": 2768,
      "ladies</w>": 2769,
      "dread": 2770,
      "gy</w>": 2771,
      "beside</w>": 2772,
      "dering</w>": 2773,
      "stress</w>": 2774,
      "mpa": 2775,
      "board</w>": 2776,
      "clou": 2777,
      "Gree": 2778,
      "write</w>": 2779,
      "Gi": 2780,
      "Man": 2781,
      "Wha": 2782,
      "provi": 2783,
      "wonder</w>": 2784,
      "ask": 2785,
      "An</w>": 2786,
      "shar": 2787,
      "prou": 2788,
      "ury</w>": 2789,
      "châ</w>": 2790,
      "gy": 2791,
      "const": 2792,
      "future</w>": 2793,
      "College</w>": 2794,
      "hast</w>": 2795,
      "mper": 2796,
      "months</w>": 2797,
      "fresh</w>": 2798,
      "Stre": 2799,
      "cation</w>": 2800,
      "worse</w>": 2801,
      "wine</w>": 2802,
      "tering</w>": 2803,
      "visit</w>": 2804,
      "gate</w>": 2805,
      "wear": 2806,
      "straight</w>": 2807,
      "jects</w>": 2808,
      "allowed</w>": 2809,
      "proper": 2810,
      "olly</w>": 2811,
      "kis": 2812,
      "school</w>": 2813,
      "battle</w>": 2814,
      "gar</w>": 2815,
      "Feb</w>": 2816,
      "SE": 2817,
      "church</w>": 2818,
      "frigh": 2819,
      "Levin</w>": 2820,
      "ille": 2821,
      "greatest</w>": 2822,
      "enter": 2823,
      "command</w>": 2824,
      "shop</w>": 2825,
      "drawing</w>": 2826,
      "Ni": 2827,
      "ysi": 2828,
      "she": 2829,
      "trees</w>": 2830,
      "grave</w>": 2831,
      "ung</w>": 2832,
      "thes</w>": 2833,
      "music</w>": 2834,
      "Nor</w>": 2835,
      "step</w>": 2836,
      "cel": 2837,
      "enter</w>": 2838,
      "grace</w>": 2839,
      "books</w>": 2840,
      "Doro": 2841,
      "Eu": 2842,
      "gain</w>": 2843,
      "ices</w>": 2844,
      "gal": 2845,
      "fun": 2846,
      "verse</w>": 2847,
      "sity</w>": 2848,
      "iling</w>": 2849,
      "loss</w>": 2850,
      "contr": 2851,
      "writ": 2852,
      "comfor": 2853,
      "simply</w>": 2854,
      "tongue</w>": 2855,
      "James</w>": 2856,
      "resol": 2857,
      "ray</w>": 2858,
      "15": 2859,
      "particular</w>": 2860,
      "10": 2861,
      "and": 2862,
      "faul": 2863,
      "em</w>": 2864,
      "distance</w>": 2865,
      "pity</w>": 2866,
      "tual</w>": 2867,
      "instead</w>": 2868,
      "opportun": 2869,
      "easily</w>": 2870,
      "prince</w>": 2871,
      "particul": 2872,
      "marriage</w>": 2873,
      "showed</w>": 2874,
      "fy</w>": 2875,
      "motion</w>": 2876,
      "trying</w>": 2877,
      "oner</w>": 2878,
      "lowly</w>": 2879,
      "stly</w>": 2880,
      "lest</w>": 2881,
      "fashi": 2882,
      "creature</w>": 2883,
      "blue</w>": 2884,
      "Fi": 2885,
      "Com": 2886,
      "sign": 2887,
      "save</w>": 2888,
      "Wor": 2889,
      "respect</w>": 2890,
      "influ": 2891,
      "shou": 2892,
      "appear</w>": 2893,
      "clear": 2894,
      "pleasant</w>": 2895,
      "cape</w>": 2896,
      "rowing</w>": 2897,
      "breath</w>": 2898,
      "degre": 2899,
      "ancy</w>": 2900,
      "med": 2901,
      "July</w>": 2902,
      "cast</w>": 2903,
      "eable</w>": 2904,
      "move</w>": 2905,
      "ectly</w>": 2906,
      "party</w>": 2907,
      "watch</w>": 2908,
      "note</w>": 2909,
      "sad</w>": 2910,
      "grew</w>": 2911,
      "liked</w>": 2912,
      "virtue</w>": 2913,
      "bru": 2914,
      "rable</w>": 2915,
      "Anne</w>": 2916,
      "tains</w>": 2917,
      "person": 2918,
      "danger</w>": 2919,
      "drink</w>": 2920,
      "fancy</w>": 2921,
      "Ber": 2922,
      "Donâ</w>": 2923,
      "kov</w>": 2924,
      "Sc": 2925,
      "lose</w>": 2926,
      "maj": 2927,
      "commun": 2928,
      "Fre": 2929,
      "distin": 2930,
      "While</w>": 2931,
      "lov": 2932,
      "excell": 2933,
      "depar": 2934,
      "whatever</w>": 2935,
      "orig": 2936,
      "history</w>": 2937,
      "aring</w>": 2938,
      "learned</w>": 2939,
      "Dec</w>": 2940,
      "approa": 2941,
      "green</w>": 2942,
      "rd</w>": 2943,
      "indu": 2944,
      "nearly</w>": 2945,
      "closed</w>": 2946,
      "sword</w>": 2947,
      "ured</w>": 2948,
      "regard</w>": 2949,
      "Hol": 2950,
      "ister</w>": 2951,
      "chard</w>": 2952,
      "promise</w>": 2953,
      "beth</w>": 2954,
      "Street</w>": 2955,
      "laughed</w>": 2956,
      "gged</w>": 2957,
      "pediti": 2958,
      "vement</w>": 2959,
      "absolu": 2960,
      "aston": 2961,
      "pil": 2962,
      "New</w>": 2963,
      "kâ</w>": 2964,
      "Sh": 2965,
      "noon</w>": 2966,
      "condition</w>": 2967,
      "eep</w>": 2968,
      "sal</w>": 2969,
      "tten</w>": 2970,
      "satisfac": 2971,
      "lives</w>": 2972,
      "fight</w>": 2973,
      "pray</w>": 2974,
      "20</w>": 2975,
      "Christi": 2976,
      "coo": 2977,
      "exer": 2978,
      "bright</w>": 2979,
      "fixed</w>": 2980,
      "Jean</w>": 2981,
      "Tro": 2982,
      "Mu": 2983,
      "atures</w>": 2984,
      "floor</w>": 2985,
      "mond</w>": 2986,
      "repeated</w>": 2987,
      "works</w>": 2988,
      "expec": 2989,
      "Charles</w>": 2990,
      "according</w>": 2991,
      "ousin</w>": 2992,
      "thro": 2993,
      "letters</w>": 2994,
      "migh": 2995,
      "carry</w>": 2996,
      "im</w>": 2997,
      "mely</w>": 2998,
      "spent</w>": 2999,
      "presented</w>": 3000,
      ".'</w>": 3001,
      "contra": 3002,
      "vain</w>": 3003,
      "zet": 3004,
      "stret": 3005,
      "tory</w>": 3006,
      "suffici": 3007,
      "fatherâ</w>": 3008,
      "caught</w>": 3009,
      "Mer": 3010,
      "figure</w>": 3011,
      ".),</w>": 3012,
      "sea": 3013,
      "Eliza": 3014,
      "contrary</w>": 3015,
      "toward</w>": 3016,
      "ner": 3017,
      "cely</w>": 3018,
      "Such</w>": 3019,
      "threw</w>": 3020,
      "rank</w>": 3021,
      "Off": 3022,
      "author": 3023,
      "single</w>": 3024,
      "compli": 3025,
      "land": 3026,
      "Wal": 3027,
      "RY</w>": 3028,
      "pin": 3029,
      "faith</w>": 3030,
      "stron": 3031,
      "knowing</w>": 3032,
      "aâ</w>": 3033,
      "grand": 3034,
      "sorry</w>": 3035,
      "WILLI": 3036,
      "ught</w>": 3037,
      "goes</w>": 3038,
      "ST</w>": 3039,
      "physi": 3040,
      "perfectly</w>": 3041,
      "pocket</w>": 3042,
      "famil": 3043,
      "cr": 3044,
      "ony</w>": 3045,
      "gentle</w>": 3046,
      "pon</w>": 3047,
      "mada": 3048,
      "admir": 3049,
      "arch</w>": 3050,
      "mple</w>": 3051,
      "dare</w>": 3052,
      "botto": 3053,
      "thereâ</w>": 3054,
      "notice</w>": 3055,
      "forget</w>": 3056,
      "AC": 3057,
      "thed</w>": 3058,
      "ereâ</w>": 3059,
      "entirely</w>": 3060,
      "eting</w>": 3061,
      "paid</w>": 3062,
      "various</w>": 3063,
      "conne": 3064,
      "regi": 3065,
      "glan": 3066,
      "obliged</w>": 3067,
      "lars</w>": 3068,
      "Meg</w>": 3069,
      "Did</w>": 3070,
      "slowly</w>": 3071,
      "ignor": 3072,
      "South</w>": 3073,
      "mn</w>": 3074,
      "respon": 3075,
      "rol": 3076,
      "Mil": 3077,
      "sudden</w>": 3078,
      "amb": 3079,
      "office</w>": 3080,
      "uncle</w>": 3081,
      "esty</w>": 3082,
      "probably</w>": 3083,
      "regu": 3084,
      "sumed</w>": 3085,
      "merely</w>": 3086,
      "assur": 3087,
      "</w>": 3088,
      "Father</w>": 3089,
      "guar": 3090,
      "Russi": 3091,
      "Expediti": 3092,
      "allow</w>": 3093,
      "Expeditionary</w>": 3094,
      "smiled</w>": 3095,
      "Hel": 3096,
      "3rd</w>": 3097,
      "MI": 3098,
      "ja": 3099,
      "eless</w>": 3100,
      "seven</w>": 3101,
      "passing</w>": 3102,
      "persons</w>": 3103,
      "devo": 3104,
      "lab": 3105,
      "begin</w>": 3106,
      "situ": 3107,
      "pain": 3108,
      "wn</w>": 3109,
      "deser": 3110,
      "simple</w>": 3111,
      "lock</w>": 3112,
      "erful</w>": 3113,
      "leep</w>": 3114,
      "surprise</w>": 3115,
      "Church</w>": 3116,
      "avo": 3117,
      "sult</w>": 3118,
      "tery</w>": 3119,
      "etc</w>": 3120,
      "dden</w>": 3121,
      "Though</w>": 3122,
      "started</w>": 3123,
      "confu": 3124,
      "attack</w>": 3125,
      "draw</w>": 3126,
      "zen</w>": 3127,
      "bility</w>": 3128,
      "depen": 3129,
      "slee": 3130,
      "bs</w>": 3131,
      "dog</w>": 3132,
      "memory</w>": 3133,
      "holding</w>": 3134,
      "proud</w>": 3135,
      "mly</w>": 3136,
      "coast</w>": 3137,
      "vious</w>": 3138,
      ".;</w>": 3139,
      "gods</w>": 3140,
      "clothes</w>": 3141,
      "remain</w>": 3142,
      "religi": 3143,
      "oneâ</w>": 3144,
      "sugg": 3145,
      "Who": 3146,
      "hy": 3147,
      "rap": 3148,
      "?\"</w>": 3149,
      "Be</w>": 3150,
      "officers</w>": 3151,
      "12</w>": 3152,
      "foun": 3153,
      "advent": 3154,
      "separ": 3155,
      "belon": 3156,
      "Tw": 3157,
      "mbers</w>": 3158,
      "angry</w>": 3159,
      "Amy</w>": 3160,
      "ki": 3161,
      "rie</w>": 3162,
      "neck</w>": 3163,
      "shore</w>": 3164,
      "Scot": 3165,
      "distingu": 3166,
      "Elizabeth</w>": 3167,
      "ease</w>": 3168,
      "boys</w>": 3169,
      "delight</w>": 3170,
      "Bel": 3171,
      "PH": 3172,
      "Je": 3173,
      "reply</w>": 3174,
      "middle</w>": 3175,
      "Pla": 3176,
      "intro": 3177,
      "anim": 3178,
      "proper</w>": 3179,
      "village</w>": 3180,
      "wealth</w>": 3181,
      "Heaven</w>": 3182,
      "recogni": 3183,
      "CI": 3184,
      "ends</w>": 3185,
      "dep": 3186,
      "gnific": 3187,
      "JOH": 3188,
      "ordered</w>": 3189,
      "seized</w>": 3190,
      "10</w>": 3191,
      "disapp": 3192,
      "WILLIAM</w>": 3193,
      "Ivan": 3194,
      "shu": 3195,
      "vers</w>": 3196,
      "marry</w>": 3197,
      "Cap": 3198,
      "ants</w>": 3199,
      "government</w>": 3200,
      "passion</w>": 3201,
      "ka</w>": 3202,
      "inno": 3203,
      "spring</w>": 3204,
      "breast</w>": 3205,
      "spirits</w>": 3206,
      "circumstances</w>": 3207,
      "river</w>": 3208,
      "super": 3209,
      "ovitch</w>": 3210,
      "Count</w>": 3211,
      "bottom</w>": 3212,
      "scri": 3213,
      "rise</w>": 3214,
      "German</w>": 3215,
      "swi": 3216,
      "top</w>": 3217,
      "considered</w>": 3218,
      "study</w>": 3219,
      "Was</w>": 3220,
      "servan": 3221,
      "tis</w>": 3222,
      "Mat": 3223,
      "legs</w>": 3224,
      "tree</w>": 3225,
      "cler": 3226,
      "quie": 3227,
      "prev": 3228,
      "VI": 3229,
      "vag": 3230,
      "Sp": 3231,
      "enli": 3232,
      "week</w>": 3233,
      "bul": 3234,
      "ress</w>": 3235,
      "besides</w>": 3236,
      "produ": 3237,
      "Alyo": 3238,
      "amu": 3239,
      "stea": 3240,
      "splen": 3241,
      "GE</w>": 3242,
      "reading</w>": 3243,
      "iety</w>": 3244,
      "below</w>": 3245,
      "Marius</w>": 3246,
      "mate</w>": 3247,
      "courage</w>": 3248,
      "incl": 3249,
      "itor</w>": 3250,
      "sign</w>": 3251,
      "dance</w>": 3252,
      "drawn</w>": 3253,
      "eculi": 3254,
      "rance</w>": 3255,
      "false</w>": 3256,
      "queen</w>": 3257,
      "devil</w>": 3258,
      "acquaint": 3259,
      "won</w>": 3260,
      "righ": 3261,
      "Bi": 3262,
      "scene</w>": 3263,
      "guil": 3264,
      "places</w>": 3265,
      "soldier</w>": 3266,
      "ourselves</w>": 3267,
      "ribu": 3268,
      "meaning</w>": 3269,
      "ay</w>": 3270,
      "El": 3271,
      "SC": 3272,
      "asleep</w>": 3273,
      "mad</w>": 3274,
      "mid": 3275,
      "gotten</w>": 3276,
      "laughing</w>": 3277,
      "mal": 3278,
      "AND</w>": 3279,
      "peculi": 3280,
      "dship</w>": 3281,
      "deav": 3282,
      "compla": 3283,
      "TH</w>": 3284,
      "horri": 3285,
      "writing</w>": 3286,
      "JOHN</w>": 3287,
      "cross</w>": 3288,
      "opportunity</w>": 3289,
      "Chil": 3290,
      "shame</w>": 3291,
      "grief</w>": 3292,
      "orders</w>": 3293,
      "sigh": 3294,
      "boat</w>": 3295,
      "frequ": 3296,
      "NatÃ</w>": 3297,
      "fallen</w>": 3298,
      "ram": 3299,
      "box</w>": 3300,
      "smiling</w>": 3301,
      "satisfied</w>": 3302,
      "sex</w>": 3303,
      "od": 3304,
      "itable</w>": 3305,
      "fate</w>": 3306,
      "anci": 3307,
      "OU": 3308,
      "conce": 3309,
      "bow</w>": 3310,
      "cure</w>": 3311,
      "dang": 3312,
      "ara": 3313,
      "seat</w>": 3314,
      "tually</w>": 3315,
      "finished</w>": 3316,
      "settled</w>": 3317,
      "Tur": 3318,
      "shook</w>": 3319,
      "oppos": 3320,
      "heaven": 3321,
      "success</w>": 3322,
      "private</w>": 3323,
      "Their</w>": 3324,
      "excellent</w>": 3325,
      "25</w>": 3326,
      "dily</w>": 3327,
      "que</w>": 3328,
      "osity</w>": 3329,
      "lig": 3330,
      "lot</w>": 3331,
      "stantly</w>": 3332,
      "sorrow</w>": 3333,
      "noticed</w>": 3334,
      "Andrew</w>": 3335,
      "endeav": 3336,
      "kill</w>": 3337,
      "ply</w>": 3338,
      "ism</w>": 3339,
      "spoken</w>": 3340,
      "perfect</w>": 3341,
      "ssâ</w>": 3342,
      "engaged</w>": 3343,
      "CE</w>": 3344,
      "wide</w>": 3345,
      "promo": 3346,
      "quest</w>": 3347,
      "ops</w>": 3348,
      "ferred</w>": 3349,
      "comb": 3350,
      "mistress</w>": 3351,
      "comfort</w>": 3352,
      "health</w>": 3353,
      "consider</w>": 3354,
      "Youâ</w>": 3355,
      "rever": 3356,
      "som</w>": 3357,
      "learn</w>": 3358,
      "speech</w>": 3359,
      "dying</w>": 3360,
      "QU": 3361,
      "counten": 3362,
      "plu": 3363,
      "shut</w>": 3364,
      "ert</w>": 3365,
      "Alyosha</w>": 3366,
      "cher</w>": 3367,
      "Richard</w>": 3368,
      "spot</w>": 3369,
      "feelings</w>": 3370,
      "Cre": 3371,
      "drun": 3372,
      "phy</w>": 3373,
      "enced</w>": 3374,
      "chol": 3375,
      "deb": 3376,
      "187": 3377,
      "difference</w>": 3378,
      "od</w>": 3379,
      "_m</w>": 3380,
      "fru": 3381,
      "incre": 3382,
      "erous</w>": 3383,
      "atta": 3384,
      "escape</w>": 3385,
      "cries</w>": 3386,
      "heads</w>": 3387,
      "seek</w>": 3388,
      "Laurie</w>": 3389,
      "noise</w>": 3390,
      "dream</w>": 3391,
      "maid</w>": 3392,
      "offered</w>": 3393,
      "believed</w>": 3394,
      "origin": 3395,
      "deta": 3396,
      "sympa": 3397,
      "": 3398,
      "warm</w>": 3399,
      "auth": 3400,
      "regar": 3401,
      "conduct</w>": 3402,
      "liter": 3403,
      "ousness</w>": 3404,
      "dia</w>": 3405,
      "stop</w>": 3406,
      "surprised</w>": 3407,
      "wonder": 3408,
      "Major</w>": 3409,
      "30</w>": 3410,
      "lean": 3411,
      "rant</w>": 3412,
      "receive</w>": 3413,
      "Sop": 3414,
      "Edward</w>": 3415,
      "eunt</w>": 3416,
      "sick</w>": 3417,
      "journey</w>": 3418,
      "enlisted</w>": 3419,
      "divi": 3420,
      "miles</w>": 3421,
      "Class</w>": 3422,
      "hou": 3423,
      "unless</w>": 3424,
      "preten": 3425,
      "impro": 3426,
      "discovered</w>": 3427,
      "Monte</w>": 3428,
      "imagine</w>": 3429,
      "Thomas</w>": 3430,
      "Ga": 3431,
      "yi": 3432,
      "wore</w>": 3433,
      "proce": 3434,
      "ouses</w>": 3435,
      "darkness</w>": 3436,
      "soldiers</w>": 3437,
      "Tru": 3438,
      "Some": 3439,
      ".-</w>": 3440,
      "fool</w>": 3441,
      "iously</w>": 3442,
      "pride</w>": 3443,
      "taste</w>": 3444,
      "mony</w>": 3445,
      "Comm": 3446,
      "Fu": 3447,
      "argu": 3448,
      "exac": 3449,
      "matt": 3450,
      "conf": 3451,
      "Min": 3452,
      "iron</w>": 3453,
      "new": 3454,
      "likely</w>": 3455,
      "ising</w>": 3456,
      "Jane</w>": 3457,
      "pap": 3458,
      "touch</w>": 3459,
      "net</w>": 3460,
      "beneath</w>": 3461,
      "orted</w>": 3462,
      "post</w>": 3463,
      "persu": 3464,
      "important</w>": 3465,
      "repu": 3466,
      "honest</w>": 3467,
      "glance</w>": 3468,
      "servants</w>": 3469,
      "14</w>": 3470,
      "hot</w>": 3471,
      "Even</w>": 3472,
      "sures</w>": 3473,
      "gloo": 3474,
      "Yor": 3475,
      "Fer": 3476,
      "cking</w>": 3477,
      "thank</w>": 3478,
      "fly</w>": 3479,
      "insi": 3480,
      "stup": 3481,
      "resolved</w>": 3482,
      "influence</w>": 3483,
      "reck": 3484,
      "meâ</w>": 3485,
      "mble</w>": 3486,
      "hearing</w>": 3487,
      "esterday</w>": 3488,
      "vâ</w>": 3489,
      "difficulty</w>": 3490,
      "remembered</w>": 3491,
      "key</w>": 3492,
      "sau": 3493,
      "earne": 3494,
      "sion": 3495,
      "bury</w>": 3496,
      "bran": 3497,
      "imper": 3498,
      "00</w>": 3499,
      "je": 3500,
      "sole": 3501,
      "Gar": 3502,
      "prot": 3503,
      "affection</w>": 3504,
      "Ville": 3505,
      "worn</w>": 3506,
      "leg": 3507,
      "ense</w>": 3508,
      "LES</w>": 3509,
      "Ital": 3510,
      "gers</w>": 3511,
      "ince</w>": 3512,
      "4th</w>": 3513,
      "mortal</w>": 3514,
      "suspic": 3515,
      "parts</w>": 3516,
      "io</w>": 3517,
      "evidently</w>": 3518,
      "Tis</w>": 3519,
      "demo": 3520,
      "serious</w>": 3521,
      "bread</w>": 3522,
      "running</w>": 3523,
      "promised</w>": 3524,
      "beha": 3525,
      "forgotten</w>": 3526,
      "equal</w>": 3527,
      "House</w>": 3528,
      "ry": 3529,
      "sent": 3530,
      "resolu": 3531,
      "moder": 3532,
      "offer</w>": 3533,
      "talked</w>": 3534,
      "Rob": 3535,
      "attra": 3536,
      "favour</w>": 3537,
      "ple</w>": 3538,
      "nice</w>": 3539,
      "occur": 3540,
      "flowers</w>": 3541,
      "language</w>": 3542,
      "sacri": 3543,
      "destro": 3544,
      "Shall</w>": 3545,
      "Anna</w>": 3546,
      "----": 3547,
      "shal": 3548,
      "Rost": 3549,
      "satisfaction</w>": 3550,
      "Cris": 3551,
      "yel": 3552,
      "member</w>": 3553,
      "Cristo</w>": 3554,
      "appa": 3555,
      "questions</w>": 3556,
      ",--</w>": 3557,
      "couldnâ</w>": 3558,
      "mit</w>": 3559,
      "mere</w>": 3560,
      "mach": 3561,
      "assa": 3562,
      "month</w>": 3563,
      "13</w>": 3564,
      "cting</w>": 3565,
      "listened</w>": 3566,
      "Ti": 3567,
      "liberty</w>": 3568,
      "tender</w>": 3569,
      "fro": 3570,
      "due</w>": 3571,
      "swee": 3572,
      "free": 3573,
      "Ben": 3574,
      "determined</w>": 3575,
      "mighty</w>": 3576,
      "somewhat</w>": 3577,
      "nur": 3578,
      "telling</w>": 3579,
      "other": 3580,
      "tar": 3581,
      "quis": 3582,
      "Look</w>": 3583,
      "pun": 3584,
      "fil": 3585,
      "conscious</w>": 3586,
      "Phi": 3587,
      "AN</w>": 3588,
      "Very</w>": 3589,
      "experience</w>": 3590,
      "fish</w>": 3591,
      "stranger</w>": 3592,
      "forced</w>": 3593,
      "HEN": 3594,
      "itch": 3595,
      "main": 3596,
      "putting</w>": 3597,
      "Saint</w>": 3598,
      "Hope</w>": 3599,
      "tent</w>": 3600,
      "atic</w>": 3601,
      "que": 3602,
      "trust</w>": 3603,
      "shoulders</w>": 3604,
      "ph</w>": 3605,
      "ron</w>": 3606,
      "cover</w>": 3607,
      "prove</w>": 3608,
      "tea</w>": 3609,
      "wouldnâ</w>": 3610,
      "16</w>": 3611,
      "rence</w>": 3612,
      "despair</w>": 3613,
      "countenance</w>": 3614,
      "wis": 3615,
      "appointed</w>": 3616,
      "_Exeunt</w>": 3617,
      "mour</w>": 3618,
      "meeting</w>": 3619,
      "suggest": 3620,
      "eful</w>": 3621,
      "Stoker</w>": 3622,
      "armed</w>": 3623,
      "acci": 3624,
      "spect</w>": 3625,
      "ump": 3626,
      "tures</w>": 3627,
      "loud</w>": 3628,
      "gan": 3629,
      "inclu": 3630,
      "Two</w>": 3631,
      "fond</w>": 3632,
      "Euro": 3633,
      "CON": 3634,
      "cousin</w>": 3635,
      "bent</w>": 3636,
      "ves": 3637,
      "strugg": 3638,
      "Or": 3639,
      "safe</w>": 3640,
      "cian</w>": 3641,
      "fingers</w>": 3642,
      "interrup": 3643,
      "Nothing</w>": 3644,
      "Rue</w>": 3645,
      "Si": 3646,
      "bles</w>": 3647,
      "ounced</w>": 3648,
      "ower</w>": 3649,
      "produced</w>": 3650,
      "touched</w>": 3651,
      "Sta": 3652,
      "lead</w>": 3653,
      "dressing</w>": 3654,
      "reâ</w>": 3655,
      "distur": 3656,
      "kiss</w>": 3657,
      "lean</w>": 3658,
      "desired</w>": 3659,
      "Perhaps</w>": 3660,
      "cles</w>": 3661,
      "dged</w>": 3662,
      "promoted</w>": 3663,
      "eel</w>": 3664,
      "fea": 3665,
      "ma</w>": 3666,
      "pper</w>": 3667,
      "Joe</w>": 3668,
      "walls</w>": 3669,
      "volunte": 3670,
      "conc": 3671,
      "faces</w>": 3672,
      "nor": 3673,
      "ines</w>": 3674,
      "expect</w>": 3675,
      "scarcely</w>": 3676,
      "particularly</w>": 3677,
      "houses</w>": 3678,
      "Just</w>": 3679,
      "affec": 3680,
      "dreadful</w>": 3681,
      "opposite</w>": 3682,
      "bid</w>": 3683,
      "rough</w>": 3684,
      "ideas</w>": 3685,
      "crowd</w>": 3686,
      "spital</w>": 3687,
      "jean</w>": 3688,
      "gives</w>": 3689,
      "tren": 3690,
      "walking</w>": 3691,
      "Thee</w>": 3692,
      "inc": 3693,
      "Sophi": 3694,
      "visible</w>": 3695,
      "fault</w>": 3696,
      "Wat": 3697,
      "yours</w>": 3698,
      "outside</w>": 3699,
      "degree</w>": 3700,
      "gazet": 3701,
      "treat</w>": 3702,
      "positi": 3703,
      "Valjean</w>": 3704,
      "chamber</w>": 3705,
      "charming</w>": 3706,
      "Before</w>": 3707,
      "higher</w>": 3708,
      "rising</w>": 3709,
      "midst</w>": 3710,
      "finger</w>": 3711,
      "_Exit</w>": 3712,
      "house": 3713,
      "ber</w>": 3714,
      "rate</w>": 3715,
      "Athos</w>": 3716,
      "elds</w>": 3717,
      "passage</w>": 3718,
      "brave</w>": 3719,
      "Duke</w>": 3720,
      "DU": 3721,
      "leâ</w>": 3722,
      "dest": 3723,
      "decei": 3724,
      "concei": 3725,
      "CHAP": 3726,
      "Nay</w>": 3727,
      "difficult</w>": 3728,
      "gol": 3729,
      "yesterday</w>": 3730,
      "shadow</w>": 3731,
      "BO": 3732,
      "takes</w>": 3733,
      "eter": 3734,
      "</w>": 3735,
      "afternoon</w>": 3736,
      "gazetted</w>": 3737,
      "pac": 3738,
      "inci": 3739,
      "nose</w>": 3740,
      "Road</w>": 3741,
      "Mosco": 3742,
      "Heâ</w>": 3743,
      "ator</w>": 3744,
      "mies</w>": 3745,
      "possession</w>": 3746,
      "Ay</w>": 3747,
      "East</w>": 3748,
      "loves</w>": 3749,
      "ace</w>": 3750,
      "gor": 3751,
      "inf": 3752,
      "acquaintance</w>": 3753,
      "HENRY</w>": 3754,
      "execu": 3755,
      "burst</w>": 3756,
      "direction</w>": 3757,
      "DI": 3758,
      "ttered</w>": 3759,
      "mour": 3760,
      "wing</w>": 3761,
      "aded</w>": 3762,
      "Rome</w>": 3763,
      "capable</w>": 3764,
      "foot": 3765,
      "knees</w>": 3766,
      "supposed</w>": 3767,
      "decided</w>": 3768,
      "ical</w>": 3769,
      "thine</w>": 3770,
      "hill</w>": 3771,
      "calm</w>": 3772,
      "LET</w>": 3773,
      "matters</w>": 3774,
      "ie</w>": 3775,
      "judge</w>": 3776,
      "tless</w>": 3777,
      "11</w>": 3778,
      "ama": 3779,
      "gall": 3780,
      "sought</w>": 3781,
      "advantage</w>": 3782,
      "inti": 3783,
      "Cose": 3784,
      "break": 3785,
      "Lydg": 3786,
      "vity</w>": 3787,
      "soft</w>": 3788,
      "summer</w>": 3789,
      "prisoner</w>": 3790,
      "generally</w>": 3791,
      "Cer": 3792,
      "hes": 3793,
      "Afri": 3794,
      "blow</w>": 3795,
      "affair</w>": 3796,
      "State</w>": 3797,
      "Only</w>": 3798,
      "La</w>": 3799,
      "Ãº": 3800,
      "bil": 3801,
      "vell": 3802,
      "ability</w>": 3803,
      "guard</w>": 3804,
      "travel": 3805,
      "Pre": 3806,
      "elled</w>": 3807,
      "ssy</w>": 3808,
      "declared</w>": 3809,
      "gli": 3810,
      "anti": 3811,
      "sty": 3812,
      "Moscow</w>": 3813,
      "Lou": 3814,
      "stream</w>": 3815,
      "grown</w>": 3816,
      "CHAPTER</w>": 3817,
      "Upon</w>": 3818,
      "pair</w>": 3819,
      "exten": 3820,
      "complete</w>": 3821,
      "Villefort</w>": 3822,
      "yself</w>": 3823,
      "fortunate</w>": 3824,
      "Bla": 3825,
      "Ox": 3826,
      "tan": 3827,
      "drov": 3828,
      "conscience</w>": 3829,
      "weâ</w>": 3830,
      "17</w>": 3831,
      "RAN": 3832,
      "Alexandrov": 3833,
      "!\"</w>": 3834,
      "sooner</w>": 3835,
      "advice</w>": 3836,
      "prepared</w>": 3837,
      "recolle": 3838,
      "altogether</w>": 3839,
      "quick</w>": 3840,
      "IN</w>": 3841,
      "MAR": 3842,
      "terly</w>": 3843,
      "silver</w>": 3844,
      "GE": 3845,
      "van</w>": 3846,
      "affa": 3847,
      "turns</w>": 3848,
      "understanding</w>": 3849,
      "perceived</w>": 3850,
      "bol": 3851,
      "ington</w>": 3852,
      "aunt</w>": 3853,
      "ption</w>": 3854,
      "18</w>": 3855,
      "accep": 3856,
      "pardon</w>": 3857,
      "ide</w>": 3858,
      "revol": 3859,
      "waited</w>": 3860,
      "sterâ</w>": 3861,
      "Mit": 3862,
      "lion</w>": 3863,
      "everth": 3864,
      "triump": 3865,
      "Dr</w>": 3866,
      "terror</w>": 3867,
      "Christian</w>": 3868,
      "situation</w>": 3869,
      ");</w>": 3870,
      "famous</w>": 3871,
      "communic": 3872,
      "ben": 3873,
      "tall</w>": 3874,
      "wic": 3875,
      "thrown</w>": 3876,
      "ann": 3877,
      "arer</w>": 3878,
      "reven": 3879,
      "exactly</w>": 3880,
      "yment</w>": 3881,
      "oning</w>": 3882,
      "beg</w>": 3883,
      "tess</w>": 3884,
      "Tell</w>": 3885,
      "aside</w>": 3886,
      "dience</w>": 3887,
      "reach</w>": 3888,
      "lower</w>": 3889,
      "winter</w>": 3890,
      "Valancy</w>": 3891,
      "twice</w>": 3892,
      "Rif": 3893,
      "oul</w>": 3894,
      "lovely</w>": 3895,
      "RostÃ</w>": 3896,
      "greatly</w>": 3897,
      "anyone</w>": 3898,
      "ancient</w>": 3899,
      "haste</w>": 3900,
      "Thereâ</w>": 3901,
      "itical</w>": 3902,
      "otherwise</w>": 3903,
      "logi": 3904,
      "event</w>": 3905,
      "suit</w>": 3906,
      "regt</w>": 3907,
      "viour</w>": 3908,
      "Bor": 3909,
      "leaves</w>": 3910,
      "repro": 3911,
      "itors</w>": 3912,
      "rooms</w>": 3913,
      "handsome</w>": 3914,
      "twel": 3915,
      "alive</w>": 3916,
      "sligh": 3917,
      "hopes</w>": 3918,
      "All": 3919,
      "firm</w>": 3920,
      "names</w>": 3921,
      "finding</w>": 3922,
      "Emper": 3923,
      "Offic": 3924,
      "Sophia</w>": 3925,
      "coff": 3926,
      "calling</w>": 3927,
      "expla": 3928,
      "moving</w>": 3929,
      "Indeed</w>": 3930,
      "24</w>": 3931,
      "SH": 3932,
      "mped</w>": 3933,
      "companion</w>": 3934,
      "hung</w>": 3935,
      "cher": 3936,
      "laughter</w>": 3937,
      "However</w>": 3938,
      "gly</w>": 3939,
      "isel": 3940,
      "AR</w>": 3941,
      "pâ</w>": 3942,
      "tness</w>": 3943,
      "wounds</w>": 3944,
      "ext</w>": 3945,
      "Hon": 3946,
      "food</w>": 3947,
      "y_</w>": 3948,
      "pole": 3949,
      "exist": 3950,
      "23</w>": 3951,
      "Lan": 3952,
      "yard</w>": 3953,
      "onable</w>": 3954,
      "suffer</w>": 3955,
      "indivi": 3956,
      "Bra": 3957,
      "paren": 3958,
      "example</w>": 3959,
      "Had</w>": 3960,
      "ball</w>": 3961,
      "Would</w>": 3962,
      "tt</w>": 3963,
      "ics</w>": 3964,
      "disgu": 3965,
      "taining</w>": 3966,
      "affairs</w>": 3967,
      "itated</w>": 3968,
      "leading</w>": 3969,
      "Ever": 3970,
      "Gener": 3971,
      "fair": 3972,
      "Master</w>": 3973,
      "individu": 3974,
      "thin</w>": 3975,
      "eli": 3976,
      "played</w>": 3977,
      "mental</w>": 3978,
      "26</w>": 3979,
      "hurt</w>": 3980,
      "shoulder</w>": 3981,
      "ot</w>": 3982,
      "hearts</w>": 3983,
      "listen</w>": 3984,
      "Dang": 3985,
      "Sal": 3986,
      "dor</w>": 3987,
      "property</w>": 3988,
      "terâ</w>": 3989,
      "ests</w>": 3990,
      "suffered</w>": 3991,
      "Peter</w>": 3992,
      "famili": 3993,
      "elder</w>": 3994,
      "expressed</w>": 3995,
      "thea</w>": 3996,
      "truly</w>": 3997,
      "keeping</w>": 3998,
      "Cour": 3999,
      "There": 4000,
      "trenches</w>": 4001,
      "FIR": 4002,
      "ca</w>": 4003,
      "teeth</w>": 4004,
      "gues</w>": 4005,
      "Col</w>": 4006,
      "down": 4007,
      "extraordinary</w>": 4008,
      "kissed</w>": 4009,
      "Is": 4010,
      "apar": 4011,
      "nine</w>": 4012,
      "tted</w>": 4013,
      "Every</w>": 4014,
      "ra</w>": 4015,
      "ceâ</w>": 4016,
      "lines</w>": 4017,
      "Gri": 4018,
      "begun</w>": 4019,
      "CA": 4020,
      "vered</w>": 4021,
      "asha": 4022,
      "Princess</w>": 4023,
      "mination</w>": 4024,
      "Dorothea</w>": 4025,
      "mercy</w>": 4026,
      "throw</w>": 4027,
      "hab": 4028,
      "rang</w>": 4029,
      "vil</w>": 4030,
      "confidence</w>": 4031,
      "thick</w>": 4032,
      "tender": 4033,
      "See</w>": 4034,
      "happen</w>": 4035,
      "gest</w>": 4036,
      "BE": 4037,
      "Pu": 4038,
      "neg": 4039,
      "faith": 4040,
      "ENE</w>": 4041,
      "convin": 4042,
      "tit": 4043,
      "hole</w>": 4044,
      "Hor": 4045,
      "inj": 4046,
      "unhappy</w>": 4047,
      "Lucy</w>": 4048,
      "FIRST</w>": 4049,
      "hau": 4050,
      "ector</w>": 4051,
      "effec": 4052,
      "Chili</w>": 4053,
      "esâ</w>": 4054,
      "yers</w>": 4055,
      "fifty</w>": 4056,
      "six": 4057,
      "peculiar</w>": 4058,
      "honor</w>": 4059,
      "polit": 4060,
      "host</w>": 4061,
      "Coronel</w>": 4062,
      "ess": 4063,
      "conven": 4064,
      "serving</w>": 4065,
      "hero": 4066,
      "ception</w>": 4067,
      "whence</w>": 4068,
      "SCENE</w>": 4069,
      "volunteered</w>": 4070,
      "Cosette</w>": 4071,
      "cap</w>": 4072,
      "movement</w>": 4073,
      "Take</w>": 4074,
      "evertheless</w>": 4075,
      "consequence</w>": 4076,
      "path</w>": 4077,
      "eces</w>": 4078,
      "West</w>": 4079,
      "praise</w>": 4080,
      "stern</w>": 4081,
      "discu": 4082,
      "Bea": 4083,
      "Win": 4084,
      "weak</w>": 4085,
      "plan</w>": 4086,
      "nights</w>": 4087,
      "ables</w>": 4088,
      "chief": 4089,
      "AND": 4090,
      "21</w>": 4091,
      "dry</w>": 4092,
      "share</w>": 4093,
      "Beth</w>": 4094,
      "sufficient</w>": 4095,
      "author</w>": 4096,
      "tac": 4097,
      "miss</w>": 4098,
      "appears</w>": 4099,
      "unknown</w>": 4100,
      "non</w>": 4101,
      "186": 4102,
      "authority</w>": 4103,
      "illa</w>": 4104,
      "Brit": 4105,
      "ourable</w>": 4106,
      "senti": 4107,
      "Albert</w>": 4108,
      "mention</w>": 4109,
      "regre": 4110,
      "moon</w>": 4111,
      "holy</w>": 4112,
      "gently</w>": 4113,
      "ashamed</w>": 4114,
      "stened</w>": 4115,
      "eldest</w>": 4116,
      "unable</w>": 4117,
      "may": 4118,
      "broad</w>": 4119,
      "Ark": 4120,
      "eness</w>": 4121,
      "deman": 4122,
      "myster": 4123,
      "succeeded</w>": 4124,
      "ade</w>": 4125,
      "ler": 4126,
      "ser</w>": 4127,
      "sheâ</w>": 4128,
      "excited</w>": 4129,
      "acquainted</w>": 4130,
      "kable</w>": 4131,
      "sens": 4132,
      "thirty</w>": 4133,
      "existence</w>": 4134,
      "29</w>": 4135,
      "grow</w>": 4136,
      "MAN</w>": 4137,
      "Pet": 4138,
      "bell</w>": 4139,
      "ker": 4140,
      "spread</w>": 4141,
      "bosom</w>": 4142,
      "bore</w>": 4143,
      "directly</w>": 4144,
      "Napole": 4145,
      "anxious</w>": 4146,
      "comra": 4147,
      "disappear": 4148,
      "War</w>": 4149,
      "ssions</w>": 4150,
      "Besides</w>": 4151,
      "dropped</w>": 4152,
      "Fir": 4153,
      "cally</w>": 4154,
      "gather": 4155,
      "formation</w>": 4156,
      "wonderful</w>": 4157,
      "ison</w>": 4158,
      "tors</w>": 4159,
      "period</w>": 4160,
      "amon": 4161,
      "train</w>": 4162,
      "BERT</w>": 4163,
      "divine</w>": 4164,
      "ancho": 4165,
      "dgment</w>": 4166,
      "glory</w>": 4167,
      "francs</w>": 4168,
      "Lea": 4169,
      "ming": 4170,
      "anâ</w>": 4171,
      "retired</w>": 4172,
      "windows</w>": 4173,
      "back": 4174,
      "fat": 4175,
      "hate</w>": 4176,
      "main</w>": 4177,
      "estab": 4178,
      "mark</w>": 4179,
      "27</w>": 4180,
      "Doc": 4181,
      "Kingâ</w>": 4182,
      "Vron": 4183,
      "ana</w>": 4184,
      "accompan": 4185,
      "double</w>": 4186,
      "Danglars</w>": 4187,
      "19</w>": 4188,
      "shel": 4189,
      "confess</w>": 4190,
      "ank</w>": 4191,
      "rain</w>": 4192,
      "miserable</w>": 4193,
      "splendid</w>": 4194,
      "wound</w>": 4195,
      "1913</w>": 4196,
      "Queen</w>": 4197,
      "quarter</w>": 4198,
      "laws</w>": 4199,
      "welcome</w>": 4200,
      "attempt</w>": 4201,
      "Ter": 4202,
      "seated</w>": 4203,
      "worship</w>": 4204,
      "reader</w>": 4205,
      "intended</w>": 4206,
      "Cad": 4207,
      "rapi": 4208,
      "issu": 4209,
      "proceeded</w>": 4210,
      "whale</w>": 4211,
      "twelve</w>": 4212,
      "Es": 4213,
      "vie": 4214,
      "flesh</w>": 4215,
      "possessed</w>": 4216,
      "ceased</w>": 4217,
      "horror</w>": 4218,
      "watched</w>": 4219,
      "streets</w>": 4220,
      "suffering</w>": 4221,
      "fashion</w>": 4222,
      "ancholy</w>": 4223,
      "wear</w>": 4224,
      "ational</w>": 4225,
      "presently</w>": 4226,
      "trembling</w>": 4227,
      "Chi": 4228,
      "High": 4229,
      "castle</w>": 4230,
      "entre": 4231,
      "empty</w>": 4232,
      "Give</w>": 4233,
      "iz": 4234,
      "tch</w>": 4235,
      "post": 4236,
      "special</w>": 4237,
      "chester</w>": 4238,
      "forgive</w>": 4239,
      "pres</w>": 4240,
      "pet": 4241,
      "uttered</w>": 4242,
      "success": 4243,
      "picture</w>": 4244,
      "four": 4245,
      "non": 4246,
      "caused</w>": 4247,
      "scor": 4248,
      "Captain</w>": 4249,
      "Lydgate</w>": 4250,
      "Ano": 4251,
      "Ear": 4252,
      "kins</w>": 4253,
      "gained</w>": 4254,
      "thinks</w>": 4255,
      "impati": 4256,
      "gel</w>": 4257,
      "everybody</w>": 4258,
      "IS</w>": 4259,
      "Ypres</w>": 4260,
      "bed": 4261,
      "gade</w>": 4262,
      "ships</w>": 4263,
      "shouted</w>": 4264,
      "style</w>": 4265,
      "bbed</w>": 4266,
      "tle</w>": 4267,
      "rust</w>": 4268,
      "effort</w>": 4269,
      "hin": 4270,
      "ference</w>": 4271,
      "frightened</w>": 4272,
      "ak</w>": 4273,
      "education</w>": 4274,
      "bott": 4275,
      "lie": 4276,
      "treated</w>": 4277,
      "begged</w>": 4278,
      "rehen": 4279,
      "28</w>": 4280,
      "Can</w>": 4281,
      "ances</w>": 4282,
      "cept</w>": 4283,
      "succe": 4284,
      "melancholy</w>": 4285,
      "Cal": 4286,
      "doors</w>": 4287,
      "Han": 4288,
      "beat</w>": 4289,
      "listening</w>": 4290,
      "asking</w>": 4291,
      "prison</w>": 4292,
      "finite</w>": 4293,
      "breakfast</w>": 4294,
      "Amer": 4295,
      "With": 4296,
      "mir": 4297,
      "LE</w>": 4298,
      "Never</w>": 4299,
      "Uly": 4300,
      "bon": 4301,
      "aled</w>": 4302,
      "Another</w>": 4303,
      "enjoy</w>": 4304,
      "acy</w>": 4305,
      "Vi": 4306,
      "stat": 4307,
      "motherâ</w>": 4308,
      "whispered</w>": 4309,
      "sper": 4310,
      "fice</w>": 4311,
      "valu": 4312,
      "completely</w>": 4313,
      "gradu": 4314,
      "ORD</w>": 4315,
      "outh": 4316,
      "vision</w>": 4317,
      "mani": 4318,
      "convic": 4319,
      "increas": 4320,
      "disap": 4321,
      "kitch": 4322,
      "pure</w>": 4323,
      "orâ</w>": 4324,
      "station</w>": 4325,
      "jeal": 4326,
      "rat": 4327,
      "willing</w>": 4328,
      "Christ": 4329,
      "curious</w>": 4330,
      "crying</w>": 4331,
      "clasp": 4332,
      "mater": 4333,
      "drove</w>": 4334,
      "figh": 4335,
      "ssive</w>": 4336,
      "Guards</w>": 4337,
      "intellig": 4338,
      "Den": 4339,
      "aten</w>": 4340,
      "superi": 4341,
      "ENT": 4342,
      "aware</w>": 4343,
      "Wa": 4344,
      "lec": 4345,
      "quietly</w>": 4346,
      "dangerous</w>": 4347,
      "Mitya</w>": 4348,
      "best": 4349,
      "proved</w>": 4350,
      "General</w>": 4351,
      "chel": 4352,
      "grass</w>": 4353,
      "surr": 4354,
      "occupied</w>": 4355,
      "sin</w>": 4356,
      "acity</w>": 4357,
      "seless</w>": 4358,
      "Haw": 4359,
      "aid</w>": 4360,
      "stands</w>": 4361,
      "bird</w>": 4362,
      "yellow</w>": 4363,
      "thi": 4364,
      "naturally</w>": 4365,
      "golden</w>": 4366,
      "convinced</w>": 4367,
      "OR</w>": 4368,
      "knight</w>": 4369,
      "vance</w>": 4370,
      "actually</w>": 4371,
      "forms</w>": 4372,
      "moments</w>": 4373,
      "king": 4374,
      "reti": 4375,
      "actions</w>": 4376,
      "rushed</w>": 4377,
      "misery</w>": 4378,
      "freedom</w>": 4379,
      "moral</w>": 4380,
      "treas": 4381,
      "Porthos</w>": 4382,
      "bridge</w>": 4383,
      "neighb": 4384,
      "restra": 4385,
      "drop</w>": 4386,
      "violent</w>": 4387,
      "events</w>": 4388,
      "utmost</w>": 4389,
      "IUS</w>": 4390,
      "pieces</w>": 4391,
      "mma</w>": 4392,
      "falling</w>": 4393,
      "Old</w>": 4394,
      "Pol": 4395,
      "simil": 4396,
      "taught</w>": 4397,
      "curiosity</w>": 4398,
      "NOR": 4399,
      "employed</w>": 4400,
      "bled</w>": 4401,
      "tin</w>": 4402,
      "result</w>": 4403,
      "dic": 4404,
      "Americ": 4405,
      "Sun": 4406,
      "wed</w>": 4407,
      "anger</w>": 4408,
      "ises</w>": 4409,
      "swear</w>": 4410,
      "space</w>": 4411,
      "Bloo": 4412,
      "III</w>": 4413,
      "snow</w>": 4414,
      "secu": 4415,
      "shown</w>": 4416,
      "island</w>": 4417,
      "content</w>": 4418,
      "instance</w>": 4419,
      "impression</w>": 4420,
      "portion</w>": 4421,
      "drive</w>": 4422,
      "madam</w>": 4423,
      "bare</w>": 4424,
      "rious</w>": 4425,
      "nikov</w>": 4426,
      "friendship</w>": 4427,
      "ret</w>": 4428,
      "search</w>": 4429,
      "del</w>": 4430,
      "Am": 4431,
      "priest</w>": 4432,
      "highest</w>": 4433,
      "CE": 4434,
      "absolutely</w>": 4435,
      "flew</w>": 4436,
      "gned</w>": 4437,
      "ANT": 4438,
      "mbs</w>": 4439,
      "dust</w>": 4440,
      "mankind</w>": 4441,
      "watching</w>": 4442,
      "demoisel": 4443,
      "present": 4444,
      "agreeable</w>": 4445,
      "lad": 4446,
      "imagination</w>": 4447,
      "considerable</w>": 4448,
      "gest": 4449,
      "opening</w>": 4450,
      "class</w>": 4451,
      "lifted</w>": 4452,
      "Scene</w>": 4453,
      "kitchen</w>": 4454,
      "nation</w>": 4455,
      "rie": 4456,
      "soever</w>": 4457,
      "car</w>": 4458,
      "terms</w>": 4459,
      "blind</w>": 4460,
      "SON</w>": 4461,
      "dru": 4462,
      "RU": 4463,
      "tier</w>": 4464,
      "Que": 4465,
      "coura": 4466,
      "lun": 4467,
      "mit": 4468,
      "use": 4469,
      "squire</w>": 4470,
      "histor": 4471,
      "arrival</w>": 4472,
      "interrupted</w>": 4473,
      "bas": 4474,
      "thyself</w>": 4475,
      "rish</w>": 4476,
      "ssor</w>": 4477,
      "harm</w>": 4478,
      "crime</w>": 4479,
      "First</w>": 4480,
      "commission</w>": 4481,
      "Sover": 4482,
      "supper</w>": 4483,
      "Valent": 4484,
      "Alexey</w>": 4485,
      "comfortable</w>": 4486,
      "dier</w>": 4487,
      "merly</w>": 4488,
      "Because</w>": 4489,
      "sharp</w>": 4490,
      "spar": 4491,
      "cred": 4492,
      "31</w>": 4493,
      "FRE": 4494,
      "Still</w>": 4495,
      "mira": 4496,
      "Uni": 4497,
      "broo": 4498,
      "ha</w>": 4499,
      "ddle": 4500,
      "forest</w>": 4501,
      "value</w>": 4502,
      "zar": 4503,
      "ador": 4504,
      "Marilla</w>": 4505,
      "India</w>": 4506,
      "HAM": 4507,
      "habit</w>": 4508,
      "askol": 4509,
      "Raskol": 4510,
      "gun": 4511,
      "wit</w>": 4512,
      "consent</w>": 4513,
      "1912</w>": 4514,
      "Great</w>": 4515,
      "advanced</w>": 4516,
      "DE": 4517,
      "theat": 4518,
      "fulness</w>": 4519,
      "express</w>": 4520,
      "Whatâ</w>": 4521,
      "Ulysses</w>": 4522,
      "Broo": 4523,
      "Pal": 4524,
      "pron": 4525,
      "wâ</w>": 4526,
      "dish</w>": 4527,
      "ovna</w>": 4528,
      "delighted</w>": 4529,
      "demoiselle</w>": 4530,
      "rev": 4531,
      "blame</w>": 4532,
      "Law</w>": 4533,
      "GH": 4534,
      "SE</w>": 4535,
      "inly</w>": 4536,
      "vast</w>": 4537,
      "everyone</w>": 4538,
      "papers</w>": 4539,
      "lli": 4540,
      "schoo": 4541,
      "alities</w>": 4542,
      "surely</w>": 4543,
      "OM": 4544,
      "dost</w>": 4545,
      "ctive</w>": 4546,
      "Therefore</w>": 4547,
      "abs": 4548,
      "_â</w>": 4549,
      "swa": 4550,
      "active</w>": 4551,
      "conqu": 4552,
      "join</w>": 4553,
      "Like</w>": 4554,
      "agreed</w>": 4555,
      "resemb": 4556,
      "cise</w>": 4557,
      "skin</w>": 4558,
      "astoni": 4559,
      "Fri": 4560,
      "d_</w>": 4561,
      "KE</w>": 4562,
      "ach": 4563,
      "itty</w>": 4564,
      "dol": 4565,
      "nt</w>": 4566,
      "restor": 4567,
      "claim</w>": 4568,
      "Vronsky</w>": 4569,
      "minds</w>": 4570,
      "Jove</w>": 4571,
      "possibly</w>": 4572,
      "slave</w>": 4573,
      "assured</w>": 4574,
      "dings</w>": 4575,
      "birth</w>": 4576,
      "concerning</w>": 4577,
      "cen": 4578,
      "bold</w>": 4579,
      "posing</w>": 4580,
      "bank</w>": 4581,
      "distinguished</w>": 4582,
      "shalt</w>": 4583,
      "wisdom</w>": 4584,
      "Sur": 4585,
      "sar</w>": 4586,
      "dull</w>": 4587,
      "ICK</w>": 4588,
      "explain</w>": 4589,
      "obtained</w>": 4590,
      "wants</w>": 4591,
      "approached</w>": 4592,
      "nobody</w>": 4593,
      "sav": 4594,
      "RICH": 4595,
      "Sergt</w>": 4596,
      "RA": 4597,
      "tant</w>": 4598,
      "fanci": 4599,
      "thanks</w>": 4600,
      "interesting</w>": 4601,
      "ior</w>": 4602,
      "tary</w>": 4603,
      "Mari": 4604,
      "burg</w>": 4605,
      "Fo": 4606,
      "Vas": 4607,
      "tured</w>": 4608,
      "princess</w>": 4609,
      "carefully</w>": 4610,
      "smoke</w>": 4611,
      "prevent</w>": 4612,
      "escap": 4613,
      "excit": 4614,
      "excuse</w>": 4615,
      "keeper</w>": 4616,
      "occurred</w>": 4617,
      "Ac": 4618,
      "rec": 4619,
      "sum</w>": 4620,
      "fee": 4621,
      "duke</w>": 4622,
      "distant</w>": 4623,
      "pointment</w>": 4624,
      "kindness</w>": 4625,
      "mistake</w>": 4626,
      "Sovera": 4627,
      "dges</w>": 4628,
      "rule</w>": 4629,
      "wishes</w>": 4630,
      "day": 4631,
      "tel</w>": 4632,
      "Those</w>": 4633,
      "Russian</w>": 4634,
      "GEOR": 4635,
      "War": 4636,
      "slow</w>": 4637,
      "yev": 4638,
      "forehead</w>": 4639,
      "wretched</w>": 4640,
      "IV</w>": 4641,
      "ah</w>": 4642,
      "growing</w>": 4643,
      "hence</w>": 4644,
      "Cu": 4645,
      "owing</w>": 4646,
      "Having</w>": 4647,
      "interested</w>": 4648,
      "parents</w>": 4649,
      "GEORGE</w>": 4650,
      "reover</w>": 4651,
      "etry</w>": 4652,
      "sensible</w>": 4653,
      "weeks</w>": 4654,
      "avoid</w>": 4655,
      "raise</w>": 4656,
      "poe": 4657,
      "regular</w>": 4658,
      "eager": 4659,
      "....": 4660,
      "PE": 4661,
      "seâ</w>": 4662,
      "bree": 4663,
      "Bul": 4664,
      "landers</w>": 4665,
      "Nichol": 4666,
      "mans</w>": 4667,
      "gging</w>": 4668,
      "establi": 4669,
      "hoo": 4670,
      "rt</w>": 4671,
      "behold</w>": 4672,
      "owed</w>": 4673,
      "hoped</w>": 4674,
      "Morrel</w>": 4675,
      "regarded</w>": 4676,
      "plat": 4677,
      "thri": 4678,
      "condem": 4679,
      "mber": 4680,
      "fields</w>": 4681,
      "march</w>": 4682,
      "hide</w>": 4683,
      "woods</w>": 4684,
      "Holmes</w>": 4685,
      "He": 4686,
      "Woo": 4687,
      "shor": 4688,
      "ooth</w>": 4689,
      "formerly</w>": 4690,
      "immen": 4691,
      "start</w>": 4692,
      "personal</w>": 4693,
      "attached</w>": 4694,
      "Bro": 4695,
      "evol": 4696,
      "fier": 4697,
      "carrying</w>": 4698,
      "murder</w>": 4699,
      "measure</w>": 4700,
      "Greek</w>": 4701,
      "innocent</w>": 4702,
      "instantly</w>": 4703,
      "hat": 4704,
      "saved</w>": 4705,
      "creatures</w>": 4706,
      "report</w>": 4707,
      "inn</w>": 4708,
      "dign": 4709,
      "worked</w>": 4710,
      "gazed</w>": 4711,
      "usually</w>": 4712,
      "sman</w>": 4713,
      "Middle": 4714,
      "finally</w>": 4715,
      "necessity</w>": 4716,
      "Emperor</w>": 4717,
      "Aga": 4718,
      "kni": 4719,
      "song</w>": 4720,
      "beheld</w>": 4721,
      "lover</w>": 4722,
      "assure</w>": 4723,
      "ELL": 4724,
      "reputation</w>": 4725,
      "fer</w>": 4726,
      "sac": 4727,
      "working</w>": 4728,
      "DER": 4729,
      "Dant": 4730,
      "reasons</w>": 4731,
      "lets</w>": 4732,
      "cil</w>": 4733,
      "god</w>": 4734,
      "lands</w>": 4735,
      "candle</w>": 4736,
      ":--</w>": 4737,
      "Bur": 4738,
      "_S": 4739,
      "DantÃ</w>": 4740,
      "Mac": 4741,
      "inspir": 4742,
      "ruin</w>": 4743,
      "burning</w>": 4744,
      "illu": 4745,
      "mes": 4746,
      "advance</w>": 4747,
      "powers</w>": 4748,
      "Freder": 4749,
      "informed</w>": 4750,
      "lad</w>": 4751,
      "forgot</w>": 4752,
      "worst</w>": 4753,
      "gement</w>": 4754,
      "Cather": 4755,
      "indign": 4756,
      "Kitty</w>": 4757,
      "souls</w>": 4758,
      "Napoleon</w>": 4759,
      "HAMLET</w>": 4760,
      "gst</w>": 4761,
      "native</w>": 4762,
      "recomm": 4763,
      "bbing</w>": 4764,
      "ET</w>": 4765,
      "weather</w>": 4766,
      "13": 4767,
      "clean</w>": 4768,
      "rewell</w>": 4769,
      "loving</w>": 4770,
      "desper": 4771,
      "Mal": 4772,
      "Power</w>": 4773,
      "Vic": 4774,
      "lst</w>": 4775,
      "ink</w>": 4776,
      "temper</w>": 4777,
      "game</w>": 4778,
      "observ": 4779,
      "brilli": 4780,
      "cheeks</w>": 4781,
      "bun": 4782,
      "dents</w>": 4783,
      "bitter</w>": 4784,
      "stretched</w>": 4785,
      "conveni": 4786,
      "Beau": 4787,
      "Raskolnikov</w>": 4788,
      "stones</w>": 4789,
      "disposition</w>": 4790,
      "burgh</w>": 4791,
      "CHAR": 4792,
      "Brigade</w>": 4793,
      "philosophy</w>": 4794,
      "drunk</w>": 4795,
      "slight</w>": 4796,
      "shâ</w>": 4797,
      "fail</w>": 4798,
      "clearly</w>": 4799,
      "Aunt</w>": 4800,
      "sonâ</w>": 4801,
      "metho": 4802,
      "refused</w>": 4803,
      "RICHARD</w>": 4804,
      "za</w>": 4805,
      "Coy</w>": 4806,
      "choose</w>": 4807,
      "original</w>": 4808,
      "disappeared</w>": 4809,
      ",'</w>": 4810,
      "WARD</w>": 4811,
      "lo</w>": 4812,
      "eyed</w>": 4813,
      "attac": 4814,
      "Poor</w>": 4815,
      "Ivan</w>": 4816,
      "ided</w>": 4817,
      "prick</w>": 4818,
      "devel": 4819,
      "intention</w>": 4820,
      "catch</w>": 4821,
      "ee</w>": 4822,
      "vert</w>": 4823,
      "kewise</w>": 4824,
      "mounted</w>": 4825,
      "ass</w>": 4826,
      "apo": 4827,
      "betra": 4828,
      "accu": 4829,
      "judgment</w>": 4830,
      "engag": 4831,
      "blan": 4832,
      "ose</w>": 4833,
      "gress</w>": 4834,
      "deeply</w>": 4835,
      "equally</w>": 4836,
      "Gra": 4837,
      "indul": 4838,
      "Valentine</w>": 4839,
      "pse</w>": 4840,
      "t_</w>": 4841,
      "xi": 4842,
      "theyâ</w>": 4843,
      "leg</w>": 4844,
      "prece": 4845,
      "lighted</w>": 4846,
      "transl": 4847,
      "Lat": 4848,
      "XX": 4849,
      "inquired</w>": 4850,
      "support</w>": 4851,
      "pl</w>": 4852,
      "entrance</w>": 4853,
      "184": 4854,
      "familiar</w>": 4855,
      "5th</w>": 4856,
      "LU": 4857,
      "kin</w>": 4858,
      "tied</w>": 4859,
      "nearer</w>": 4860,
      "sport</w>": 4861,
      "versity</w>": 4862,
      "absence</w>": 4863,
      "Zara": 4864,
      "citi": 4865,
      "sis</w>": 4866,
      "sten</w>": 4867,
      "forty</w>": 4868,
      "furn": 4869,
      "pit": 4870,
      "zy</w>": 4871,
      "barri": 4872,
      "Christ</w>": 4873,
      "farther</w>": 4874,
      "medal</w>": 4875,
      "wicked</w>": 4876,
      "teach</w>": 4877,
      "wra": 4878,
      "glanced</w>": 4879,
      "minister</w>": 4880,
      "shape</w>": 4881,
      "venâ</w>": 4882,
      "awful</w>": 4883,
      "pulled</w>": 4884,
      "contro": 4885,
      "fighting</w>": 4886,
      "Zarathu": 4887,
      "task</w>": 4888,
      "highly</w>": 4889,
      "sympathy</w>": 4890,
      "sen</w>": 4891,
      "guilty</w>": 4892,
      "Elin": 4893,
      "gâ</w>": 4894,
      "mitted</w>": 4895,
      "returning</w>": 4896,
      "becoming</w>": 4897,
      "spend</w>": 4898,
      "ceful</w>": 4899,
      "STA": 4900,
      "murmur": 4901,
      "thusi": 4902,
      "Sy": 4903,
      "ling": 4904,
      "manners</w>": 4905,
      "185": 4906,
      "subjects</w>": 4907,
      "THO": 4908,
      "Sha": 4909,
      "pen</w>": 4910,
      "coach</w>": 4911,
      "Andre": 4912,
      "monstr": 4913,
      "ston</w>": 4914,
      "Jose": 4915,
      "20": 4916,
      "Ren": 4917,
      "jected</w>": 4918,
      "rey</w>": 4919,
      "rock</w>": 4920,
      "grand</w>": 4921,
      "estern</w>": 4922,
      "1911</w>": 4923,
      "fellows</w>": 4924,
      "affected</w>": 4925,
      "fled</w>": 4926,
      "flat": 4927,
      "rested</w>": 4928,
      "pub</w>": 4929,
      "needs</w>": 4930,
      "York</w>": 4931,
      "civil": 4932,
      "foreign</w>": 4933,
      "narrow</w>": 4934,
      "vessel</w>": 4935,
      "Fyo": 4936,
      "uten": 4937,
      "luck": 4938,
      "troops</w>": 4939,
      "confusion</w>": 4940,
      "explained</w>": 4941,
      "accusto": 4942,
      "ically</w>": 4943,
      "playing</w>": 4944,
      "brain</w>": 4945,
      "grant</w>": 4946,
      "e_</w>": 4947,
      "eve</w>": 4948,
      "neâ</w>": 4949,
      "stars</w>": 4950,
      "patience</w>": 4951,
      "ramis</w>": 4952,
      "calls</w>": 4953,
      "Jen": 4954,
      "flight</w>": 4955,
      "ili": 4956,
      "friendly</w>": 4957,
      "Austr": 4958,
      "discour": 4959,
      "bac": 4960,
      "ressed</w>": 4961,
      "oft</w>": 4962,
      "importance</w>": 4963,
      "cated</w>": 4964,
      "": 4965,
      "proof</w>": 4966,
      "compar": 4967,
      "ple": 4968,
      "enemies</w>": 4969,
      "1900</w>": 4970,
      "direct</w>": 4971,
      "kindly</w>": 4972,
      "_pub</w>": 4973,
      "oh</w>": 4974,
      "yards</w>": 4975,
      "mps</w>": 4976,
      "Egy": 4977,
      "police</w>": 4978,
      "menâ</w>": 4979,
      "Aramis</w>": 4980,
      "rejo": 4981,
      "stage</w>": 4982,
      "human": 4983,
      "embra": 4984,
      "bowed</w>": 4985,
      "delicious</w>": 4986,
      "Nicholas</w>": 4987,
      "che</w>": 4988,
      "enever</w>": 4989,
      "enchan": 4990,
      "enthusi": 4991,
      "assu": 4992,
      "hero</w>": 4993,
      "voices</w>": 4994,
      "thorough": 4995,
      "birds</w>": 4996,
      "crossed</w>": 4997,
      "delicate</w>": 4998,
      "introdu": 4999,
      "sacred</w>": 5000,
      "Australi": 5001,
      "Sil": 5002,
      "likewise</w>": 5003,
      "popu": 5004,
      "cases</w>": 5005,
      "exhau": 5006,
      "modern</w>": 5007,
      "viously</w>": 5008,
      "described</w>": 5009,
      "mn": 5010,
      "snâ</w>": 5011,
      "judi": 5012,
      "behaviour</w>": 5013,
      "Allworthy</w>": 5014,
      "AU": 5015,
      "accompli": 5016,
      "cruel</w>": 5017,
      "royal</w>": 5018,
      "bearing</w>": 5019,
      "secur": 5020,
      "bringing</w>": 5021,
      "writer</w>": 5022,
      "dÃ</w>": 5023,
      "alter": 5024,
      "Man</w>": 5025,
      "Nature</w>": 5026,
      "kn": 5027,
      "hidden</w>": 5028,
      "sail": 5029,
      "itution</w>": 5030,
      "embar": 5031,
      "evidence</w>": 5032,
      "JAM": 5033,
      "crown</w>": 5034,
      "arse</w>": 5035,
      "INE</w>": 5036,
      "vali": 5037,
      "Mademoiselle</w>": 5038,
      "numer": 5039,
      "Bal": 5040,
      "accompanied</w>": 5041,
      "merry</w>": 5042,
      "slept</w>": 5043,
      "Ty": 5044,
      "blo": 5045,
      "mon</w>": 5046,
      "ular</w>": 5047,
      "reali": 5048,
      "teâ</w>": 5049,
      "wilt</w>": 5050,
      "grateful</w>": 5051,
      "devoted</w>": 5052,
      "saub": 5053,
      "bad": 5054,
      "fts</w>": 5055,
      "male</w>": 5056,
      "removed</w>": 5057,
      "chest</w>": 5058,
      "asc": 5059,
      "part": 5060,
      "geon</w>": 5061,
      "joy": 5062,
      "attend</w>": 5063,
      "needed</w>": 5064,
      "title</w>": 5065,
      "Frederick</w>": 5066,
      "Fren": 5067,
      "win</w>": 5068,
      "tily</w>": 5069,
      "address</w>": 5070,
      "remains</w>": 5071,
      "goodness</w>": 5072,
      "gallant</w>": 5073,
      "today</w>": 5074,
      "minded</w>": 5075,
      "tedly</w>": 5076,
      "cere": 5077,
      "Casaub": 5078,
      "Mother</w>": 5079,
      "dant</w>": 5080,
      "pher": 5081,
      "andâ</w>": 5082,
      "required</w>": 5083,
      "request</w>": 5084,
      "brigh": 5085,
      "AD": 5086,
      "assemb": 5087,
      "ThÃ</w>": 5088,
      "rolled</w>": 5089,
      "wed": 5090,
      "Alas</w>": 5091,
      "neighbor": 5092,
      "Chan": 5093,
      "puni": 5094,
      "mal</w>": 5095,
      "previous</w>": 5096,
      "tale</w>": 5097,
      "struction</w>": 5098,
      "horrible</w>": 5099,
      "amongst</w>": 5100,
      "Fred</w>": 5101,
      "Pat": 5102,
      "questi": 5103,
      "relations</w>": 5104,
      "provided</w>": 5105,
      "majesty</w>": 5106,
      "pru": 5107,
      "anima": 5108,
      "isâ</w>": 5109,
      "ocr": 5110,
      "fortunes</w>": 5111,
      "proceed</w>": 5112,
      "Robert</w>": 5113,
      "vous</w>": 5114,
      "inquir": 5115,
      "ato": 5116,
      "exi": 5117,
      "assistance</w>": 5118,
      "signs</w>": 5119,
      "AG": 5120,
      "_A": 5121,
      "hither</w>": 5122,
      "encoun": 5123,
      "dious</w>": 5124,
      "unfortunate</w>": 5125,
      "excitement</w>": 5126,
      "Bou": 5127,
      "fat</w>": 5128,
      "aries</w>": 5129,
      "ount</w>": 5130,
      "spe": 5131,
      "Step": 5132,
      "Since</w>": 5133,
      "grou": 5134,
      "stir": 5135,
      "Arth": 5136,
      "sp</w>": 5137,
      "stick</w>": 5138,
      "estate</w>": 5139,
      "remarkable</w>": 5140,
      "witness</w>": 5141,
      "eternal</w>": 5142,
      "revenge</w>": 5143,
      "sisters</w>": 5144,
      "pause</w>": 5145,
      "choice</w>": 5146,
      "oud</w>": 5147,
      "shine</w>": 5148,
      "tomorrow</w>": 5149,
      "generous</w>": 5150,
      "evident</w>": 5151,
      "New": 5152,
      "dignity</w>": 5153,
      "addressed</w>": 5154,
      "etâ</w>": 5155,
      "corre": 5156,
      "delightful</w>": 5157,
      "throat</w>": 5158,
      "ainâ</w>": 5159,
      "encoura": 5160,
      "nay</w>": 5161,
      "hanging</w>": 5162,
      "poli": 5163,
      "accept</w>": 5164,
      "brothers</w>": 5165,
      "Army</w>": 5166,
      "extremely</w>": 5167,
      "brown</w>": 5168,
      "sse</w>": 5169,
      "weight</w>": 5170,
      "resumed</w>": 5171,
      "ridge</w>": 5172,
      "camp</w>": 5173,
      "sell</w>": 5174,
      "circle</w>": 5175,
      "discre": 5176,
      "Bloom</w>": 5177,
      "Ver": 5178,
      "sees</w>": 5179,
      "acted</w>": 5180,
      "host": 5181,
      "tton</w>": 5182,
      "relief</w>": 5183,
      "obey</w>": 5184,
      "Edin": 5185,
      "notes</w>": 5186,
      "ridi": 5187,
      "including</w>": 5188,
      "Ci": 5189,
      "shoo": 5190,
      "worl": 5191,
      "busy</w>": 5192,
      "points</w>": 5193,
      "Than</w>": 5194,
      "guardian</w>": 5195,
      "fty</w>": 5196,
      "chec": 5197,
      "rently</w>": 5198,
      "powerful</w>": 5199,
      "glorious</w>": 5200,
      "ignorant</w>": 5201,
      "rapidly</w>": 5202,
      "IO</w>": 5203,
      "ky</w>": 5204,
      "ounding</w>": 5205,
      "shaking</w>": 5206,
      "borne</w>": 5207,
      "departure</w>": 5208,
      "Officer</w>": 5209,
      "EEN</w>": 5210,
      "rors</w>": 5211,
      "inside</w>": 5212,
      "information</w>": 5213,
      "does": 5214,
      "Harry</w>": 5215,
      "arranged</w>": 5216,
      "suspicion</w>": 5217,
      "Certainly</w>": 5218,
      "ud</w>": 5219,
      "stra</w>": 5220,
      "animal</w>": 5221,
      "Kat": 5222,
      "metery</w>": 5223,
      "brow</w>": 5224,
      "storm</w>": 5225,
      "fury</w>": 5226,
      "consideration</w>": 5227,
      "religion</w>": 5228,
      "We": 5229,
      "Godâ</w>": 5230,
      "continually</w>": 5231,
      "clouds</w>": 5232,
      "emotion</w>": 5233,
      "aloud</w>": 5234,
      "sev": 5235,
      "poet</w>": 5236,
      "precious</w>": 5237,
      "profound</w>": 5238,
      "Juli": 5239,
      "accustomed</w>": 5240,
      "eous</w>": 5241,
      "logy</w>": 5242,
      "accoun": 5243,
      "cab": 5244,
      "peasant</w>": 5245,
      "admit</w>": 5246,
      "handker": 5247,
      "mistaken</w>": 5248,
      "similar</w>": 5249,
      "eves</w>": 5250,
      "oom</w>": 5251,
      "proposed</w>": 5252,
      "screa": 5253,
      "frequently</w>": 5254,
      "stupid</w>": 5255,
      "Edinburgh</w>": 5256,
      "tfully</w>": 5257,
      "observe</w>": 5258,
      "Corpl</w>": 5259,
      "anybody</w>": 5260,
      "gloomy</w>": 5261,
      "More</w>": 5262,
      "military</w>": 5263,
      "senses</w>": 5264,
      "cheerful</w>": 5265,
      "dreams</w>": 5266,
      "During</w>": 5267,
      "Hill</w>": 5268,
      "West": 5269,
      "adi": 5270,
      "bes</w>": 5271,
      "da</w>": 5272,
      "usâ</w>": 5273,
      "Comp": 5274,
      "attended</w>": 5275,
      "shud": 5276,
      "Elinor</w>": 5277,
      "gation</w>": 5278,
      "dish": 5279,
      "Three</w>": 5280,
      "named</w>": 5281,
      "beast</w>": 5282,
      "enjoyed</w>": 5283,
      "sus</w>": 5284,
      "abroad</w>": 5285,
      "phra": 5286,
      "fifteen</w>": 5287,
      "manife": 5288,
      "14": 5289,
      "lease</w>": 5290,
      "estee": 5291,
      "desires</w>": 5292,
      "sunk</w>": 5293,
      "feared</w>": 5294,
      "cloud</w>": 5295,
      "solemn</w>": 5296,
      "resolution</w>": 5297,
      "accident</w>": 5298,
      "Catherine</w>": 5299,
      "ians</w>": 5300,
      "utter</w>": 5301,
      "feâ</w>": 5302,
      "learning</w>": 5303,
      "foolish</w>": 5304,
      "absur": 5305,
      "therto</w>": 5306,
      "1902</w>": 5307,
      "Spi": 5308,
      "oved</w>": 5309,
      "younger</w>": 5310,
      "Zarathustra</w>": 5311,
      "severe</w>": 5312,
      "Sm": 5313,
      "pounds</w>": 5314,
      "hit</w>": 5315,
      "partly</w>": 5316,
      "approach</w>": 5317,
      "social</w>": 5318,
      "Rifles</w>": 5319,
      "'</w>": 5320,
      "dogs</w>": 5321,
      "deri": 5322,
      "ERN": 5323,
      "WH": 5324,
      "date</w>": 5325,
      "dwel": 5326,
      "vid</w>": 5327,
      "zov</w>": 5328,
      "iture</w>": 5329,
      "isnâ</w>": 5330,
      "colour</w>": 5331,
      "showing</w>": 5332,
      "thly</w>": 5333,
      "gho": 5334,
      "fame</w>": 5335,
      "buy</w>": 5336,
      "develop": 5337,
      "Span": 5338,
      "Tran": 5339,
      "os</w>": 5340,
      "god": 5341,
      "political</w>": 5342,
      "gathered</w>": 5343,
      "Vol": 5344,
      "charged</w>": 5345,
      "match</w>": 5346,
      "faithful</w>": 5347,
      "JAMES</w>": 5348,
      "Tra": 5349,
      "anxiety</w>": 5350,
      "ket</w>": 5351,
      "lance</w>": 5352,
      "committed</w>": 5353,
      "MAS</w>": 5354,
      "Sunday</w>": 5355,
      "yon": 5356,
      "lim": 5357,
      "chy</w>": 5358,
      "chant</w>": 5359,
      "suspec": 5360,
      "misfortune</w>": 5361,
      "threat": 5362,
      "mysterious</w>": 5363,
      "Tu": 5364,
      "mass</w>": 5365,
      "EDWARD</w>": 5366,
      "Wel": 5367,
      "dor": 5368,
      "pon": 5369,
      "1910</w>": 5370,
      "Mazar": 5371,
      "singing</w>": 5372,
      "remarked</w>": 5373,
      "refuse</w>": 5374,
      "keen</w>": 5375,
      "trench</w>": 5376,
      "titude</w>": 5377,
      "rendered</w>": 5378,
      "UN": 5379,
      "dread</w>": 5380,
      "dging</w>": 5381,
      "zes</w>": 5382,
      "habit": 5383,
      "Buried</w>": 5384,
      "ditions</w>": 5385,
      "Comman": 5386,
      "Doctor</w>": 5387,
      "murmured</w>": 5388,
      "gin</w>": 5389,
      "thrust</w>": 5390,
      "setting</w>": 5391,
      "heat</w>": 5392,
      "patient</w>": 5393,
      "bottle</w>": 5394,
      "knife</w>": 5395,
      "CHARLES</w>": 5396,
      "Mag": 5397,
      "Sat": 5398,
      "hell</w>": 5399,
      "sole</w>": 5400,
      "conver": 5401,
      "Anton": 5402,
      "gray</w>": 5403,
      "whatâ</w>": 5404,
      "driven</w>": 5405,
      "Joseph</w>": 5406,
      "bought</w>": 5407,
      "sse": 5408,
      "retreat</w>": 5409,
      "irrit": 5410,
      "range</w>": 5411,
      "aff</w>": 5412,
      "directed</w>": 5413,
      "syste": 5414,
      "astonishment</w>": 5415,
      "Gil": 5416,
      "Oâ</w>": 5417,
      "page</w>": 5418,
      "ta</w>": 5419,
      "adyev": 5420,
      "science</w>": 5421,
      "Mean": 5422,
      "sacrifice</w>": 5423,
      "Arkadyev": 5424,
      "kingdom</w>": 5425,
      "Arthur</w>": 5426,
      "Ch</w>": 5427,
      "iâ</w>": 5428,
      "sby</w>": 5429,
      "safe": 5430,
      "cost</w>": 5431,
      "relation</w>": 5432,
      "kings</w>": 5433,
      "magi": 5434,
      "preva": 5435,
      "explan": 5436,
      "Indian</w>": 5437,
      "blessed</w>": 5438,
      "favour": 5439,
      "Love</w>": 5440,
      "Alice</w>": 5441,
      "cat</w>": 5442,
      "ME": 5443,
      "sorts</w>": 5444,
      "ential</w>": 5445,
      "Queenâ</w>": 5446,
      "THOMAS</w>": 5447,
      "perceive</w>": 5448,
      "fatal</w>": 5449,
      "FF</w>": 5450,
      "height</w>": 5451,
      "reality</w>": 5452,
      "Where": 5453,
      "THU": 5454,
      "negle": 5455,
      "Mel": 5456,
      "stol": 5457,
      "stery</w>": 5458,
      "itive</w>": 5459,
      "beloved</w>": 5460,
      "ROS": 5461,
      "thoroughly</w>": 5462,
      "tune</w>": 5463,
      "longed</w>": 5464,
      "SECON": 5465,
      "apparently</w>": 5466,
      "stin": 5467,
      "failed</w>": 5468,
      "lowing</w>": 5469,
      "peasan": 5470,
      "Steph": 5471,
      "sofa</w>": 5472,
      "constant</w>": 5473,
      "weary</w>": 5474,
      "Common</w>": 5475,
      "dil": 5476,
      "Peter": 5477,
      "wol": 5478,
      "instin": 5479,
      "ands</w>": 5480,
      "remo": 5481,
      "lace</w>": 5482,
      "marked</w>": 5483,
      "distress</w>": 5484,
      "Battle</w>": 5485,
      "immense</w>": 5486,
      "ro</w>": 5487,
      "rid</w>": 5488,
      "vering</w>": 5489,
      "faint</w>": 5490,
      "imagined</w>": 5491,
      "boots</w>": 5492,
      "spake</w>": 5493,
      "practice</w>": 5494,
      "admiration</w>": 5495,
      "Cro": 5496,
      "ament</w>": 5497,
      "spare</w>": 5498,
      "eyâ</w>": 5499,
      "admitted</w>": 5500,
      "eager</w>": 5501,
      "cop": 5502,
      "trif": 5503,
      "neighbour": 5504,
      "Marian": 5505,
      "lid</w>": 5506,
      "horse": 5507,
      "fication</w>": 5508,
      "Hospital</w>": 5509,
      "experienced</w>": 5510,
      "cele": 5511,
      "drow": 5512,
      "kened</w>": 5513,
      "iny</w>": 5514,
      "tail</w>": 5515,
      "render</w>": 5516,
      "Rosa": 5517,
      "strode</w>": 5518,
      "shake</w>": 5519,
      "tuous</w>": 5520,
      "Once</w>": 5521,
      "ea</w>": 5522,
      "recovered</w>": 5523,
      "bodies</w>": 5524,
      "voy": 5525,
      "concerned</w>": 5526,
      "Dardan": 5527,
      "heavens</w>": 5528,
      "SECOND</w>": 5529,
      "Flo": 5530,
      "mbled</w>": 5531,
      "Alexander</w>": 5532,
      "built</w>": 5533,
      "accepted</w>": 5534,
      "apart</w>": 5535,
      "lit</w>": 5536,
      "ired</w>": 5537,
      "dam": 5538,
      "NORA</w>": 5539,
      "speed</w>": 5540,
      "Dis": 5541,
      "Isa": 5542,
      "pher</w>": 5543,
      "sm</w>": 5544,
      "sburg</w>": 5545,
      "trea": 5546,
      "arose</w>": 5547,
      "sigh</w>": 5548,
      "escaped</w>": 5549,
      "rings</w>": 5550,
      "woke</w>": 5551,
      "strike</w>": 5552,
      "Life</w>": 5553,
      "concluded</w>": 5554,
      "painful</w>": 5555,
      "introduced</w>": 5556,
      "gradually</w>": 5557,
      "Brooke</w>": 5558,
      "Stu": 5559,
      "flying</w>": 5560,
      "elles</w>": 5561,
      "tish</w>": 5562,
      "locked</w>": 5563,
      "add</w>": 5564,
      "shade</w>": 5565,
      "guide</w>": 5566,
      "magnific": 5567,
      "luck</w>": 5568,
      "obsc": 5569,
      "Most</w>": 5570,
      "individual</w>": 5571,
      "Western</w>": 5572,
      "ting": 5573,
      "nie</w>": 5574,
      "scre": 5575,
      "head": 5576,
      "183": 5577,
      "jection</w>": 5578,
      "Jon": 5579,
      "tus</w>": 5580,
      "xes</w>": 5581,
      "sov</w>": 5582,
      "helped</w>": 5583,
      "murder": 5584,
      "leaning</w>": 5585,
      "earnest</w>": 5586,
      "Pray</w>": 5587,
      "Were</w>": 5588,
      "nel</w>": 5589,
      "quality</w>": 5590,
      "paused</w>": 5591,
      "quisite</w>": 5592,
      "hitherto</w>": 5593,
      "arily</w>": 5594,
      "becomes</w>": 5595,
      "lip</w>": 5596,
      "sement</w>": 5597,
      "stol</w>": 5598,
      "LIA</w>": 5599,
      "deeds</w>": 5600,
      "recognized</w>": 5601,
      "_ed</w>": 5602,
      "ath": 5603,
      "iers</w>": 5604,
      "woul": 5605,
      "wick</w>": 5606,
      "whilst</w>": 5607,
      "burn</w>": 5608,
      "Franz</w>": 5609,
      "Leic": 5610,
      "Gal": 5611,
      "mbling</w>": 5612,
      "clerk</w>": 5613,
      "Cressy</w>": 5614,
      "dn</w>": 5615,
      "stoo": 5616,
      "alo": 5617,
      "plainly</w>": 5618,
      "DE</w>": 5619,
      "ads</w>": 5620,
      "whenever</w>": 5621,
      "preci": 5622,
      "grey</w>": 5623,
      "gaze</w>": 5624,
      "bloody</w>": 5625,
      "superior</w>": 5626,
      "credit</w>": 5627,
      "Weâ</w>": 5628,
      "band</w>": 5629,
      "gru": 5630,
      "somewhere</w>": 5631,
      "cheek</w>": 5632,
      "QUEEN</w>": 5633,
      ",)</w>": 5634,
      "bat": 5635,
      "signi": 5636,
      "poetry</w>": 5637,
      "muttered</w>": 5638,
      "leness</w>": 5639,
      "couple</w>": 5640,
      "drinking</w>": 5641,
      "one": 5642,
      "features</w>": 5643,
      "missed</w>": 5644,
      "amid</w>": 5645,
      "image</w>": 5646,
      "gan</w>": 5647,
      "enor": 5648,
      "seldom</w>": 5649,
      "fetch</w>": 5650,
      "ckâ</w>": 5651,
      "darling</w>": 5652,
      "itual</w>": 5653,
      "Say</w>": 5654,
      "operations</w>": 5655,
      "astonished</w>": 5656,
      "Achil": 5657,
      "Imper": 5658,
      "ami": 5659,
      "Gover": 5660,
      "consciousness</w>": 5661,
      "demanded</w>": 5662,
      "Spirit</w>": 5663,
      "sum": 5664,
      "agree</w>": 5665,
      "Troy</w>": 5666,
      "adventure</w>": 5667,
      "brilliant</w>": 5668,
      "emin": 5669,
      "till": 5670,
      "chase</w>": 5671,
      "quarters</w>": 5672,
      "Him</w>": 5673,
      "OW": 5674,
      "RIN": 5675,
      "rÃ</w>": 5676,
      "antly</w>": 5677,
      "hin</w>": 5678,
      "--</w>": 5679,
      "Alexandrovitch</w>": 5680,
      "nonsense</w>": 5681,
      "va</w>": 5682,
      "rest": 5683,
      "staff</w>": 5684,
      "sover": 5685,
      "utterly</w>": 5686,
      "belief</w>": 5687,
      "extreme</w>": 5688,
      "yield</w>": 5689,
      "soverei": 5690,
      "fill</w>": 5691,
      "ators</w>": 5692,
      "Roman</w>": 5693,
      "ette</w>": 5694,
      "stily</w>": 5695,
      "palace</w>": 5696,
      "exercise</w>": 5697,
      "Jar": 5698,
      "ites</w>": 5699,
      "roof</w>": 5700,
      "beard</w>": 5701,
      "composed</w>": 5702,
      "waters</w>": 5703,
      "ealthy</w>": 5704,
      "hers</w>": 5705,
      "oon</w>": 5706,
      "rode</w>": 5707,
      "tern</w>": 5708,
      "mini": 5709,
      "1901</w>": 5710,
      "valry</w>": 5711,
      "illness</w>": 5712,
      "troubled</w>": 5713,
      "Cana": 5714,
      "absolute</w>": 5715,
      "IS": 5716,
      "loose</w>": 5717,
      "clam": 5718,
      "dinal</w>": 5719,
      "vements</w>": 5720,
      "hurry</w>": 5721,
      "mountain</w>": 5722,
      "dal": 5723,
      "tear</w>": 5724,
      "shell</w>": 5725,
      "manag": 5726,
      "base</w>": 5727,
      "commanding</w>": 5728,
      "Mazarin</w>": 5729,
      "BA": 5730,
      "pool</w>": 5731,
      "ounce</w>": 5732,
      "hurried</w>": 5733,
      "profession</w>": 5734,
      "cool</w>": 5735,
      "Fusil": 5736,
      "dation</w>": 5737,
      "edge</w>": 5738,
      "fâ</w>": 5739,
      "sounds</w>": 5740,
      "ald</w>": 5741,
      "rov": 5742,
      "sprang</w>": 5743,
      "lessly</w>": 5744,
      "Dardanelles</w>": 5745,
      "ctor</w>": 5746,
      "dingly</w>": 5747,
      "lers</w>": 5748,
      "gay</w>": 5749,
      "strang": 5750,
      "flat</w>": 5751,
      "real": 5752,
      "humour</w>": 5753,
      "shoes</w>": 5754,
      "lights</w>": 5755,
      "remark</w>": 5756,
      "Among</w>": 5757,
      "Fusiliers</w>": 5758,
      "heavi": 5759,
      "covering</w>": 5760,
      "Mess": 5761,
      "Bas": 5762,
      "Pen": 5763,
      "vul": 5764,
      "reci": 5765,
      "sick": 5766,
      "dozen</w>": 5767,
      "weep</w>": 5768,
      "Both</w>": 5769,
      "Stepan</w>": 5770,
      "eating</w>": 5771,
      "mou": 5772,
      "neph": 5773,
      "pains</w>": 5774,
      "handed</w>": 5775,
      "contribu": 5776,
      "STER</w>": 5777,
      "plun": 5778,
      "softly</w>": 5779,
      "suggested</w>": 5780,
      "ate": 5781,
      "radi": 5782,
      "forts</w>": 5783,
      "PAR": 5784,
      "1908</w>": 5785,
      "square</w>": 5786,
      "Ivanovitch</w>": 5787,
      "anno": 5788,
      "countess</w>": 5789,
      "flower</w>": 5790,
      "Ivanovna</w>": 5791,
      "useful</w>": 5792,
      "handkerchief</w>": 5793,
      "lÃ</w>": 5794,
      "infer": 5795,
      "enka</w>": 5796,
      "need": 5797,
      "delivered</w>": 5798,
      "inclined</w>": 5799,
      "apartment</w>": 5800,
      "daily</w>": 5801,
      "upstairs</w>": 5802,
      "breaking</w>": 5803,
      "nurse</w>": 5804,
      "Gent": 5805,
      "fears</w>": 5806,
      "wholly</w>": 5807,
      "shining</w>": 5808,
      "aband": 5809,
      "discover</w>": 5810,
      "humble</w>": 5811,
      "RES": 5812,
      "ignorance</w>": 5813,
      "British</w>": 5814,
      "quo": 5815,
      "impul": 5816,
      "genius</w>": 5817,
      "tridge</w>": 5818,
      "contempt</w>": 5819,
      "popular</w>": 5820,
      "ED</w>": 5821,
      "fare</w>": 5822,
      "huge</w>": 5823,
      "womanâ</w>": 5824,
      "capital</w>": 5825,
      "chosen</w>": 5826,
      "History</w>": 5827,
      "awake</w>": 5828,
      "custom</w>": 5829,
      "fruit</w>": 5830,
      "Casaubon</w>": 5831,
      "Ken": 5832,
      "crit": 5833,
      "rous</w>": 5834,
      "wet</w>": 5835,
      "mage</w>": 5836,
      "acious</w>": 5837,
      "cord</w>": 5838,
      "pier": 5839,
      "deny</w>": 5840,
      "circumstance</w>": 5841,
      "reflection</w>": 5842,
      "gratitude</w>": 5843,
      "religious</w>": 5844,
      "regret</w>": 5845,
      "discourse</w>": 5846,
      "Gla": 5847,
      "sche": 5848,
      "thence</w>": 5849,
      "touching</w>": 5850,
      "Kut": 5851,
      "stac": 5852,
      "alle": 5853,
      "nod": 5854,
      "motion": 5855,
      "moment": 5856,
      "promp": 5857,
      "geance</w>": 5858,
      "folly</w>": 5859,
      "curate</w>": 5860,
      "smell</w>": 5861,
      "belonged</w>": 5862,
      "labor": 5863,
      "deck</w>": 5864,
      "pipe</w>": 5865,
      "follows</w>": 5866,
      "picked</w>": 5867,
      "frame</w>": 5868,
      "intelligence</w>": 5869,
      "surrounded</w>": 5870,
      "gates</w>": 5871,
      "otherâ</w>": 5872,
      "wings</w>": 5873,
      "entering</w>": 5874,
      "skill</w>": 5875,
      "dared</w>": 5876,
      "Europe</w>": 5877,
      "Court</w>": 5878,
      "doesnâ</w>": 5879,
      "orts</w>": 5880,
      "cot": 5881,
      "procee": 5882,
      "dul": 5883,
      "justi": 5884,
      "careful</w>": 5885,
      "Till</w>": 5886,
      "lack</w>": 5887,
      "ckets</w>": 5888,
      "prayer</w>": 5889,
      "Diana</w>": 5890,
      "concealed</w>": 5891,
      "fierce</w>": 5892,
      "bones</w>": 5893,
      "eral</w>": 5894,
      "nest</w>": 5895,
      "hurst</w>": 5896,
      "mountains</w>": 5897,
      "celebr": 5898,
      "Dev": 5899,
      "Hall</w>": 5900,
      "kil": 5901,
      "someone</w>": 5902,
      "Hector</w>": 5903,
      "mun": 5904,
      "associ": 5905,
      "endure</w>": 5906,
      "struggle</w>": 5907,
      "At": 5908,
      "Son": 5909,
      "dman</w>": 5910,
      "into": 5911,
      "lish": 5912,
      "fic</w>": 5913,
      "price</w>": 5914,
      "ville</w>": 5915,
      "everywhere</w>": 5916,
      "High</w>": 5917,
      "port</w>": 5918,
      "ri</w>": 5919,
      "violence</w>": 5920,
      "ints</w>": 5921,
      "ouring</w>": 5922,
      "compas": 5923,
      "counsel</w>": 5924,
      "stared</w>": 5925,
      "singular</w>": 5926,
      "flame</w>": 5927,
      "regiment</w>": 5928,
      "produce</w>": 5929,
      "views</w>": 5930,
      "Canadian</w>": 5931,
      "KutÃº": 5932,
      "cun": 5933,
      "cup</w>": 5934,
      "atory</w>": 5935,
      "sail</w>": 5936,
      "absor": 5937,
      "sels</w>": 5938,
      "woe</w>": 5939,
      "concern</w>": 5940,
      "cliff</w>": 5941,
      "Scots</w>": 5942,
      "clever</w>": 5943,
      "Whose</w>": 5944,
      "NE": 5945,
      "rare</w>": 5946,
      "expe": 5947,
      "manu": 5948,
      "facts</w>": 5949,
      "efforts</w>": 5950,
      "flung</w>": 5951,
      "tenderness</w>": 5952,
      "ingham</w>": 5953,
      "perform": 5954,
      "ealed</w>": 5955,
      "1909</w>": 5956,
      "Imperial</w>": 5957,
      "Each</w>": 5958,
      "floo": 5959,
      "stic": 5960,
      "pointing</w>": 5961,
      "pursued</w>": 5962,
      "Again</w>": 5963,
      "Ven": 5964,
      "foul</w>": 5965,
      "kir</w>": 5966,
      "elling</w>": 5967,
      "ranks</w>": 5968,
      "objects</w>": 5969,
      "occasions</w>": 5970,
      "demand</w>": 5971,
      "Sometimes</w>": 5972,
      "treasure</w>": 5973,
      "Dear</w>": 5974,
      "signific": 5975,
      "chin</w>": 5976,
      "Matthe": 5977,
      "weigh": 5978,
      "hid</w>": 5979,
      "Thank</w>": 5980,
      "dam</w>": 5981,
      "lately</w>": 5982,
      "trial</w>": 5983,
      "lawyer</w>": 5984,
      "approaching</w>": 5985,
      "labour</w>": 5986,
      "argument</w>": 5987,
      "SÃ</w>": 5988,
      "ddy</w>": 5989,
      "sear": 5990,
      "monster</w>": 5991,
      "invited</w>": 5992,
      "chiefly</w>": 5993,
      "HO": 5994,
      "dity</w>": 5995,
      "wasnâ</w>": 5996,
      "adju": 5997,
      "shadows</w>": 5998,
      "scen": 5999,
      "guess</w>": 6000,
      "travell": 6001,
      "gets</w>": 6002,
      "pushed</w>": 6003,
      "falls</w>": 6004,
      "shows</w>": 6005,
      "Oxford</w>": 6006,
      "bye</w>": 6007,
      "oukir</w>": 6008,
      "advis": 6009,
      "delay</w>": 6010,
      "reasonable</w>": 6011,
      "sank</w>": 6012,
      "Aboukir</w>": 6013,
      "madame</w>": 6014,
      "increased</w>": 6015,
      "PÃ</w>": 6016,
      "kers</w>": 6017,
      "secure</w>": 6018,
      "baby</w>": 6019,
      "Wilkins</w>": 6020,
      "building</w>": 6021,
      "safety</w>": 6022,
      "Dra": 6023,
      "fever</w>": 6024,
      "vex": 6025,
      "tar</w>": 6026,
      "adop": 6027,
      "seeking</w>": 6028,
      "disposed</w>": 6029,
      "principle</w>": 6030,
      "season</w>": 6031,
      "As": 6032,
      "FAL": 6033,
      "Irish</w>": 6034,
      "whel": 6035,
      "cloth</w>": 6036,
      "Colonel</w>": 6037,
      "stronger</w>": 6038,
      "Hawke</w>": 6039,
      "Petersburg</w>": 6040,
      "slu": 6041,
      "ution</w>": 6042,
      "pace</w>": 6043,
      "torâ</w>": 6044,
      "repeat</w>": 6045,
      "Chap": 6046,
      "hatred</w>": 6047,
      "piti": 6048,
      "vin": 6049,
      "toâ</w>": 6050,
      "withstanding</w>": 6051,
      "1907</w>": 6052,
      "sleeping</w>": 6053,
      "Cec": 6054,
      "Sim": 6055,
      "aspect</w>": 6056,
      "blin": 6057,
      "mented</w>": 6058,
      "now": 6059,
      "uneasy</w>": 6060,
      "gracious</w>": 6061,
      "mystery</w>": 6062,
      "torpe": 6063,
      "Law": 6064,
      "triumph</w>": 6065,
      "desperate</w>": 6066,
      "JU": 6067,
      "OLI": 6068,
      "dless</w>": 6069,
      "indepen": 6070,
      "lier</w>": 6071,
      "duties</w>": 6072,
      "Bru": 6073,
      "TT": 6074,
      "gown</w>": 6075,
      "ano</w>": 6076,
      "elle</w>": 6077,
      "lions</w>": 6078,
      "raising</w>": 6079,
      "lux": 6080,
      "character": 6081,
      "opinions</w>": 6082,
      "Italian</w>": 6083,
      "wedding</w>": 6084,
      "twithstanding</w>": 6085,
      "arity</w>": 6086,
      "progress</w>": 6087,
      "silk</w>": 6088,
      "daughters</w>": 6089,
      "blin</w>": 6090,
      "shepher": 6091,
      "Military</w>": 6092,
      "deceived</w>": 6093,
      "Arkadyevitch</w>": 6094,
      "amp": 6095,
      "emer": 6096,
      "side": 6097,
      "chest": 6098,
      "qualities</w>": 6099,
      "teous</w>": 6100,
      "nished</w>": 6101,
      "scra": 6102,
      "myâ</w>": 6103,
      "passion": 6104,
      "Rev</w>": 6105,
      "ELL</w>": 6106,
      "recogn": 6107,
      "wretch</w>": 6108,
      "fairly</w>": 6109,
      "fancied</w>": 6110,
      "Pad": 6111,
      "prof": 6112,
      "stained</w>": 6113,
      "spectac": 6114,
      "keth</w>": 6115,
      "Italy</w>": 6116,
      "Er": 6117,
      "Rea": 6118,
      "fying</w>": 6119,
      "gil": 6120,
      "rink": 6121,
      "wron": 6122,
      "teau</w>": 6123,
      "conceal</w>": 6124,
      "Pan": 6125,
      "PER": 6126,
      "cts</w>": 6127,
      "doed</w>": 6128,
      "mile</w>": 6129,
      "commanded</w>": 6130,
      "stead</w>": 6131,
      "Camb": 6132,
      "bade</w>": 6133,
      "brief</w>": 6134,
      "grati": 6135,
      "penet": 6136,
      "whisper</w>": 6137,
      "punishment</w>": 6138,
      "DY</w>": 6139,
      "how": 6140,
      "laying</w>": 6141,
      "ada</w>": 6142,
      "presu": 6143,
      "lating</w>": 6144,
      "quarrel</w>": 6145,
      "Little</w>": 6146,
      "Many</w>": 6147,
      "pover": 6148,
      "stair": 6149,
      "disagre": 6150,
      "ESS</w>": 6151,
      "reflected</w>": 6152,
      "conclusion</w>": 6153,
      "Dan": 6154,
      "OTH": 6155,
      "ence": 6156,
      "itate</w>": 6157,
      "parted</w>": 6158,
      "About</w>": 6159,
      "connection</w>": 6160,
      "Without</w>": 6161,
      "Hy": 6162,
      "soo": 6163,
      "monsieur</w>": 6164,
      "created</w>": 6165,
      "fantry</w>": 6166,
      "deliber": 6167,
      "victory</w>": 6168,
      "patri": 6169,
      "Marianne</w>": 6170,
      "Spea": 6171,
      "vation</w>": 6172,
      "ppy</w>": 6173,
      "jumped</w>": 6174,
      "applied</w>": 6175,
      "lency</w>": 6176,
      "longing</w>": 6177,
      "venture</w>": 6178,
      "companions</w>": 6179,
      "Ce": 6180,
      "Jim</w>": 6181,
      "Right</w>": 6182,
      "matic</w>": 6183,
      "covery</w>": 6184,
      "sold</w>": 6185,
      "contented</w>": 6186,
      "1906</w>": 6187,
      "nardier</w>": 6188,
      "African</w>": 6189,
      "Mic": 6190,
      "sa</w>": 6191,
      "alty</w>": 6192,
      "lamp</w>": 6193,
      "naked</w>": 6194,
      "torpedoed</w>": 6195,
      "MON": 6196,
      "Wo": 6197,
      "angel</w>": 6198,
      "atch</w>": 6199,
      "waves</w>": 6200,
      "utenant</w>": 6201,
      "bou": 6202,
      "sn": 6203,
      "cable</w>": 6204,
      "cand": 6205,
      "hung": 6206,
      "design</w>": 6207,
      "entire</w>": 6208,
      "scarce</w>": 6209,
      "energy</w>": 6210,
      "Louis</w>": 6211,
      "grow": 6212,
      "nevertheless</w>": 6213,
      "angu": 6214,
      "novel": 6215,
      "east</w>": 6216,
      "abb": 6217,
      "owe</w>": 6218,
      "Leicester</w>": 6219,
      "bless</w>": 6220,
      "ids</w>": 6221,
      "hastily</w>": 6222,
      "bear": 6223,
      "poses</w>": 6224,
      "cloak</w>": 6225,
      "fourth</w>": 6226,
      "Egypt</w>": 6227,
      "tations</w>": 6228,
      "culous</w>": 6229,
      "hollow</w>": 6230,
      "Heath": 6231,
      "enormous</w>": 6232,
      "CO": 6233,
      "brows</w>": 6234,
      "kly</w>": 6235,
      "ority</w>": 6236,
      "allu": 6237,
      "bel</w>": 6238,
      "deth</w>": 6239,
      "chain</w>": 6240,
      "black": 6241,
      "continue</w>": 6242,
      "Madam</w>": 6243,
      "slaves</w>": 6244,
      "details</w>": 6245,
      "Soveraign</w>": 6246,
      "fed</w>": 6247,
      "west</w>": 6248,
      "thither</w>": 6249,
      "stir</w>": 6250,
      "alarm</w>": 6251,
      "mar</w>": 6252,
      "asser": 6253,
      "facul": 6254,
      "descended</w>": 6255,
      "Uncle</w>": 6256,
      "embrace</w>": 6257,
      "school": 6258,
      "gent</w>": 6259,
      "pha": 6260,
      "widow</w>": 6261,
      "mist</w>": 6262,
      "shirt</w>": 6263,
      "mount</w>": 6264,
      "knee</w>": 6265,
      "Bishop</w>": 6266,
      "Far": 6267,
      "frow": 6268,
      "lic</w>": 6269,
      "didst</w>": 6270,
      "maid": 6271,
      "meat</w>": 6272,
      "passions</w>": 6273,
      "skir": 6274,
      "tranqu": 6275,
      "disturbed</w>": 6276,
      "Hal": 6277,
      "glea": 6278,
      "nings</w>": 6279,
      "press</w>": 6280,
      "peop": 6281,
      "1894</w>": 6282,
      "True</w>": 6283,
      "embarra": 6284,
      "Rosamond</w>": 6285,
      "Tal": 6286,
      "aim</w>": 6287,
      "ier</w>": 6288,
      "sey</w>": 6289,
      "prayers</w>": 6290,
      "nephew</w>": 6291,
      "FF": 6292,
      "Temp": 6293,
      "ava": 6294,
      "drank</w>": 6295,
      "lings</w>": 6296,
      "eafter</w>": 6297,
      "det": 6298,
      "confir": 6299,
      "guests</w>": 6300,
      "but": 6301,
      "possibility</w>": 6302,
      "weeping</w>": 6303,
      "--------": 6304,
      "": 6305,
      "arts</w>": 6306,
      "deal": 6307,
      "chess</w>": 6308,
      "sphere</w>": 6309,
      "thern</w>": 6310,
      "distra": 6311,
      "suffer": 6312,
      "holds</w>": 6313,
      "animals</w>": 6314,
      "Stephen</w>": 6315,
      "Bag": 6316,
      "Dmit": 6317,
      "slain</w>": 6318,
      "Bulstrode</w>": 6319,
      "eg": 6320,
      "ratt": 6321,
      "vlov": 6322,
      "prejudi": 6323,
      "folk</w>": 6324,
      "benefit</w>": 6325,
      "properly</w>": 6326,
      "odd</w>": 6327,
      "sentence</w>": 6328,
      "DUKE</w>": 6329,
      "TO</w>": 6330,
      "flies</w>": 6331,
      "extent</w>": 6332,
      "discovery</w>": 6333,
      "final</w>": 6334,
      "Sub": 6335,
      "peasants</w>": 6336,
      "infinite</w>": 6337,
      "quit</w>": 6338,
      "ource</w>": 6339,
      "amount</w>": 6340,
      "solation</w>": 6341,
      "overcome</w>": 6342,
      "successful</w>": 6343,
      "useless</w>": 6344,
      "himâ</w>": 6345,
      "stayed</w>": 6346,
      "vengeance</w>": 6347,
      "eleg": 6348,
      "gallo": 6349,
      "explanation</w>": 6350,
      "Fin": 6351,
      "reconc": 6352,
      "sheep</w>": 6353,
      "connected</w>": 6354,
      "ogra": 6355,
      "rty</w>": 6356,
      "thunder</w>": 6357,
      "acknowle": 6358,
      "gazing</w>": 6359,
      "offence</w>": 6360,
      "Holy</w>": 6361,
      "literature</w>": 6362,
      "STAFF</w>": 6363,
      "HEL": 6364,
      "PRIN": 6365,
      "lin</w>": 6366,
      "Death</w>": 6367,
      "Partridge</w>": 6368,
      "Dublin</w>": 6369,
      "Service</w>": 6370,
      "TIO</w>": 6371,
      "commander</w>": 6372,
      "favourite</w>": 6373,
      "cate</w>": 6374,
      "persi": 6375,
      "scat": 6376,
      "lored</w>": 6377,
      "Augu": 6378,
      "rapid</w>": 6379,
      "King": 6380,
      "_I": 6381,
      "sso": 6382,
      "well": 6383,
      "earing</w>": 6384,
      "charm</w>": 6385,
      "cursed</w>": 6386,
      "light": 6387,
      "discer": 6388,
      "examined</w>": 6389,
      "yiel": 6390,
      "theatre</w>": 6391,
      "FALSTAFF</w>": 6392,
      "6th</w>": 6393,
      "lofty</w>": 6394,
      "chÃ</w>": 6395,
      "strongly</w>": 6396,
      "Jarn": 6397,
      "Front</w>": 6398,
      "OK</w>": 6399,
      "cer</w>": 6400,
      "kho": 6401,
      "depri": 6402,
      "assumed</w>": 6403,
      "hearted</w>": 6404,
      "attitude</w>": 6405,
      "wherein</w>": 6406,
      "fearful</w>": 6407,
      "wept</w>": 6408,
      "furniture</w>": 6409,
      "Jarndy": 6410,
      "Fau": 6411,
      "aven": 6412,
      "kingâ</w>": 6413,
      "mid</w>": 6414,
      "snat": 6415,
      "lords</w>": 6416,
      "Lin": 6417,
      "TUS</w>": 6418,
      "eving</w>": 6419,
      "correspon": 6420,
      "volu": 6421,
      "Lanca": 6422,
      "mingled</w>": 6423,
      "guns</w>": 6424,
      "Sheâ</w>": 6425,
      "slo": 6426,
      "using</w>": 6427,
      "hib": 6428,
      "exter": 6429,
      "performed</w>": 6430,
      "painted</w>": 6431,
      "Marga": 6432,
      "Long</w>": 6433,
      "elo": 6434,
      "principal</w>": 6435,
      "hungry</w>": 6436,
      "chim": 6437,
      "yl": 6438,
      "stant</w>": 6439,
      "gift</w>": 6440,
      "appet": 6441,
      "century</w>": 6442,
      "nervous</w>": 6443,
      "BAR": 6444,
      "lyâ</w>": 6445,
      "throwing</w>": 6446,
      "require</w>": 6447,
      "cade</w>": 6448,
      "compreh": 6449,
      "mmer</w>": 6450,
      "cheer": 6451,
      "villain</w>": 6452,
      "witne": 6453,
      "vague</w>": 6454,
      "Everything</w>": 6455,
      "Achilles</w>": 6456,
      "performance</w>": 6457,
      "See": 6458,
      "rily</w>": 6459,
      "lively</w>": 6460,
      "apprehen": 6461,
      "vile</w>": 6462,
      "Herbert</w>": 6463,
      "prisoners</w>": 6464,
      "amaz": 6465,
      "AB": 6466,
      "upper</w>": 6467,
      "insul": 6468,
      "on_</w>": 6469,
      "ille</w>": 6470,
      "limbs</w>": 6471,
      "cock</w>": 6472,
      "domin": 6473,
      "seriously</w>": 6474,
      "surface</w>": 6475,
      "confused</w>": 6476,
      "exhausted</w>": 6477,
      "12": 6478,
      "Glou": 6479,
      "TON</w>": 6480,
      "stable</w>": 6481,
      "provo": 6482,
      "trade</w>": 6483,
      "merit</w>": 6484,
      "folded</w>": 6485,
      "studied</w>": 6486,
      "wondered</w>": 6487,
      "pronounced</w>": 6488,
      "inher": 6489,
      "ency</w>": 6490,
      "posal</w>": 6491,
      "managed</w>": 6492,
      "marks</w>": 6493,
      "corrup": 6494,
      "visited</w>": 6495,
      "Plato</w>": 6496,
      "Glouce": 6497,
      "Thi": 6498,
      "nic": 6499,
      "wre": 6500,
      "thless</w>": 6501,
      "even": 6502,
      "chur": 6503,
      "calcul": 6504,
      "plenty</w>": 6505,
      "sighed</w>": 6506,
      "PA": 6507,
      "Socr": 6508,
      "phan": 6509,
      "mutual</w>": 6510,
      "purse</w>": 6511,
      "victi": 6512,
      "motionless</w>": 6513,
      "blows</w>": 6514,
      "unexpected</w>": 6515,
      "earl</w>": 6516,
      "crew</w>": 6517,
      "torn</w>": 6518,
      "Matthew</w>": 6519,
      "medic": 6520,
      "gallan": 6521,
      "insisted</w>": 6522,
      "north</w>": 6523,
      "Shi": 6524,
      "fold</w>": 6525,
      "oath</w>": 6526,
      "wri": 6527,
      "sages</w>": 6528,
      "exquisite</w>": 6529,
      "isher</w>": 6530,
      "parl": 6531,
      "bar</w>": 6532,
      "Sus": 6533,
      "stepped</w>": 6534,
      "excep": 6535,
      "battn</w>": 6536,
      "poverty</w>": 6537,
      "cence</w>": 6538,
      "thie": 6539,
      "reward</w>": 6540,
      "solic": 6541,
      "departed</w>": 6542,
      "Full</w>": 6543,
      "machine</w>": 6544,
      "badly</w>": 6545,
      "suspected</w>": 6546,
      "system</w>": 6547,
      "ized</w>": 6548,
      "alâ</w>": 6549,
      "figu": 6550,
      "freely</w>": 6551,
      "crimin": 6552,
      "distinct</w>": 6553,
      "landlord</w>": 6554,
      "havenâ</w>": 6555,
      "members</w>": 6556,
      "temper": 6557,
      "cepti": 6558,
      "000</w>": 6559,
      "HAR": 6560,
      "boun": 6561,
      "plex": 6562,
      "mping</w>": 6563,
      "Through</w>": 6564,
      "stories</w>": 6565,
      "thereby</w>": 6566,
      "Troj": 6567,
      "Vir": 6568,
      "mity</w>": 6569,
      "til": 6570,
      "vest</w>": 6571,
      "alarmed</w>": 6572,
      "holes</w>": 6573,
      "civil</w>": 6574,
      "prize</w>": 6575,
      "begins</w>": 6576,
      "midnight</w>": 6577,
      "eagerly</w>": 6578,
      "CLO": 6579,
      "nya</w>": 6580,
      "size</w>": 6581,
      "conditions</w>": 6582,
      "milk</w>": 6583,
      "humil": 6584,
      "foe</w>": 6585,
      "straw</w>": 6586,
      "sang</w>": 6587,
      "defend</w>": 6588,
      "group</w>": 6589,
      "Gru": 6590,
      "mmed</w>": 6591,
      "ela": 6592,
      "pressing</w>": 6593,
      "fil</w>": 6594,
      "somebody</w>": 6595,
      "brotherâ</w>": 6596,
      "help": 6597,
      "child": 6598,
      "Sudd": 6599,
      "defence</w>": 6600,
      "slipped</w>": 6601,
      "dishon": 6602,
      "Hath</w>": 6603,
      "MÃ</w>": 6604,
      "ether</w>": 6605,
      "ras</w>": 6606,
      "eror</w>": 6607,
      "tivity</w>": 6608,
      "whir": 6609,
      "1895</w>": 6610,
      "weakness</w>": 6611,
      "consequently</w>": 6612,
      "destroy</w>": 6613,
      "humanity</w>": 6614,
      "gon</w>": 6615,
      "vern</w>": 6616,
      "quitted</w>": 6617,
      "rupt</w>": 6618,
      "hospital</w>": 6619,
      "eye": 6620,
      "geous</w>": 6621,
      "hills</w>": 6622,
      "plans</w>": 6623,
      "sionally</w>": 6624,
      "engagement</w>": 6625,
      "Micha": 6626,
      "Jarndyce</w>": 6627,
      "Dun": 6628,
      "Grace</w>": 6629,
      "fati": 6630,
      "re_</w>": 6631,
      "chor": 6632,
      "contri": 6633,
      "finish</w>": 6634,
      "explo": 6635,
      "bag</w>": 6636,
      "vals</w>": 6637,
      "try": 6638,
      "enjoyment</w>": 6639,
      "comrade</w>": 6640,
      "Suddenly</w>": 6641,
      "Stra": 6642,
      "mÃ</w>": 6643,
      "hide": 6644,
      "rush</w>": 6645,
      "Cae": 6646,
      "Franc": 6647,
      "funeral</w>": 6648,
      "Scottish</w>": 6649,
      "KutÃºzov</w>": 6650,
      "EL</w>": 6651,
      "represent": 6652,
      "cken</w>": 6653,
      "wrath</w>": 6654,
      "causes</w>": 6655,
      "Caesar</w>": 6656,
      "cunt</w>": 6657,
      "erina</w>": 6658,
      "waste</w>": 6659,
      "receiving</w>": 6660,
      "Profe": 6661,
      "sufficiently</w>": 6662,
      "voyage</w>": 6663,
      "ishing</w>": 6664,
      "vac": 6665,
      "zens</w>": 6666,
      "masters</w>": 6667,
      "furious</w>": 6668,
      "physician</w>": 6669,
      "lucky</w>": 6670,
      "Meanwhile</w>": 6671,
      "EPH": 6672,
      "ials</w>": 6673,
      "ideal</w>": 6674,
      "Castle</w>": 6675,
      "survi": 6676,
      "savage</w>": 6677,
      "magnificent</w>": 6678,
      "Mc": 6679,
      "Next</w>": 6680,
      "Pea": 6681,
      "tively</w>": 6682,
      "hosp": 6683,
      "audience</w>": 6684,
      "shock</w>": 6685,
      "excel": 6686,
      "People</w>": 6687,
      "persuaded</w>": 6688,
      "material</w>": 6689,
      "Speak</w>": 6690,
      "enger</w>": 6691,
      "contained</w>": 6692,
      "will": 6693,
      ";</w>": 6694,
      "Africa</w>": 6695,
      "7th</w>": 6696,
      "madness</w>": 6697,
      "mortal": 6698,
      "heartily</w>": 6699,
      "ski</w>": 6700,
      "Cold": 6701,
      "possess</w>": 6702,
      "poems</w>": 6703,
      "French": 6704,
      "Av": 6705,
      "vent</w>": 6706,
      "hang</w>": 6707,
      "carp": 6708,
      "ING": 6709,
      "Luc": 6710,
      "ANTON": 6711,
      "Katerina</w>": 6712,
      "smar": 6713,
      "tre</w>": 6714,
      "hated</w>": 6715,
      "chment</w>": 6716,
      "leased</w>": 6717,
      "180": 6718,
      "Reserve</w>": 6719,
      "fortunately</w>": 6720,
      "Sand": 6721,
      "SIR</w>": 6722,
      "wooden</w>": 6723,
      "cook</w>": 6724,
      "?'</w>": 6725,
      "Sea": 6726,
      "cuse</w>": 6727,
      "speaks</w>": 6728,
      "wanting</w>": 6729,
      "portra": 6730,
      "settle</w>": 6731,
      "prevented</w>": 6732,
      "Margaret</w>": 6733,
      "De</w>": 6734,
      "Dou": 6735,
      "Well": 6736,
      "strate</w>": 6737,
      "chap": 6738,
      "description</w>": 6739,
      "tells</w>": 6740,
      "slightly</w>": 6741,
      "ring": 6742,
      "eleven</w>": 6743,
      "dia": 6744,
      "sincer": 6745,
      "mming</w>": 6746,
      "Desp": 6747,
      "LEY</w>": 6748,
      "amiable</w>": 6749,
      "Aha": 6750,
      "Jack</w>": 6751,
      "ax": 6752,
      "cy": 6753,
      "addressing</w>": 6754,
      "attribu": 6755,
      "veness</w>": 6756,
      "inton</w>": 6757,
      "striking</w>": 6758,
      "immediate</w>": 6759,
      "trembled</w>": 6760,
      "Europ": 6761,
      "DON</w>": 6762,
      "FRAN": 6763,
      "ece</w>": 6764,
      "level</w>": 6765,
      "fish": 6766,
      "chal": 6767,
      "1905</w>": 6768,
      "staring</w>": 6769,
      "Park</w>": 6770,
      "grandfather</w>": 6771,
      "feast</w>": 6772,
      "conceive</w>": 6773,
      "DenÃ</w>": 6774,
      "DO": 6775,
      "crea": 6776,
      "movements</w>": 6777,
      "fix": 6778,
      "knocked</w>": 6779,
      "frequent</w>": 6780,
      "divided</w>": 6781,
      "valuable</w>": 6782,
      "Sti": 6783,
      "du</w>": 6784,
      "remaining</w>": 6785,
      "Bucket</w>": 6786,
      "Ada</w>": 6787,
      "destroyed</w>": 6788,
      "jealous</w>": 6789,
      "established</w>": 6790,
      "Socrates</w>": 6791,
      "figures</w>": 6792,
      "sire</w>": 6793,
      "destruction</w>": 6794,
      "dayâ</w>": 6795,
      "prospect</w>": 6796,
      "warri": 6797,
      "cart</w>": 6798,
      "star</w>": 6799,
      "Im": 6800,
      "Out</w>": 6801,
      "landing</w>": 6802,
      "commonly</w>": 6803,
      "silly</w>": 6804,
      "related</w>": 6805,
      "principles</w>": 6806,
      "opera</w>": 6807,
      "50</w>": 6808,
      "Cel": 6809,
      "VI</w>": 6810,
      "veâ</w>": 6811,
      "inev": 6812,
      "tide</w>": 6813,
      "lady": 6814,
      "pole</w>": 6815,
      "firmly</w>": 6816,
      "certain": 6817,
      "closely</w>": 6818,
      "pleasures</w>": 6819,
      "stock</w>": 6820,
      "hunger</w>": 6821,
      "services</w>": 6822,
      "ACT</w>": 6823,
      "leaned</w>": 6824,
      "Petrov": 6825,
      "WI": 6826,
      "Zeal": 6827,
      "keâ</w>": 6828,
      "guest</w>": 6829,
      "lown</w>": 6830,
      "joke</w>": 6831,
      "hereâ</w>": 6832,
      "idle</w>": 6833,
      "numbers</w>": 6834,
      "virtues</w>": 6835,
      "execution</w>": 6836,
      "observation</w>": 6837,
      "Ari": 6838,
      "Kent</w>": 6839,
      "yst</w>": 6840,
      "reland</w>": 6841,
      "moreover</w>": 6842,
      "luc": 6843,
      "carri": 6844,
      "sar": 6845,
      "unjust</w>": 6846,
      "genu": 6847,
      "deliver</w>": 6848,
      "effects</w>": 6849,
      "message</w>": 6850,
      "control</w>": 6851,
      "Gran": 6852,
      "HOR": 6853,
      "sna": 6854,
      "erous": 6855,
      "bears</w>": 6856,
      "losing</w>": 6857,
      "unted</w>": 6858,
      "shru": 6859,
      "through": 6860,
      "trine</w>": 6861,
      "Luci": 6862,
      "Ham": 6863,
      "nag": 6864,
      "represented</w>": 6865,
      "wake</w>": 6866,
      "agony</w>": 6867,
      "cur</w>": 6868,
      "interests</w>": 6869,
      "issue</w>": 6870,
      "NE</w>": 6871,
      "Tor": 6872,
      "kna": 6873,
      "tial</w>": 6874,
      "dible</w>": 6875,
      "drops</w>": 6876,
      "lessness</w>": 6877,
      "extended</w>": 6878,
      "tillery</w>": 6879,
      "European</w>": 6880,
      "SU": 6881,
      "fought</w>": 6882,
      "letâ</w>": 6883,
      "female</w>": 6884,
      "appreci": 6885,
      "honourable</w>": 6886,
      "occasi": 6887,
      "cruel": 6888,
      "tyran": 6889,
      "sensation</w>": 6890,
      "University</w>": 6891,
      "Ahab</w>": 6892,
      "WN</w>": 6893,
      "inhabit": 6894,
      "absent</w>": 6895,
      "tages</w>": 6896,
      "proph": 6897,
      "faced</w>": 6898,
      "1904</w>": 6899,
      "Men</w>": 6900,
      "dine</w>": 6901,
      "fted</w>": 6902,
      "recalled</w>": 6903,
      "ride</w>": 6904,
      "besee": 6905,
      "dirty</w>": 6906,
      "graceful</w>": 6907,
      "vanity</w>": 6908,
      "alike</w>": 6909,
      "edingly</w>": 6910,
      "wearing</w>": 6911,
      "solemn": 6912,
      "Caderous": 6913,
      "conviction</w>": 6914,
      "eloqu": 6915,
      "AT</w>": 6916,
      "outw": 6917,
      "atives</w>": 6918,
      "dawn</w>": 6919,
      "ffs</w>": 6920,
      "commo": 6921,
      "itions</w>": 6922,
      "obtain</w>": 6923,
      "start": 6924,
      "overwhel": 6925,
      "kinds</w>": 6926,
      "cease</w>": 6927,
      "philosopher</w>": 6928,
      "Dmitri</w>": 6929,
      "Oc": 6930,
      "bing</w>": 6931,
      "eno": 6932,
      "mamma</w>": 6933,
      "fastened</w>": 6934,
      "mess": 6935,
      "dome</w>": 6936,
      "common": 6937,
      "store</w>": 6938,
      "gro</w>": 6939,
      "Just": 6940,
      "Under</w>": 6941,
      "Germans</w>": 6942,
      "sacrific": 6943,
      "shortly</w>": 6944,
      "absurd</w>": 6945,
      "GU": 6946,
      "Loo": 6947,
      "wl</w>": 6948,
      "farewell</w>": 6949,
      "asm</w>": 6950,
      "presents</w>": 6951,
      "tries</w>": 6952,
      "Dorian</w>": 6953,
      "deserted</w>": 6954,
      "condemned</w>": 6955,
      "staircase</w>": 6956,
      "WAL": 6957,
      "_d</w>": 6958,
      "cin": 6959,
      "notwithstanding</w>": 6960,
      "belong</w>": 6961,
      "Make</w>": 6962,
      "Suff": 6963,
      "tiny</w>": 6964,
      "inea</w>": 6965,
      "slightest</w>": 6966,
      "coffee</w>": 6967,
      "method</w>": 6968,
      "year": 6969,
      "roman": 6970,
      "wher": 6971,
      "cies</w>": 6972,
      "bows</w>": 6973,
      "Heathcliff</w>": 6974,
      "orna": 6975,
      "forces</w>": 6976,
      "market</w>": 6977,
      "alist</w>": 6978,
      "Nik": 6979,
      "Fern": 6980,
      "jewel": 6981,
      "intimate</w>": 6982,
      "Publi": 6983,
      "Bol": 6984,
      "OM</w>": 6985,
      "indifferent</w>": 6986,
      "roll</w>": 6987,
      "shone</w>": 6988,
      "ourâ</w>": 6989,
      "disgrace</w>": 6990,
      "chairs</w>": 6991,
      "BOOK</w>": 6992,
      "Christmas</w>": 6993,
      "Spanish</w>": 6994,
      "sovereign</w>": 6995,
      "Zealand</w>": 6996,
      "pick</w>": 6997,
      "envel": 6998,
      "hadnâ</w>": 6999,
      "dim</w>": 7000,
      "versal</w>": 7001,
      "quali": 7002,
      "stiff</w>": 7003,
      "liness</w>": 7004,
      "dancing</w>": 7005,
      "favor": 7006,
      "queer</w>": 7007,
      ".}</w>": 7008,
      "Cy": 7009,
      "Fisher</w>": 7010,
      "don": 7011,
      "tments</w>": 7012,
      "list</w>": 7013,
      "forming</w>": 7014,
      "ult</w>": 7015,
      "expense</w>": 7016,
      "exceedingly</w>": 7017,
      "Javert</w>": 7018,
      "Nevertheless</w>": 7019,
      "idâ</w>": 7020,
      "sni": 7021,
      "dome": 7022,
      "training</w>": 7023,
      "career</w>": 7024,
      "MAC": 7025,
      "governor</w>": 7026,
      "invest": 7027,
      "Greece</w>": 7028,
      "distinction</w>": 7029,
      "heavenly</w>": 7030,
      "ceremony</w>": 7031,
      "abandoned</w>": 7032,
      "Tri": 7033,
      "_A</w>": 7034,
      "eling</w>": 7035,
      "tie</w>": 7036,
      "popul": 7037,
      "fain": 7038,
      "breathing</w>": 7039,
      "finds</w>": 7040,
      "degrees</w>": 7041,
      "separate</w>": 7042,
      "accomplished</w>": 7043,
      "MER</w>": 7044,
      "beating</w>": 7045,
      "attd</w>": 7046,
      "Secon": 7047,
      "decision</w>": 7048,
      "whatsoever</w>": 7049,
      "expecting</w>": 7050,
      "bred</w>": 7051,
      "sped</w>": 7052,
      "prosecu": 7053,
      "disda": 7054,
      "creation</w>": 7055,
      "dining</w>": 7056,
      "garden": 7057,
      "parties</w>": 7058,
      "caution</w>": 7059,
      "vari": 7060,
      "American</w>": 7061,
      "valiant</w>": 7062,
      "nations</w>": 7063,
      "poured</w>": 7064,
      "gul": 7065,
      "naâ</w>": 7066,
      "declare</w>": 7067,
      "literary</w>": 7068,
      "Every": 7069,
      "heroes</w>": 7070,
      "gesture</w>": 7071,
      "Latin</w>": 7072,
      "absorbed</w>": 7073,
      "anguish</w>": 7074,
      "!...</w>": 7075,
      "Fit": 7076,
      "Scri": 7077,
      "smen</w>": 7078,
      "stling</w>": 7079,
      "lovers</w>": 7080,
      "acts</w>": 7081,
      "work": 7082,
      "proble": 7083,
      "perpe": 7084,
      "imagin": 7085,
      "Canada</w>": 7086,
      "distinctly</w>": 7087,
      "lightning</w>": 7088,
      "organ": 7089,
      "Ang": 7090,
      "observing</w>": 7091,
      "happily</w>": 7092,
      "reported</w>": 7093,
      "honours</w>": 7094,
      "smooth</w>": 7095,
      "occasionally</w>": 7096,
      "machus</w>": 7097,
      "clasps</w>": 7098,
      "cunning</w>": 7099,
      "Caderousse</w>": 7100,
      "29": 7101,
      "rocks</w>": 7102,
      "libr": 7103,
      "lodg": 7104,
      "offended</w>": 7105,
      "ANT</w>": 7106,
      "keeps</w>": 7107,
      "licity</w>": 7108,
      "coffin</w>": 7109,
      "Trans": 7110,
      "30": 7111,
      "MO": 7112,
      "Squ": 7113,
      "TE</w>": 7114,
      "snu": 7115,
      "ugly</w>": 7116,
      "masterâ</w>": 7117,
      "minist": 7118,
      "gifts</w>": 7119,
      "Gods</w>": 7120,
      "ocean</w>": 7121,
      "tempor": 7122,
      "Pip</w>": 7123,
      "affection": 7124,
      "heavily</w>": 7125,
      "Has</w>": 7126,
      "esc": 7127,
      "mmer": 7128,
      "pti": 7129,
      "stout</w>": 7130,
      "whither</w>": 7131,
      "version</w>": 7132,
      "perplex": 7133,
      "burden</w>": 7134,
      "Should</w>": 7135,
      "numerous</w>": 7136,
      "Gentle": 7137,
      "Ban": 7138,
      "ho</w>": 7139,
      "rand</w>": 7140,
      "um": 7141,
      "risk</w>": 7142,
      "acquired</w>": 7143,
      "cians</w>": 7144,
      "happens</w>": 7145,
      "Being</w>": 7146,
      "solitary</w>": 7147,
      "ggs</w>": 7148,
      "1893</w>": 7149,
      "husbandâ</w>": 7150,
      "describe</w>": 7151,
      "particulars</w>": 7152,
      "announced</w>": 7153,
      "air": 7154,
      "onely</w>": 7155,
      "quant": 7156,
      "sured</w>": 7157,
      "changing</w>": 7158,
      "conducted</w>": 7159,
      "intellec": 7160,
      "zzled</w>": 7161,
      "Gro": 7162,
      "sca": 7163,
      "pot</w>": 7164,
      "cono": 7165,
      "fun</w>": 7166,
      "Whether</w>": 7167,
      "gne</w>": 7168,
      "subsequ": 7169,
      "lonely</w>": 7170,
      "1903</w>": 7171,
      "strain</w>": 7172,
      "quires</w>": 7173,
      "meantime</w>": 7174,
      "Dorothy</w>": 7175,
      "compassion</w>": 7176,
      "Bon": 7177,
      "Mis": 7178,
      "edi": 7179,
      "epi": 7180,
      "plo": 7181,
      "vill</w>": 7182,
      "ensive</w>": 7183,
      "achi": 7184,
      "ughty</w>": 7185,
      "substance</w>": 7186,
      "winds</w>": 7187,
      "Candi": 7188,
      "depths</w>": 7189,
      "attacked</w>": 7190,
      "COR": 7191,
      "TES</w>": 7192,
      "fon": 7193,
      "sounded</w>": 7194,
      "ux</w>": 7195,
      "thetic</w>": 7196,
      "sable</w>": 7197,
      "lasting</w>": 7198,
      "shoc": 7199,
      "conjec": 7200,
      "fail": 7201,
      "testi": 7202,
      "considering</w>": 7203,
      "adventures</w>": 7204,
      "ridiculous</w>": 7205,
      "precisely</w>": 7206,
      "hideous</w>": 7207,
      "jol": 7208,
      "umb": 7209,
      "shrie": 7210,
      "derly</w>": 7211,
      "transferred</w>": 7212,
      "accordingly</w>": 7213,
      "dled</w>": 7214,
      "equi": 7215,
      "wer</w>": 7216,
      "ard": 7217,
      "beings</w>": 7218,
      "motions</w>": 7219,
      "wishing</w>": 7220,
      "afford</w>": 7221,
      "dearest</w>": 7222,
      "aul</w>": 7223,
      "vile": 7224,
      "relieved</w>": 7225,
      "narr": 7226,
      "expectation</w>": 7227,
      "pretended</w>": 7228,
      "protection</w>": 7229,
      "comrades</w>": 7230,
      "amazement</w>": 7231,
      "Youn": 7232,
      "em": 7233,
      "tables</w>": 7234,
      "earest</w>": 7235,
      "constantly</w>": 7236,
      "mph": 7237,
      "addition</w>": 7238,
      "gree": 7239,
      "throne</w>": 7240,
      "furnished</w>": 7241,
      "Provi": 7242,
      "Francis</w>": 7243,
      "gger</w>": 7244,
      "you": 7245,
      "roads</w>": 7246,
      "wash</w>": 7247,
      "prey</w>": 7248,
      "ousy</w>": 7249,
      "vanished</w>": 7250,
      "veil</w>": 7251,
      "Soon</w>": 7252,
      "Soci": 7253,
      "Mont": 7254,
      "affir": 7255,
      "linen</w>": 7256,
      "appointment</w>": 7257,
      "tonight</w>": 7258,
      "admired</w>": 7259,
      "inclination</w>": 7260,
      "throughout</w>": 7261,
      "BY</w>": 7262,
      "apt</w>": 7263,
      "farm</w>": 7264,
      "ttering</w>": 7265,
      "rope</w>": 7266,
      "notion</w>": 7267,
      "decor": 7268,
      "soil</w>": 7269,
      "headed</w>": 7270,
      "shipâ</w>": 7271,
      "Morcer": 7272,
      "centre</w>": 7273,
      "Surrey</w>": 7274,
      "daylight</w>": 7275,
      "Coldstream</w>": 7276,
      "PO": 7277,
      "Pru": 7278,
      "iter</w>": 7279,
      "sevent": 7280,
      "preme</w>": 7281,
      "serves</w>": 7282,
      "stoma": 7283,
      "larger</w>": 7284,
      "physical</w>": 7285,
      "Ha</w>": 7286,
      "south</w>": 7287,
      "vine</w>": 7288,
      "poem</w>": 7289,
      "official</w>": 7290,
      "chose</w>": 7291,
      "forever</w>": 7292,
      "spiritual</w>": 7293,
      "remembrance</w>": 7294,
      "conceived</w>": 7295,
      "disagreeable</w>": 7296,
      "rebel": 7297,
      "bewil": 7298,
      "older</w>": 7299,
      "fire": 7300,
      "somehow</w>": 7301,
      "capacity</w>": 7302,
      "179": 7303,
      "urged</w>": 7304,
      "cave</w>": 7305,
      "isy</w>": 7306,
      "ecst": 7307,
      "suspect</w>": 7308,
      "obedience</w>": 7309,
      "entertain": 7310,
      "indignation</w>": 7311,
      "yonder</w>": 7312,
      "sat": 7313,
      "resul": 7314,
      "returns</w>": 7315,
      "rice</w>": 7316,
      "sies</w>": 7317,
      "charms</w>": 7318,
      "attracted</w>": 7319,
      "reproach</w>": 7320,
      "Candide</w>": 7321,
      "aren": 7322,
      "rati": 7323,
      "coach": 7324,
      "deserve</w>": 7325,
      "manly</w>": 7326,
      "hum": 7327,
      "dants</w>": 7328,
      "universal</w>": 7329,
      "Darcy</w>": 7330,
      "household</w>": 7331,
      "FREDER": 7332,
      "flood</w>": 7333,
      "Sandhurst</w>": 7334,
      ".[</w>": 7335,
      "zu": 7336,
      "revi": 7337,
      "dient</w>": 7338,
      "musk": 7339,
      "Martin</w>": 7340,
      "arrive</w>": 7341,
      "difficulties</w>": 7342,
      "slip</w>": 7343,
      "debt</w>": 7344,
      "positions</w>": 7345,
      "logical</w>": 7346,
      "Could</w>": 7347,
      "Smer": 7348,
      "enth</w>": 7349,
      "exposed</w>": 7350,
      "agitation</w>": 7351,
      "advi": 7352,
      "trage": 7353,
      "discip": 7354,
      "pleasan": 7355,
      "Poet</w>": 7356,
      "whereof</w>": 7357,
      "article</w>": 7358,
      "Scotland</w>": 7359,
      "thief</w>": 7360,
      "bask": 7361,
      "flow</w>": 7362,
      "pare</w>": 7363,
      "slan": 7364,
      "error</w>": 7365,
      "sively</w>": 7366,
      "ruined</w>": 7367,
      "warnâ</w>": 7368,
      "itute</w>": 7369,
      "anywhere</w>": 7370,
      "LADY</w>": 7371,
      "recognize</w>": 7372,
      "VIII</w>": 7373,
      "Ellen</w>": 7374,
      "outhful</w>": 7375,
      "excellency</w>": 7376,
      "HER": 7377,
      "Lt</w>": 7378,
      "thom</w>": 7379,
      "mischief</w>": 7380,
      "burned</w>": 7381,
      "ENT</w>": 7382,
      "sentiments</w>": 7383,
      "scorn</w>": 7384,
      "Ath": 7385,
      "CH</w>": 7386,
      "Dec": 7387,
      "FORD</w>": 7388,
      "PH</w>": 7389,
      "sented</w>": 7390,
      "itely</w>": 7391,
      "Maxi": 7392,
      "pull</w>": 7393,
      "Black</w>": 7394,
      "Professor</w>": 7395,
      "Smerdy": 7396,
      "8th</w>": 7397,
      "Jer": 7398,
      "con</w>": 7399,
      "eu</w>": 7400,
      "glo": 7401,
      "resc": 7402,
      "stâ</w>": 7403,
      "abri": 7404,
      "motive</w>": 7405,
      "quet</w>": 7406,
      "ingen": 7407,
      "manage</w>": 7408,
      "Although</w>": 7409,
      "Ded": 7410,
      "culti": 7411,
      "Green</w>": 7412,
      "stroke</w>": 7413,
      "thanked</w>": 7414,
      "displa": 7415,
      "Scroo": 7416,
      "devotion</w>": 7417,
      "swift</w>": 7418,
      "Cambridge</w>": 7419,
      "noble": 7420,
      "tip": 7421,
      "leis": 7422,
      "mption</w>": 7423,
      "butt": 7424,
      "horiz": 7425,
      "Listen</w>": 7426,
      "murdered</w>": 7427,
      "separated</w>": 7428,
      "Smerdya": 7429,
      "dur": 7430,
      "repose</w>": 7431,
      "consul": 7432,
      "prepare</w>": 7433,
      "scrup": 7434,
      "apple</w>": 7435,
      "intend</w>": 7436,
      "downstairs</w>": 7437,
      "neighbourhood</w>": 7438,
      "Mur": 7439,
      "PI": 7440,
      "un</w>": 7441,
      "previously</w>": 7442,
      "vigor": 7443,
      "rowed</w>": 7444,
      "intense</w>": 7445,
      "sheet</w>": 7446,
      "retire</w>": 7447,
      "embraced</w>": 7448,
      "inquiry</w>": 7449,
      "appetite</w>": 7450,
      "Ph": 7451,
      "bb</w>": 7452,
      "inward</w>": 7453,
      "seÃ</w>": 7454,
      "itious</w>": 7455,
      "princes</w>": 7456,
      "wondering</w>": 7457,
      "glit": 7458,
      "rolling</w>": 7459,
      "Honour</w>": 7460,
      "cottage</w>": 7461,
      "60</w>": 7462,
      "Cle": 7463,
      "FI": 7464,
      "Hester</w>": 7465,
      "Wi": 7466,
      "sand</w>": 7467,
      "shee": 7468,
      "mic</w>": 7469,
      "nah</w>": 7470,
      "merchant</w>": 7471,
      "utter": 7472,
      "solitude</w>": 7473,
      "doubtless</w>": 7474,
      "Hogue</w>": 7475,
      "virtuous</w>": 7476,
      "branches</w>": 7477,
      "enthusiasm</w>": 7478,
      "Australian</w>": 7479,
      "cus</w>": 7480,
      "too": 7481,
      "hastened</w>": 7482,
      "ARTHU": 7483,
      "English": 7484,
      "1892</w>": 7485,
      "spark": 7486,
      "phrase</w>": 7487,
      "inhabitants</w>": 7488,
      "ARTHUR</w>": 7489,
      "Dres": 7490,
      "Men": 7491,
      "fits</w>": 7492,
      "rail": 7493,
      "shy</w>": 7494,
      "solid</w>": 7495,
      "propri": 7496,
      "heels</w>": 7497,
      "driving</w>": 7498,
      "earnestly</w>": 7499,
      "anticip": 7500,
      "basket</w>": 7501,
      "leisure</w>": 7502,
      "App": 7503,
      "Neither</w>": 7504,
      "PRO": 7505,
      "by": 7506,
      "ken": 7507,
      "mood</w>": 7508,
      "thick": 7509,
      "envy</w>": 7510,
      "riding</w>": 7511,
      "letting</w>": 7512,
      "niece</w>": 7513,
      "interpre": 7514,
      "porter</w>": 7515,
      "band": 7516,
      "Must</w>": 7517,
      "glancing</w>": 7518,
      "persuade</w>": 7519,
      "Sonia</w>": 7520,
      "FREDERICK</w>": 7521,
      "Get</w>": 7522,
      "Sher": 7523,
      "crow</w>": 7524,
      "vey</w>": 7525,
      "steel</w>": 7526,
      "elev": 7527,
      "tives</w>": 7528,
      "acting</w>": 7529,
      "scand": 7530,
      "privile": 7531,
      "warrant</w>": 7532,
      "stain</w>": 7533,
      "brings</w>": 7534,
      "cured</w>": 7535,
      "characters</w>": 7536,
      "sque</w>": 7537,
      "Majesty</w>": 7538,
      "reckon</w>": 7539,
      "maintain</w>": 7540,
      "ladyâ</w>": 7541,
      "certainty</w>": 7542,
      "ATH": 7543,
      "eaten</w>": 7544,
      "meal</w>": 7545,
      "ringing</w>": 7546,
      "tally</w>": 7547,
      "stee": 7548,
      "wifeâ</w>": 7549,
      "derâ</w>": 7550,
      "plays</w>": 7551,
      "ship": 7552,
      "roubles</w>": 7553,
      "strangers</w>": 7554,
      "Countess</w>": 7555,
      "remarks</w>": 7556,
      "rights</w>": 7557,
      "Scrip": 7558,
      "stomach</w>": 7559,
      "tya</w>": 7560,
      "mee</w>": 7561,
      "door": 7562,
      "gible</w>": 7563,
      "ealing</w>": 7564,
      "angle</w>": 7565,
      "affli": 7566,
      "severely</w>": 7567,
      "lication</w>": 7568,
      "Guppy</w>": 7569,
      "gratul": 7570,
      "Cra": 7571,
      "Ob": 7572,
      "flan": 7573,
      "jp": 7574,
      "pit</w>": 7575,
      "ash</w>": 7576,
      "tested</w>": 7577,
      "tend</w>": 7578,
      "trace</w>": 7579,
      "missing</w>": 7580,
      "practical</w>": 7581,
      "shouting</w>": 7582,
      "clergy": 7583,
      "jpg</w>": 7584,
      "DÃ</w>": 7585,
      "Hence</w>": 7586,
      "Snag": 7587,
      "bus</w>": 7588,
      "eding</w>": 7589,
      "knights</w>": 7590,
      "swore</w>": 7591,
      "uses</w>": 7592,
      "preserved</w>": 7593,
      "readily</w>": 7594,
      "comprehen": 7595,
      "discharge</w>": 7596,
      "exerc": 7597,
      "habits</w>": 7598,
      "Fyodor": 7599,
      "Tele": 7600,
      "ai": 7601,
      "nity</w>": 7602,
      "invol": 7603,
      "stag": 7604,
      "gow</w>": 7605,
      "charity</w>": 7606,
      "stuff</w>": 7607,
      "whereas</w>": 7608,
      "Greeks</w>": 7609,
      "Grush": 7610,
      "Young</w>": 7611,
      "Dul": 7612,
      "LIN": 7613,
      "_To</w>": 7614,
      "uous</w>": 7615,
      "liest</w>": 7616,
      "mag": 7617,
      "turnâ</w>": 7618,
      "trump": 7619,
      "blessing</w>": 7620,
      "innocence</w>": 7621,
      "gloom</w>": 7622,
      "feeble</w>": 7623,
      "Cemetery</w>": 7624,
      "Niko": 7625,
      "Dresden</w>": 7626,
      "AS</w>": 7627,
      "exist</w>": 7628,
      "rules</w>": 7629,
      "Rose</w>": 7630,
      "beasts</w>": 7631,
      "glasses</w>": 7632,
      "resist</w>": 7633,
      "bench</w>": 7634,
      "câ</w>": 7635,
      "dent": 7636,
      "mo</w>": 7637,
      "inner</w>": 7638,
      "seth</w>": 7639,
      "fathers</w>": 7640,
      "asy</w>": 7641,
      "wich</w>": 7642,
      "warning</w>": 7643,
      "curse</w>": 7644,
      "keys</w>": 7645,
      "contempl": 7646,
      "resent": 7647,
      "positively</w>": 7648,
      "Scrooge</w>": 7649,
      "uted</w>": 7650,
      "ersâ</w>": 7651,
      "tight</w>": 7652,
      "unconscious</w>": 7653,
      "maâ</w>": 7654,
      "preserve</w>": 7655,
      "Rome": 7656,
      "cordi": 7657,
      "silently</w>": 7658,
      "paces</w>": 7659,
      "ELLO</w>": 7660,
      "Satur": 7661,
      "Glas": 7662,
      "Bir": 7663,
      "Bene": 7664,
      "SEN": 7665,
      "vey": 7666,
      "permission</w>": 7667,
      "travel</w>": 7668,
      "treat": 7669,
      "cardinal</w>": 7670,
      "courte": 7671,
      "vention</w>": 7672,
      "strict</w>": 7673,
      "lightly</w>": 7674,
      "type</w>": 7675,
      "esteem</w>": 7676,
      "wolf</w>": 7677,
      "medicine</w>": 7678,
      "Plan": 7679,
      "hÃ</w>": 7680,
      "nes</w>": 7681,
      "injustice</w>": 7682,
      "mode": 7683,
      "ques</w>": 7684,
      "iced</w>": 7685,
      "corpse</w>": 7686,
      "1896</w>": 7687,
      "clean": 7688,
      "Spir": 7689,
      "BEN": 7690,
      "Clif": 7691,
      "OO": 7692,
      "vet</w>": 7693,
      "hotel</w>": 7694,
      "ffed</w>": 7695,
      "firing</w>": 7696,
      "tress</w>": 7697,
      "bride</w>": 7698,
      "decide</w>": 7699,
      "Victor": 7700,
      "instinct</w>": 7701,
      "Morcerf</w>": 7702,
      "Vin": 7703,
      "invisible</w>": 7704,
      "leader</w>": 7705,
      "sins</w>": 7706,
      "visitor</w>": 7707,
      "yourselves</w>": 7708,
      "musical</w>": 7709,
      "pursuit</w>": 7710,
      "frightful</w>": 7711,
      "ambition</w>": 7712,
      "disappointment</w>": 7713,
      "Book</w>": 7714,
      "Kate</w>": 7715,
      "My": 7716,
      "kÃ</w>": 7717,
      "zi": 7718,
      "stry</w>": 7719,
      "ghor": 7720,
      "shly</w>": 7721,
      "owner</w>": 7722,
      "ades</w>": 7723,
      "permitted</w>": 7724,
      "reaching</w>": 7725,
      "borough</w>": 7726,
      "student</w>": 7727,
      "empha": 7728,
      "Carol": 7729,
      "jealousy</w>": 7730,
      "Glasgow</w>": 7731,
      "Pon": 7732,
      "fely</w>": 7733,
      "pup": 7734,
      "sworn</w>": 7735,
      "indifference</w>": 7736,
      "bet</w>": 7737,
      "conj": 7738,
      "earthly</w>": 7739,
      "eton</w>": 7740,
      "stuck</w>": 7741,
      "Razu": 7742,
      "Alexandrovna</w>": 7743,
      "Gor": 7744,
      "Svi": 7745,
      "card</w>": 7746,
      "eh</w>": 7747,
      "mers</w>": 7748,
      "plate</w>": 7749,
      "poets</w>": 7750,
      "score</w>": 7751,
      "trun": 7752,
      "trous": 7753,
      "contradi": 7754,
      "CLOWN</w>": 7755,
      "Gen</w>": 7756,
      "Linton</w>": 7757,
      "Spain</w>": 7758,
      "VII</w>": 7759,
      "source</w>": 7760,
      "rear</w>": 7761,
      "lesson</w>": 7762,
      "Russia</w>": 7763,
      "disappointed</w>": 7764,
      "Cri": 7765,
      "Hun": 7766,
      "Pope</w>": 7767,
      "fs</w>": 7768,
      "thingâ</w>": 7769,
      "involun": 7770,
      "liqu": 7771,
      "lust</w>": 7772,
      "series</w>": 7773,
      "millions</w>": 7774,
      "Moses</w>": 7775,
      "Division</w>": 7776,
      "awk": 7777,
      "crossing</w>": 7778,
      "Does</w>": 7779,
      "pillow</w>": 7780,
      "steady</w>": 7781,
      "Highlanders</w>": 7782,
      "bedroom</w>": 7783,
      "lieutenant</w>": 7784,
      "citizens</w>": 7785,
      "!'</w>": 7786,
      "Trin": 7787,
      "bag": 7788,
      "oil</w>": 7789,
      "pois": 7790,
      "rude</w>": 7791,
      "disease</w>": 7792,
      "Rochester</w>": 7793,
      "wheels</w>": 7794,
      "Liver": 7795,
      "BETH</w>": 7796,
      "summon": 7797,
      "impulse</w>": 7798,
      "penetr": 7799,
      "Ireland</w>": 7800,
      "LORD</w>": 7801,
      "dyâ</w>": 7802,
      "ris</w>": 7803,
      "tha</w>": 7804,
      "inquire</w>": 7805,
      "loa": 7806,
      "maids</w>": 7807,
      "wives</w>": 7808,
      "boats</w>": 7809,
      "mix": 7810,
      "grounds</w>": 7811,
      "Star": 7812,
      "granted</w>": 7813,
      "flushed</w>": 7814,
      "Raoul</w>": 7815,
      "employ</w>": 7816,
      "pursue</w>": 7817,
      "America</w>": 7818,
      "Dur": 7819,
      "pockets</w>": 7820,
      "washed</w>": 7821,
      "current</w>": 7822,
      "night": 7823,
      "Place</w>": 7824,
      "increa": 7825,
      "mirror</w>": 7826,
      "monstrous</w>": 7827,
      "library</w>": 7828,
      "Razumi": 7829,
      "South": 7830,
      "eously</w>": 7831,
      "remor": 7832,
      "likes</w>": 7833,
      "sack</w>": 7834,
      "poison</w>": 7835,
      "fix</w>": 7836,
      "enemyâ</w>": 7837,
      "grim</w>": 7838,
      "Homer</w>": 7839,
      "tional</w>": 7840,
      "attempted</w>": 7841,
      "families</w>": 7842,
      "endeavoured</w>": 7843,
      "strangely</w>": 7844,
      "Please</w>": 7845,
      "SER": 7846,
      "econo": 7847,
      "kshire</w>": 7848,
      "scho": 7849,
      "tle": 7850,
      "rela": 7851,
      "before": 7852,
      "tically</w>": 7853,
      "congratul": 7854,
      "moon": 7855,
      "exact</w>": 7856,
      "counter": 7857,
      "belly</w>": 7858,
      "tumul": 7859,
      "champ": 7860,
      "belonging</w>": 7861,
      "Matty</w>": 7862,
      "Michael</w>": 7863,
      "Te": 7864,
      "cci": 7865,
      "ements</w>": 7866,
      "founded</w>": 7867,
      "nearest</w>": 7868,
      "wen": 7869,
      "sest</w>": 7870,
      "mixed</w>": 7871,
      "commis": 7872,
      "sinc": 7873,
      "barbar": 7874,
      "visitors</w>": 7875,
      "examin": 7876,
      "Whom</w>": 7877,
      "OUN": 7878,
      "communication</w>": 7879,
      "advised</w>": 7880,
      "willingly</w>": 7881,
      "Cler": 7882,
      "pour</w>": 7883,
      "aly": 7884,
      "alas</w>": 7885,
      "lime</w>": 7886,
      "unusual</w>": 7887,
      "defin": 7888,
      "complex": 7889,
      "compared</w>": 7890,
      "wardly</w>": 7891,
      "changes</w>": 7892,
      "desert</w>": 7893,
      "beseech</w>": 7894,
      "Mul": 7895,
      "Sen": 7896,
      "lerable</w>": 7897,
      "oa": 7898,
      "tr</w>": 7899,
      "beaten</w>": 7900,
      "vig": 7901,
      "marble</w>": 7902,
      "ella</w>": 7903,
      "satisfy</w>": 7904,
      "variety</w>": 7905,
      "faults</w>": 7906,
      "Rifle</w>": 7907,
      "restored</w>": 7908,
      "adise</w>": 7909,
      "childhood</w>": 7910,
      "Peace</w>": 7911,
      "Fal": 7912,
      "NO": 7913,
      "Py": 7914,
      "Pur": 7915,
      "bending</w>": 7916,
      "reign</w>": 7917,
      "stal": 7918,
      "theory</w>": 7919,
      "behalf</w>": 7920,
      "coarse</w>": 7921,
      "shri": 7922,
      "conception</w>": 7923,
      "aller</w>": 7924,
      "examination</w>": 7925,
      "succeed</w>": 7926,
      "ladyship</w>": 7927,
      "increase</w>": 7928,
      "sincere</w>": 7929,
      "Ben</w>": 7930,
      "flou": 7931,
      "tele": 7932,
      "itor": 7933,
      "dess</w>": 7934,
      "toil</w>": 7935,
      "affor": 7936,
      "ulf</w>": 7937,
      "Noir": 7938,
      "species</w>": 7939,
      "dragged</w>": 7940,
      "songs</w>": 7941,
      "feels</w>": 7942,
      "justly</w>": 7943,
      "rightly</w>": 7944,
      "Its</w>": 7945,
      "Wen": 7946,
      "rejoined</w>": 7947,
      "refra": 7948,
      "chers</w>": 7949,
      "tomb</w>": 7950,
      "parting</w>": 7951,
      "scin": 7952,
      "sket": 7953,
      "purple</w>": 7954,
      "Lorry</w>": 7955,
      "recover</w>": 7956,
      "apparent</w>": 7957,
      "Bli": 7958,
      "RAC": 7959,
      "SS": 7960,
      "scru": 7961,
      "Somer": 7962,
      "respectable</w>": 7963,
      "risen</w>": 7964,
      "assurance</w>": 7965,
      "travelling</w>": 7966,
      "revealed</w>": 7967,
      "inspired</w>": 7968,
      "murderer</w>": 7969,
      "vulgar</w>": 7970,
      "khov</w>": 7971,
      "Smerdyakov</w>": 7972,
      "City</w>": 7973,
      "az": 7974,
      "saith</w>": 7975,
      "cares</w>": 7976,
      "modest</w>": 7977,
      "fanta": 7978,
      "rung</w>": 7979,
      "LOU": 7980,
      "writings</w>": 7981,
      "genuine</w>": 7982,
      "Bee": 7983,
      "Tow": 7984,
      "rosy</w>": 7985,
      "consu": 7986,
      "consolation</w>": 7987,
      "mus</w>": 7988,
      "mud</w>": 7989,
      "warm": 7990,
      "cards</w>": 7991,
      "wrought</w>": 7992,
      "breathe</w>": 7993,
      "stopping</w>": 7994,
      "torture</w>": 7995,
      "brains</w>": 7996,
      "directions</w>": 7997,
      "bidden</w>": 7998,
      "weapon</w>": 7999,
      "depend</w>": 8000,
      "confined</w>": 8001,
      "trousers</w>": 8002,
      "BU": 8003,
      "Fle": 8004,
      "nful</w>": 8005,
      "say": 8006,
      "lasted</w>": 8007,
      "Theyâ</w>": 8008,
      "hop": 8009,
      "compos": 8010,
      "heap</w>": 8011,
      "geo": 8012,
      "canst</w>": 8013,
      "colonel</w>": 8014,
      "wandering</w>": 8015,
      "supported</w>": 8016,
      "simplicity</w>": 8017,
      "Charlo": 8018,
      "kissing</w>": 8019,
      "Vasya</w>": 8020,
      "Gloucester</w>": 8021,
      "Sussex</w>": 8022,
      "Liverpool</w>": 8023,
      "Flanders</w>": 8024,
      "LY": 8025,
      "Mill": 8026,
      "Van</w>": 8027,
      "WAR": 8028,
      "insol": 8029,
      "arâ</w>": 8030,
      "ilâ</w>": 8031,
      "lift</w>": 8032,
      "ext": 8033,
      "counted</w>": 8034,
      "distri": 8035,
      "answers</w>": 8036,
      "tore</w>": 8037,
      "igned</w>": 8038,
      "Sun</w>": 8039,
      "Corps</w>": 8040,
      "sunshine</w>": 8041,
      "brook</w>": 8042,
      "domestic</w>": 8043,
      "coachman</w>": 8044,
      "Ara": 8045,
      "HE": 8046,
      "PAT": 8047,
      "Tul": 8048,
      "fred</w>": 8049,
      "recall</w>": 8050,
      "seas</w>": 8051,
      "fort": 8052,
      "spic": 8053,
      "mechan": 8054,
      "term</w>": 8055,
      "minated</w>": 8056,
      "corn</w>": 8057,
      "stock": 8058,
      "phers</w>": 8059,
      "ENCE</w>": 8060,
      "instrument</w>": 8061,
      "shelter</w>": 8062,
      "barricade</w>": 8063,
      "Sou": 8064,
      "awoke</w>": 8065,
      "gon": 8066,
      "lling</w>": 8067,
      "wrink": 8068,
      "come": 8069,
      "sending</w>": 8070,
      "ROME": 8071,
      "syl": 8072,
      "obeyed</w>": 8073,
      "weed</w>": 8074,
      ",</w>": 8075,
      "recollection</w>": 8076,
      "triumph": 8077,
      "intellectual</w>": 8078,
      "Providence</w>": 8079,
      "Fyodorovitch</w>": 8080,
      "Pyo": 8081,
      "iest</w>": 8082,
      "inform</w>": 8083,
      "itating</w>": 8084,
      "safely</w>": 8085,
      "agger": 8086,
      "prov": 8087,
      "gion</w>": 8088,
      "iddy</w>": 8089,
      "Engine": 8090,
      "1891</w>": 8091,
      "EST</w>": 8092,
      "What": 8093,
      "incident</w>": 8094,
      "confirmed</w>": 8095,
      "victim</w>": 8096,
      "ROMEO</w>": 8097,
      "Pyotr</w>": 8098,
      "Rec": 8099,
      "Sk": 8100,
      "isi": 8101,
      "refre": 8102,
      "resting</w>": 8103,
      "saddle</w>": 8104,
      "smiles</w>": 8105,
      "secrets</w>": 8106,
      "squee": 8107,
      "Pavlov": 8108,
      "preceding</w>": 8109,
      "ghost</w>": 8110,
      "Padre</w>": 8111,
      "quantity</w>": 8112,
      "GRE": 8113,
      "Sel": 8114,
      "Sch": 8115,
      "feed</w>": 8116,
      "obstin": 8117,
      "puts</w>": 8118,
      "warded</w>": 8119,
      "starting</w>": 8120,
      "illâ</w>": 8121,
      "favourable</w>": 8122,
      "thank": 8123,
      "uniform</w>": 8124,
      "commands</w>": 8125,
      "Dash": 8126,
      "Something</w>": 8127,
      "discretion</w>": 8128,
      "scheme</w>": 8129,
      "nodded</w>": 8130,
      "NI": 8131,
      "SSI": 8132,
      "istic</w>": 8133,
      "vated</w>": 8134,
      "yr</w>": 8135,
      "thunder": 8136,
      "dians</w>": 8137,
      "lake</w>": 8138,
      "toler": 8139,
      "proportion</w>": 8140,
      "dresses</w>": 8141,
      "interview</w>": 8142,
      "burnt</w>": 8143,
      "kets</w>": 8144,
      "exclu": 8145,
      "glimp": 8146,
      "wrapped</w>": 8147,
      "stirred</w>": 8148,
      "PRINCE</w>": 8149,
      "Doun": 8150,
      "None</w>": 8151,
      "TE": 8152,
      "bone</w>": 8153,
      "bee</w>": 8154,
      "urs</w>": 8155,
      "activity</w>": 8156,
      "earlier</w>": 8157,
      "proposal</w>": 8158,
      "paying</w>": 8159,
      "seeming</w>": 8160,
      "withdrew</w>": 8161,
      "harmony</w>": 8162,
      "LEON": 8163,
      "doubts</w>": 8164,
      "ROBERT</w>": 8165,
      "invitation</w>": 8166,
      "distinguish</w>": 8167,
      "discussion</w>": 8168,
      "correct</w>": 8169,
      "cabin</w>": 8170,
      "scenes</w>": 8171,
      "Grushenka</w>": 8172,
      "CK": 8173,
      "Let": 8174,
      "cÃ</w>": 8175,
      "tine</w>": 8176,
      "reduced</w>": 8177,
      "fires</w>": 8178,
      "teth</w>": 8179,
      "fired</w>": 8180,
      "immortal</w>": 8181,
      "piano</w>": 8182,
      "coloured</w>": 8183,
      "powder</w>": 8184,
      "1897</w>": 8185,
      "Barney</w>": 8186,
      "pictures</w>": 8187,
      "Serg": 8188,
      "Field</w>": 8189,
      "sixty</w>": 8190,
      "Hannah</w>": 8191,
      "criminal</w>": 8192,
      "Suffol": 8193,
      "Snagsby</w>": 8194,
      "Wendy</w>": 8195,
      "Am</w>": 8196,
      "Hold</w>": 8197,
      "teenth</w>": 8198,
      "compelled</w>": 8199,
      "pleasing</w>": 8200,
      "aught</w>": 8201,
      "frag": 8202,
      "lessons</w>": 8203,
      "Neu": 8204,
      "hypo": 8205,
      "impatient</w>": 8206,
      "Wait</w>": 8207,
      "celebrated</w>": 8208,
      "warmth</w>": 8209,
      "BRO": 8210,
      "GAR": 8211,
      "gues": 8212,
      "ssly</w>": 8213,
      "Moreover</w>": 8214,
      "heir</w>": 8215,
      "swept</w>": 8216,
      "eus</w>": 8217,
      "ric</w>": 8218,
      "accompany</w>": 8219,
      "waist</w>": 8220,
      "appeal</w>": 8221,
      "probable</w>": 8222,
      "Dedlock</w>": 8223,
      "Razumihin</w>": 8224,
      "RS</w>": 8225,
      "arise</w>": 8226,
      "stati": 8227,
      "eled</w>": 8228,
      "sibility</w>": 8229,
      "joining</w>": 8230,
      "May": 8231,
      "SeÃ</w>": 8232,
      "classi": 8233,
      "declar": 8234,
      "violently</w>": 8235,
      "cleared</w>": 8236,
      "tarily</w>": 8237,
      "maintained</w>": 8238,
      "deceive</w>": 8239,
      "hesitation</w>": 8240,
      "injury</w>": 8241,
      "bestowed</w>": 8242,
      "dwelling</w>": 8243,
      "Fitz": 8244,
      "MRS</w>": 8245,
      "Pres": 8246,
      "macy</w>": 8247,
      "wave</w>": 8248,
      "fain</w>": 8249,
      "admi": 8250,
      "pistol</w>": 8251,
      "curtain</w>": 8252,
      "ALL</w>": 8253,
      "Fathom</w>": 8254,
      "landlady</w>": 8255,
      "injured</w>": 8256,
      "40</w>": 8257,
      "Bing": 8258,
      "BRU": 8259,
      "TA": 8260,
      "locks</w>": 8261,
      "cade": 8262,
      "knowâ</w>": 8263,
      "remedy</w>": 8264,
      "descend</w>": 8265,
      "troubles</w>": 8266,
      "assist</w>": 8267,
      "consequences</w>": 8268,
      "entertained</w>": 8269,
      "Fyodor</w>": 8270,
      "clamation</w>": 8271,
      "passionate</w>": 8272,
      "elegant</w>": 8273,
      "edâ</w>": 8274,
      "gin": 8275,
      "mand</w>": 8276,
      "saint</w>": 8277,
      "cool": 8278,
      "sewhere</w>": 8279,
      "abun": 8280,
      "wars</w>": 8281,
      "design": 8282,
      "strious</w>": 8283,
      "Adju": 8284,
      "guilt</w>": 8285,
      "Earl</w>": 8286,
      "27": 8287,
      "28": 8288,
      "Emp": 8289,
      "lend</w>": 8290,
      "dio</w>": 8291,
      "whip</w>": 8292,
      "play": 8293,
      "walks</w>": 8294,
      "color</w>": 8295,
      "hunting</w>": 8296,
      "Havis": 8297,
      "studies</w>": 8298,
      "1898</w>": 8299,
      "ventured</w>": 8300,
      "salt</w>": 8301,
      "articles</w>": 8302,
      "malice</w>": 8303,
      "benevol": 8304,
      "impatience</w>": 8305,
      "translation</w>": 8306,
      "LUCI": 8307,
      "CK</w>": 8308,
      "bble</w>": 8309,
      "inspec": 8310,
      "renew": 8311,
      "novel</w>": 8312,
      "sadly</w>": 8313,
      "rah</w>": 8314,
      "morous</w>": 8315,
      "profit</w>": 8316,
      "ofs</w>": 8317,
      "consist": 8318,
      "apti": 8319,
      "supply</w>": 8320,
      "thirst</w>": 8321,
      "Madele": 8322,
      "occupation</w>": 8323,
      "majest": 8324,
      "depth</w>": 8325,
      "Gazet": 8326,
      "betrayed</w>": 8327,
      "Wellington</w>": 8328,
      "eau</w>": 8329,
      "deâ</w>": 8330,
      "grasp</w>": 8331,
      "therein</w>": 8332,
      "banks</w>": 8333,
      "pulling</w>": 8334,
      "easier</w>": 8335,
      "Jesus</w>": 8336,
      "proceeding</w>": 8337,
      "fence</w>": 8338,
      "mson</w>": 8339,
      "arm": 8340,
      "ribb": 8341,
      "united</w>": 8342,
      "selfe</w>": 8343,
      "ading</w>": 8344,
      "White</w>": 8345,
      "natured</w>": 8346,
      "Hereâ</w>": 8347,
      "Grima": 8348,
      "chapter</w>": 8349,
      "Med": 8350,
      "TT</w>": 8351,
      "bber": 8352,
      "agitated</w>": 8353,
      "Think</w>": 8354,
      "string</w>": 8355,
      "lordship</w>": 8356,
      "ovâ</w>": 8357,
      "Leon": 8358,
      "tremble</w>": 8359,
      "combat</w>": 8360,
      "arguments</w>": 8361,
      "papa</w>": 8362,
      "behaved</w>": 8363,
      "destiny</w>": 8364,
      "Oxf</w>": 8365,
      "ghorn</w>": 8366,
      "Blifil</w>": 8367,
      "GER</w>": 8368,
      "bab": 8369,
      "bill</w>": 8370,
      "fli": 8371,
      "elt</w>": 8372,
      "definite</w>": 8373,
      "prodi": 8374,
      "gossi": 8375,
      "scoun": 8376,
      "judged</w>": 8377,
      "angrily</w>": 8378,
      "perfection</w>": 8379,
      "favor</w>": 8380,
      "respected</w>": 8381,
      "neighbour</w>": 8382,
      "riedly</w>": 8383,
      "convenient</w>": 8384,
      "citizen</w>": 8385,
      "plunged</w>": 8386,
      "killing</w>": 8387,
      "scattered</w>": 8388,
      "chimney</w>": 8389,
      "DA": 8390,
      "a_</w>": 8391,
      "altered</w>": 8392,
      "exhib": 8393,
      "hoping</w>": 8394,
      "claim": 8395,
      "mates</w>": 8396,
      "daring</w>": 8397,
      "colours</w>": 8398,
      "smith</w>": 8399,
      "examine</w>": 8400,
      "reflect</w>": 8401,
      "Bennet</w>": 8402,
      "Florence</w>": 8403,
      "treach": 8404,
      "portrait</w>": 8405,
      "MER": 8406,
      "Sol": 8407,
      "She": 8408,
      "pÃ</w>": 8409,
      "pho": 8410,
      "tsâ</w>": 8411,
      "youthful</w>": 8412,
      "han</w>": 8413,
      "tical</w>": 8414,
      "unpleasant</w>": 8415,
      "morti": 8416,
      "scrat": 8417,
      "knock</w>": 8418,
      "passes</w>": 8419,
      "chari": 8420,
      "respects</w>": 8421,
      "smoking</w>": 8422,
      "pretend</w>": 8423,
      "Gav": 8424,
      "scoundre": 8425,
      "BUR": 8426,
      "ashes</w>": 8427,
      "remove</w>": 8428,
      "attained</w>": 8429,
      "easiness</w>": 8430,
      "gravely</w>": 8431,
      "Defar": 8432,
      "hurriedly</w>": 8433,
      "convul": 8434,
      "flames</w>": 8435,
      "Temple</w>": 8436,
      "messenger</w>": 8437,
      "9th</w>": 8438,
      "Sign": 8439,
      "reserved</w>": 8440,
      "constru": 8441,
      "fright</w>": 8442,
      "dislike</w>": 8443,
      "sink</w>": 8444,
      "stole</w>": 8445,
      "dency</w>": 8446,
      "mpaign</w>": 8447,
      "Helen</w>": 8448,
      "swif": 8449,
      "clergyman</w>": 8450,
      "Adjutant</w>": 8451,
      "dwell</w>": 8452,
      "py</w>": 8453,
      "arrested</w>": 8454,
      "lect</w>": 8455,
      "colu": 8456,
      "sober</w>": 8457,
      "verses</w>": 8458,
      "attle</w>": 8459,
      "offering</w>": 8460,
      "medical</w>": 8461,
      "Will": 8462,
      "excess</w>": 8463,
      "Farewell</w>": 8464,
      "symp": 8465,
      "178": 8466,
      "employment</w>": 8467,
      "belongs</w>": 8468,
      "adopted</w>": 8469,
      "AL</w>": 8470,
      "pee": 8471,
      "shre": 8472,
      "deserved</w>": 8473,
      "waist": 8474,
      "perform</w>": 8475,
      "cannon</w>": 8476,
      "ChÃ</w>": 8477,
      "veth</w>": 8478,
      "admire</w>": 8479,
      "constitution</w>": 8480,
      "enterpri": 8481,
      "signal</w>": 8482,
      "sentiment</w>": 8483,
      "challen": 8484,
      "Jan": 8485,
      "hint</w>": 8486,
      "pent</w>": 8487,
      "wits</w>": 8488,
      "reminded</w>": 8489,
      "reluc": 8490,
      "load</w>": 8491,
      "loaded</w>": 8492,
      "lodging</w>": 8493,
      "gements</w>": 8494,
      "calmly</w>": 8495,
      "ides</w>": 8496,
      "fools</w>": 8497,
      "preparing</w>": 8498,
      "Prussi": 8499,
      "Romeo</w>": 8500,
      "Co</w>": 8501,
      "idi": 8502,
      "ny": 8503,
      "tched</w>": 8504,
      "errant</w>": 8505,
      "rog": 8506,
      "decent</w>": 8507,
      "selfâ</w>": 8508,
      "perfu": 8509,
      "landed</w>": 8510,
      "humb": 8511,
      "misfortunes</w>": 8512,
      "deadly</w>": 8513,
      "Infantry</w>": 8514,
      "1899</w>": 8515,
      "resisti": 8516,
      "complain</w>": 8517,
      "disgust</w>": 8518,
      "entreat</w>": 8519,
      "Andrea</w>": 8520,
      "RESS</w>": 8521,
      "Cecil</w>": 8522,
      "summoned</w>": 8523,
      "BLO": 8524,
      "CLE": 8525,
      "Ye</w>": 8526,
      "ain</w>": 8527,
      "ahead</w>": 8528,
      "sers</w>": 8529,
      "elsewhere</w>": 8530,
      "diss": 8531,
      "coats</w>": 8532,
      "depart</w>": 8533,
      "trained</w>": 8534,
      "tower</w>": 8535,
      "mmered</w>": 8536,
      "fici": 8537,
      "Huck</w>": 8538,
      "goods</w>": 8539,
      "amused</w>": 8540,
      "endeavour</w>": 8541,
      "platoon</w>": 8542,
      "Cun": 8543,
      "Est": 8544,
      "TO": 8545,
      "echo": 8546,
      "kerâ</w>": 8547,
      "mness</w>": 8548,
      "râ</w>": 8549,
      "excu": 8550,
      "precip": 8551,
      "commit</w>": 8552,
      "emperor</w>": 8553,
      "Judge</w>": 8554,
      "Faith</w>": 8555,
      "thousands</w>": 8556,
      "bitterly</w>": 8557,
      "seize</w>": 8558,
      "extravag": 8559,
      "FRED</w>": 8560,
      "_I_</w>": 8561,
      "axe</w>": 8562,
      "guessed</w>": 8563,
      "Boo": 8564,
      "Bapti": 8565,
      "CAP": 8566,
      "athan</w>": 8567,
      "jest</w>": 8568,
      "nou": 8569,
      "revel": 8570,
      "hiding</w>": 8571,
      "union</w>": 8572,
      "ssie</w>": 8573,
      "cared</w>": 8574,
      "finest</w>": 8575,
      "Pole</w>": 8576,
      "crushed</w>": 8577,
      "loudly</w>": 8578,
      "Civill</w>": 8579,
      "cell</w>": 8580,
      "dale</w>": 8581,
      "og": 8582,
      "reth</w>": 8583,
      "tious</w>": 8584,
      "mode</w>": 8585,
      "holi": 8586,
      "must": 8587,
      "preferred</w>": 8588,
      "opposition</w>": 8589,
      "pest</w>": 8590,
      "lane</w>": 8591,
      "intervals</w>": 8592,
      "teaching</w>": 8593,
      "measures</w>": 8594,
      "amusement</w>": 8595,
      "mberland</w>": 8596,
      "abbÃ</w>": 8597,
      "SERV": 8598,
      "ccio</w>": 8599,
      "Dounia</w>": 8600,
      "Grimaud</w>": 8601,
      "Gavro": 8602,
      "Letâ</w>": 8603,
      "TY</w>": 8604,
[...]
